[PAD]
[unused1]
[unused2]
[unused3]
[unused4]
[unused5]
[unused6]
[unused7]
[unused8]
[unused9]
[unused10]
[unused11]
[unused12]
[unused13]
[unused14]
[unused15]
[unused16]
[unused17]
[unused18]
[unused19]
[unused20]
[unused21]
[unused22]
[unused23]
[unused24]
[unused25]
[unused26]
[unused27]
[unused28]
[unused29]
[unused30]
[unused31]
[unused32]
[unused33]
[unused34]
[unused35]
[unused36]
[unused37]
[unused38]
[unused39]
[unused40]
[unused41]
[unused42]
[unused43]
[unused44]
[unused45]
[unused46]
[unused47]
A
B
C
D
E
F
G
H
I
J
K
L
M
N
O
P
Q
R
S
T
U
V
W
X
Y
Z
##A
##B
##C
##D
##E
##F
##G
##H
##I
##J
##K
##L
##M
##N
##O
##P
##Q
##R
##S
##T
##U
##V
##W
##X
##Y
##Z
[UNK]
[CLS]
[SEP]
[MASK]
<S>
<T>
!
"
#
$
%
&
'
(
)
*
+
,
-
.
/
0
1
2
3
4
5
6
7
8
9
:
;
<
=
>
?
@
[
\
]
^
a
b
c
d
e
f
g
h
i
j
k
l
m
n
o
p
q
r
s
t
u
v
w
x
y
z
{
|
}
–
—
‘
’
“
”
…
、
。
〈
〉
《
》
「
」
『
』
【
】
〔
〕
一
丁
七
万
丈
三
上
下
不
与
丐
丑
专
且
丕
世
丘
丙
业
丛
东
丝
丞
両
丢
两
严
丧
丨
个
丫
中
丰
串
临
丶
丸
丹
为
主
丼
丽
举
丿
乂
乃
久
么
义
之
乌
乍
乎
乏
乐
乒
乓
乔
乖
乗
乘
乙
乜
九
乞
也
习
乡
书
乩
买
乱
乳
乾
了
予
争
事
二
于
亏
云
互
五
井
亘
亚
些
亜
亟
亡
亢
交
亥
亦
产
亨
亩
享
京
亭
亮
亲
亳
亵
人
亿
什
仁
仃
仄
仅
仆
仇
今
介
仍
从
仑
仓
仔
仕
他
仗
付
仙
仝
仞
仟
代
令
以
仨
仪
们
仮
仰
仲
件
价
任
份
仿
企
伉
伊
伍
伎
伏
伐
休
众
优
伙
会
伝
伞
伟
传
伢
伤
伦
伪
伫
伯
估
伴
伶
伸
伺
似
伽
佃
但
位
低
住
佐
佑
体
何
佗
佘
余
佚
佛
作
佞
佟
你
佢
佣
佤
佥
佩
佬
佯
佰
佳
佶
佻
佼
使
侃
侄
侈
例
侍
侏
侑
侗
供
依
侠
価
侣
侥
侦
侧
侨
侬
侮
侯
侵
便
促
俄
俊
俎
俏
俐
俑
俗
俘
俚
保
俞
俟
信
俨
俩
俪
俭
修
俯
俱
俳
俸
俺
俾
倌
倍
倏
倒
倔
倘
候
倚
倜
借
倡
値
倦
倩
倪
倬
倭
债
值
倾
偃
假
偈
偌
偎
偏
偕
做
停
健
偶
偷
偻
偿
傀
傅
傍
傣
傥
储
傩
催
傲
傻
像
僖
僚
僧
僭
僮
僵
僻
儆
儋
儒
儡
儿
兀
允
元
兄
充
兆
先
光
克
免
児
兑
兔
兖
党
兜
兢
入
全
八
公
六
兮
兰
共
关
兴
兵
其
具
典
兹
养
兼
兽
冀
内
円
冇
冈
冉
册
再
冏
冒
冕
冗
写
军
农
冠
冢
冤
冥
冬
冯
冰
冲
决
况
冶
冷
冻
冼
冽
净
凄
准
凇
凉
凋
凌
减
凑
凛
凝
几
凡
凤
処
凪
凫
凭
凯
凰
凳
凶
凸
凹
出
击
函
凿
刀
刁
刃
分
切
刈
刊
刍
刎
刑
划
列
刘
则
刚
创
初
删
判
刨
利
别
刮
到
制
刷
券
刹
刺
刻
剁
剂
剃
削
剌
前
剐
剑
剔
剖
剜
剣
剥
剧
剩
剪
副
割
剽
剿
劈
力
劝
办
功
加
务
劣
动
助
努
劫
劭
励
劲
劳
劵
効
劾
势
勃
勇
勉
勋
勐
勒
勖
勘
募
勤
勺
勾
勿
匀
包
匆
匈
匍
匐
匕
化
北
匙
匝
匠
匡
匣
匪
匮
匹
区
医
匾
匿
十
千
卅
升
午
卉
半
卍
华
协
卑
卒
卓
单
卖
南
単
博
卜
卞
卟
占
卡
卢
卤
卦
卧
卫
卮
卯
印
危
即
却
卵
卷
卸
卿
厂
厄
厅
历
厉
压
厌
厕
厘
厚
厝
原
厢
厥
厦
厨
厩
厮
去
县
叁
参
又
叉
及
友
双
反
収
发
叔
取
受
变
叙
叛
叟
叠
叡
口
古
句
另
叨
叩
只
叫
召
叭
叮
可
台
叱
史
右
叵
叶
号
司
叹
叻
叼
叽
吁
吃
各
吆
合
吉
吊
吋
同
名
后
吏
吐
向
吒
吓
吕
吖
吗
君
吝
吞
吟
吠
吡
否
吧
吨
吩
含
听
吭
吮
启
吱
吴
吵
吸
吹
吻
吼
吽
吾
呀
呃
呆
呈
告
呋
呎
呐
呓
呕
呗
员
呛
呜
呢
呤
呦
周
呱
呲
味
呵
呷
呸
呻
呼
命
咀
咁
咂
咄
咆
咋
和
咎
咏
咒
咔
咕
咖
咗
咘
咙
咚
咣
咤
咦
咧
咨
咩
咪
咫
咬
咭
咯
咱
咲
咳
咸
咻
咽
咿
哀
品
哂
哄
哆
哇
哈
哉
哋
哌
响
哎
哏
哐
哑
哒
哔
哗
哟
哥
哦
哧
哨
哩
哪
哭
哮
哲
哺
哼
哽
唁
唆
唇
唉
唏
唐
唑
唔
唠
唤
唧
唬
售
唯
唰
唱
唳
唷
唾
啃
啄
商
啉
啊
啕
啖
啜
啡
啤
啥
啦
啧
啪
啫
啬
啮
啰
啲
啵
啶
啷
啸
啻
啼
啾
喀
喂
喃
善
喆
喇
喉
喊
喋
喏
喔
喘
喙
喜
喝
喟
喧
喰
喱
喳
喵
営
喷
喹
喺
喻
喽
嗅
嗑
嗒
嗓
嗔
嗖
嗜
嗝
嗟
嗡
嗣
嗤
嗦
嗨
嗪
嗬
嗯
嗲
嗳
嗷
嗽
嘀
嘅
嘈
嘉
嘌
嘎
嘘
嘚
嘛
嘞
嘟
嘢
嘣
嘤
嘧
嘭
嘱
嘲
嘴
嘶
嘹
嘻
嘿
噌
噎
噔
噗
噙
噜
噢
噤
器
噩
噪
噬
噱
噶
噻
嚎
嚏
嚓
嚗
嚟
嚣
嚷
嚼
囊
囍
囗
囚
四
囝
回
囟
因
囡
团
団
囤
囧
园
困
囱
図
围
固
国
图
囿
圃
圆
圈
圜
土
圣
在
圩
圪
圭
地
圳
场
圻
圾
址
坂
均
坊
坍
坎
坏
坐
坑
块
坚
坛
坝
坞
坟
坠
坡
坤
坦
坨
坪
坯
坳
坷
垂
垃
垄
垅
型
垌
垒
垚
垛
垠
垢
垣
垦
垩
垫
垭
垮
垸
埂
埃
埋
城
埔
埕
埗
域
埠
埤
埭
埵
埸
培
基
埼
堀
堂
堃
堆
堇
堑
堕
堙
堡
堤
堪
堰
堵
堺
塌
塑
塔
塘
塞
塩
填
塬
塾
墀
境
墅
墉
墒
墓
増
墘
墙
增
墟
墨
墩
壁
壅
壊
壑
壕
壤
士
壬
壮
声
売
壳
壶
壹
处
备
変
复
夏
夔
夕
外
夙
多
夜
够
大
天
太
夫
夭
央
夯
失
头
夷
夸
夹
夺
奂
奄
奇
奈
奉
奋
奎
奏
契
奔
奕
奖
套
奘
奚
奠
奢
奥
女
奴
奶
奸
她
好
如
妃
妄
妆
妇
妈
妊
妍
妒
妓
妖
妙
妞
妣
妤
妥
妨
妩
妪
妮
妲
妳
妹
妻
妾
姆
姉
姊
始
姐
姑
姒
姓
委
姗
姚
姜
姝
姣
姥
姨
姪
姫
姬
姹
姻
姿
威
娃
娄
娅
娆
娇
娉
娑
娘
娜
娟
娣
娥
娩
娱
娲
娴
娶
娼
婆
婉
婊
婕
婚
婢
婧
婴
婵
婶
婷
婺
婿
媒
媚
媛
媞
媲
媳
嫁
嫂
嫉
嫌
嫔
嫖
嫚
嫡
嫣
嫦
嫩
嬅
嬉
嬛
嬢
嬴
嬷
嬿
子
孑
孔
孕
孖
字
存
孙
孚
孛
孜
孝
孟
孢
季
孤
学
孩
孪
孬
孰
孱
孳
孵
孺
孽
宁
它
宅
宇
守
安
宋
完
宏
宓
宕
宗
官
宙
定
宛
宜
宝
实
実
宠
审
客
宣
室
宥
宦
宪
宫
宰
害
宴
宵
家
宸
容
宽
宾
宿
寂
寄
寅
密
寇
富
寐
寒
寓
寛
寝
寞
察
寡
寥
寨
寮
寰
寸
对
寺
寻
导
対
寿
封
専
射
将
尉
尊
小
少
尔
尕
尖
尘
尚
尝
尤
尧
尬
就
尴
尸
尹
尺
尻
尼
尽
尾
尿
局
屁
层
居
屈
屉
届
屋
屌
屎
屏
屐
屑
展
属
屠
屡
履
屯
山
屹
屿
岀
岁
岂
岌
岐
岑
岔
岗
岘
岙
岚
岛
岩
岫
岬
岭
岱
岳
岷
岸
峄
峇
峒
峙
峡
峤
峥
峦
峨
峪
峭
峰
峻
崁
崂
崆
崇
崎
崔
崖
崛
崧
崩
崭
崮
崴
崽
嵇
嵊
嵋
嵌
嵘
嵩
嵬
嵴
嶂
嶋
嶙
巅
巍
川
州
巡
巢
工
左
巧
巨
巩
巫
差
己
已
巳
巴
巷
巻
巽
巾
巿
币
市
布
帅
帆
师
希
帐
帑
帕
帖
帘
帚
帛
帜
帝
带
帧
席
帮
帯
帰
帷
常
帼
帽
幂
幄
幅
幌
幔
幕
幡
幢
干
平
年
并
幸
幺
幻
幼
幽
广
広
庄
庆
庇
床
序
庐
庑
库
应
底
庖
店
庙
庚
府
庞
废
庠
度
座
庭
庵
庶
康
庸
庹
庾
廉
廊
廓
廖
廪
延
廷
建
廿
开
弁
异
弃
弄
弈
弊
弋
式
弑
弓
引
弗
弘
弛
弟
张
弥
弦
弧
弩
弭
弯
弱
弹
强
弼
弾
归
当
录
彗
彝
形
彤
彦
彧
彩
彪
彬
彭
彰
影
彷
役
彻
彼
往
征
径
待
徇
很
徊
律
徐
徒
従
徕
得
徘
徙
御
徨
循
微
徳
徴
德
徼
徽
心
必
忆
忌
忍
忏
忒
忖
志
忘
忙
応
忠
忡
忤
忧
快
忱
念
忻
忽
忿
怀
态
怂
怅
怆
怎
怏
怒
怔
怕
怖
怙
怜
思
怠
怡
急
怦
性
怨
怪
怯
怵
总
怼
恁
恃
恋
恍
恐
恒
恕
恙
恚
恢
恣
恤
恨
恩
恪
恬
恭
息
恰
恳
恵
恶
恸
恺
恻
恼
恽
悄
悉
悌
悍
悔
悖
悚
悟
悠
患
悦
您
悪
悬
悯
悱
悲
悴
悸
悻
悼
情
惇
惊
惋
惑
惕
惘
惚
惜
惟
惠
惦
惧
惨
惩
惫
惬
惭
惮
惯
惰
想
惶
惹
惺
愁
愆
愈
愉
愍
意
愕
愚
感
愣
愤
愧
愫
愿
慈
慌
慎
慑
慕
慢
慧
慨
慰
慵
慷
憋
憎
憧
憨
憩
憬
憭
憾
懂
懈
懊
懋
懒
懦
懵
懿
戈
戊
戌
戍
戎
戏
成
我
戒
戕
或
战
戚
戛
戟
戡
戦
截
戬
戮
戳
戴
户
戸
戻
戾
房
所
扁
扇
扈
扉
手
才
扎
扑
扒
打
扔
托
扛
扣
扦
执
扩
扪
扫
扬
扭
扮
扯
扰
扳
扶
批
扼
找
承
技
抄
抉
把
抑
抒
抓
投
抖
抗
折
抚
抛
抜
抟
抠
抡
抢
护
报
披
抬
抱
抵
抹
押
抽
抿
拂
拄
担
拆
拇
拈
拉
拌
拍
拎
拐
拒
拓
拔
拖
拗
拘
拙
拚
招
拜
拟
拢
拣
拥
拦
拧
拨
择
括
拭
拯
拱
拳
拴
拷
拼
拽
拾
拿
持
挂
指
挈
按
挎
挑
挖
挚
挛
挝
挞
挟
挠
挡
挢
挣
挤
挥
挨
挪
挫
振
挹
挺
挽
捂
捅
捆
捉
捋
捌
捍
捎
捏
捐
捕
捞
损
捡
换
捣
捧
捩
据
捶
捷
捺
捻
掀
掂
掇
授
掉
掌
掏
掐
排
掖
掘
掠
探
掣
接
控
推
掩
措
掬
掰
掲
掳
掴
掷
掸
掺
掾
揆
揉
揍
描
提
插
揖
握
揣
揩
揪
揭
援
揽
搀
搁
搂
搅
搏
搐
搓
搔
搜
搞
搪
搬
搭
携
搽
摁
摄
摆
摇
摈
摊
摒
摔
摘
摞
摧
摩
摰
摸
摹
撂
撃
撅
撇
撑
撒
撕
撞
撤
撩
撬
播
撮
撰
撵
撷
撸
撼
擀
擂
擅
操
擎
擒
擘
擢
擦
攀
攒
攘
攥
攫
支
收
攸
改
攻
放
政
故
效
敌
敍
敏
救
敕
敖
教
敛
敝
敞
敢
散
敦
敬
数
敲
整
敷
文
斋
斌
斎
斐
斑
斓
斗
料
斛
斜
斟
斡
斤
斥
斧
斩
斫
断
斯
新
方
於
施
旁
旃
旅
旋
旌
旎
族
旖
旗
无
既
日
旦
旧
旨
早
旬
旭
旱
时
旷
旸
旺
旻
昀
昂
昆
昉
昊
昌
明
昏
易
昔
昕
昙
星
映
春
昧
昨
昭
是
昱
昴
昵
昶
昼
显
晁
晃
晋
晌
晏
晒
晓
晔
晕
晖
晗
晚
晞
晟
晤
晦
晨
晩
普
景
晰
晴
晶
晷
智
晾
暂
暄
暇
暐
暑
暖
暗
暝
暧
暨
暮
暱
暴
暹
曙
曜
曝
曦
曰
曲
曳
更
曹
曼
曾
替
最
月
有
朋
服
朐
朔
朕
朗
望
朝
期
朦
木
未
末
本
札
术
朱
朴
朵
机
朽
杀
杂
权
杆
杈
杉
李
杏
材
村
杓
杖
杜
杞
束
杠
条
来
杨
杭
杯
杰
杲
杳
杵
杷
杼
松
板
极
构
枇
枉
枋
析
枕
林
枚
果
枝
枢
枣
枪
枫
枭
枯
枰
枳
架
枷
枸
柄
柏
某
柑
柒
染
柔
柘
柚
柜
柞
柠
柢
查
柩
柬
柯
柱
柳
柴
柿
栀
栃
栄
栅
标
栈
栉
栋
栎
栏
树
栓
栖
栗
校
栩
株
样
核
根
格
栽
栾
桀
桁
桂
桃
桅
框
案
桉
桌
桐
桑
桓
桔
桜
桠
桡
桢
档
桥
桦
桧
桨
桩
桶
梁
梅
梆
梓
梗
梢
梦
梧
梨
梭
梯
械
梳
梵
梶
检
棂
棉
棋
棍
棒
棕
棘
棚
棠
棣
森
棱
棵
棹
棺
椁
椅
椋
植
椎
椒
検
椪
椭
椰
椹
椽
椿
楂
楔
楚
楝
楞
楠
楣
楫
楮
楷
楸
楹
楼
楽
概
榄
榆
榈
榉
榔
榕
榖
榛
榜
榨
榫
榭
榱
榴
榷
榻
槁
槃
槌
槎
槐
様
槛
槟
槭
槲
槻
槽
槿
樊
樟
模
権
横
樯
樱
樵
樽
樾
橄
橇
橐
橘
橙
橡
橱
橹
檀
檄
檎
檐
檬
欠
次
欢
欣
欤
欧
欲
欸
欺
款
歆
歇
歉
歌
歙
止
正
此
步
武
歧
歩
歪
歳
歴
歹
死
歼
殁
殃
殆
殇
殉
殊
残
殒
殓
殖
殡
殴
段
殷
殿
毁
毂
毅
毋
母
毎
每
毒
毓
比
毕
毗
毘
毙
毛
毡
毫
毯
毽
氏
氐
民
氓
气
氖
気
氙
氛
氟
氡
氢
氦
氧
氨
氪
氮
氯
氰
氲
水
氷
永
氹
氽
汀
汁
求
汆
汇
汉
汐
汕
汗
汛
汝
汞
江
池
污
汤
汨
汩
汪
汰
汲
汴
汶
汹
汽
汾
沁
沂
沃
沅
沈
沉
沌
沏
沐
沓
沙
沛
沟
没
沢
沣
沥
沦
沧
沪
沫
沭
沮
沱
河
沸
油
治
沼
沽
沾
沿
泄
泉
泊
泌
泓
法
泗
泛
泞
泠
泡
波
泣
泥
注
泪
泫
泮
泯
泰
泱
泳
泵
泷
泸
泻
泼
泽
泾
洁
洄
洋
洒
洗
洙
洛
洞
津
洪
洮
洱
洲
洵
洸
洹
活
洼
洽
派
流
浃
浄
浅
浆
浇
浊
测
济
浏
浑
浒
浓
浔
浙
浚
浜
浣
浦
浩
浪
浬
浮
浯
浴
海
浸
涂
涅
消
涉
涌
涎
涓
涔
涕
涙
涛
涝
涞
涟
涠
涡
涣
涤
润
涧
涨
涩
涪
涮
涯
液
涵
涸
涿
淀
淄
淅
淆
淇
淋
淌
淑
淖
淘
淙
淞
淡
淤
淦
淫
淬
淮
深
淳
混
淹
添
淼
清
済
渉
渊
渋
渍
渎
渐
渔
渗
渚
渝
渠
渡
渣
渤
渥
温
渭
港
渲
渴
游
渺
湃
湄
湍
湖
湘
湛
湟
湫
湮
湳
湾
湿
満
溃
溅
溉
溏
源
溜
溟
溢
溥
溧
溪
溯
溱
溴
溶
溺
滁
滂
滇
滋
滑
滓
滔
滕
滘
滚
滝
滞
滟
满
滢
滤
滥
滦
滨
滩
滴
漂
漆
漉
漏
漓
演
漕
漠
漩
漪
漫
漯
漱
漳
漾
潆
潇
潋
潍
潘
潜
潞
潟
潢
潦
潭
潮
潴
潺
潼
澄
澈
澍
澎
澜
澡
澧
澳
澹
激
濂
濑
濒
濠
濡
濬
濮
濯
瀑
瀚
瀛
瀞
瀬
灌
灏
灞
火
灬
灭
灯
灰
灵
灶
灸
灼
灾
灿
炀
炁
炅
炉
炊
炎
炒
炔
炕
炖
炙
炜
炝
炫
炬
炭
炮
炯
炳
炷
炸
点
炼
炽
烁
烂
烃
烈
烊
烘
烙
烛
烟
烤
烦
烧
烨
烩
烫
烬
热
烯
烷
烹
烽
焉
焊
焕
焖
焗
焘
焙
焚
焜
焦
焯
焰
焱
然
焼
煅
煊
煌
煎
煖
煜
煞
煤
煦
照
煨
煮
煲
煸
煽
熄
熊
熏
熔
熙
熟
熠
熨
熬
熵
熹
燃
燊
燎
燔
燕
燥
燧
燮
燿
爆
爪
爬
爰
爱
爵
父
爷
爸
爹
爻
爽
片
版
牌
牍
牒
牙
牛
牝
牟
牠
牡
牢
牦
牧
物
牯
牲
牵
特
牺
犀
犁
犊
犍
犒
犬
犯
状
犷
犹
狂
狄
狈
狎
狐
狗
狙
狞
狠
狡
狩
独
狭
狮
狱
狸
狼
猎
猖
猗
猛
猜
猝
猥
猩
猪
猫
猬
献
猴
猷
猾
猿
獐
獒
獠
獣
獭
獾
玄
率
玉
王
玑
玖
玛
玟
玠
玥
玩
玫
玮
环
现
玲
玳
玷
玺
玻
珀
珂
珅
珈
珉
珊
珍
珏
珐
珑
珙
珞
珠
珣
珥
珩
珪
班
珮
珲
珺
球
琅
理
琇
琉
琊
琍
琏
琐
琛
琢
琥
琦
琨
琪
琬
琮
琰
琳
琴
琵
琶
琼
瑀
瑁
瑄
瑕
瑗
瑙
瑚
瑛
瑜
瑞
瑟
瑠
瑰
瑶
瑾
璀
璁
璃
璇
璋
璎
璐
璘
璜
璞
璟
璧
璨
璿
瓒
瓜
瓢
瓣
瓤
瓦
瓮
瓯
瓴
瓶
瓷
甄
甑
甘
甙
甚
甜
生
甥
用
甩
甫
甬
甭
田
由
甲
申
电
男
甸
町
画
甾
畀
畅
畈
界
畏
畑
畔
留
畜
略
畦
番
畲
畴
畸
畹
畿
疃
疆
疏
疑
疔
疖
疗
疙
疚
疝
疟
疡
疣
疤
疥
疫
疮
疯
疱
疲
疳
疵
疸
疹
疼
疽
疾
痂
病
症
痈
痉
痊
痒
痔
痕
痘
痛
痞
痢
痣
痤
痧
痨
痫
痰
痱
痴
痹
痿
瘀
瘁
瘘
瘙
瘟
瘠
瘢
瘤
瘦
瘩
瘪
瘫
瘴
瘸
瘾
瘿
癌
癖
癞
癣
癫
癸
発
登
白
百
皂
的
皆
皇
皈
皋
皎
皑
皓
皖
皙
皮
皱
皴
皿
盂
盅
盆
盈
益
盎
盏
盐
监
盒
盔
盖
盗
盘
盛
盟
盥
目
盯
盱
盲
直
相
盹
盼
盾
省
眉
看
県
真
眠
眦
眨
眩
眯
眶
眷
眸
眺
眼
着
睁
睇
睐
睑
睛
睡
睢
督
睥
睦
睨
睫
睬
睹
睽
睾
睿
瞄
瞅
瞋
瞎
瞑
瞒
瞟
瞠
瞥
瞧
瞩
瞪
瞬
瞭
瞰
瞳
瞻
瞿
矗
矛
矜
矢
矣
知
矩
矫
短
矮
石
矶
矽
矾
矿
码
砂
砌
砍
砒
研
砖
砚
砣
砥
砧
砭
砰
砲
破
砷
砸
砺
砼
砾
础
硅
硐
硒
硕
硝
硫
硬
确
硼
碁
碇
碉
碌
碍
碎
碑
碓
碗
碘
碚
碛
碟
碣
碧
碰
碱
碳
碴
碾
磁
磅
磊
磋
磐
磕
磡
磨
磬
磷
磺
礁
示
礼
社
祀
祁
祂
祇
祈
祉
祎
祐
祖
祗
祚
祛
祜
祝
神
祟
祠
祢
祥
票
祭
祯
祷
祸
祺
禀
禁
禄
禅
福
禛
禧
禹
禺
离
禽
禾
秀
私
秃
秆
秉
秋
种
科
秒
秘
租
秣
秤
秦
秧
秩
积
称
秸
移
秽
稀
程
稍
税
稔
稗
稚
稠
稣
稲
稳
稷
稹
稻
稼
稽
稿
穂
穆
穗
穴
究
穷
穹
空
穿
突
窃
窄
窈
窍
窑
窒
窓
窖
窗
窘
窜
窝
窟
窠
窥
窦
窨
窿
立
竖
站
竜
竞
竟
章
竣
童
竭
端
竹
竺
竽
竿
笃
笆
笈
笋
笏
笑
笔
笙
笛
笞
笠
符
笨
第
笹
笺
笼
等
筋
筏
筐
筑
筒
答
策
筛
筝
筠
筱
筲
筵
筷
筹
签
简
箍
箐
箔
箕
算
箝
管
箩
箫
箭
箱
箴
箸
篁
篆
篇
篓
篙
篝
篡
篪
篮
篱
篷
簇
簋
簧
簪
簸
簿
籁
籍
米
类
籼
籽
粄
粉
粑
粒
粕
粗
粘
粟
粤
粥
粧
粪
粮
粱
粲
粳
粹
粼
粽
精
粿
糅
糊
糍
糕
糖
糗
糙
糜
糟
糠
糬
糯
糸
系
紊
素
索
紧
紫
累
経
絮
絵
継
続
綦
総
繁
繇
繋
纂
纠
红
纣
纤
约
级
纨
纪
纫
纬
纭
纯
纱
纲
纳
纵
纶
纷
纸
纹
纺
纽
纾
线
绀
练
组
绅
细
织
终
绊
绍
绎
经
绑
绒
结
绕
绘
给
绚
绛
络
绝
绞
统
绡
绢
绣
绥
绦
继
绩
绪
绫
续
绮
绯
绰
绳
维
绵
绶
绷
绸
绻
综
绽
绾
绿
缀
缄
缅
缆
缇
缈
缉
缎
缓
缔
缕
编
缘
缙
缚
缜
缝
缠
缢
缤
缥
缨
缩
缪
缭
缮
缰
缴
缸
缺
罂
罄
罐
网
罔
罕
罗
罚
罡
罢
罩
罪
置
署
罹
羁
羊
羌
美
羔
羚
羞
羟
羡
群
羧
羯
羲
羸
羹
羽
羿
翁
翅
翊
翌
翎
翔
翘
翟
翠
翡
翦
翩
翰
翱
翳
翻
翼
耀
老
考
耄
者
耆
耋
而
耍
耐
耒
耕
耗
耘
耙
耦
耨
耳
耶
耷
耸
耻
耽
耿
聂
聆
聊
聋
职
聒
联
聘
聚
聪
聴
聿
肃
肄
肆
肇
肉
肋
肌
肓
肖
肘
肚
肛
肝
肠
股
肢
肤
肥
肩
肪
肯
肱
育
肴
肺
肽
肾
肿
胀
胁
胃
胄
胆
背
胍
胎
胖
胚
胛
胜
胝
胞
胡
胤
胥
胧
胪
胫
胭
胯
胰
胱
胳
胴
胶
胸
胺
能
脂
脆
脇
脉
脊
脍
脏
脐
脑
脓
脖
脘
脚
脯
脱
脲
脸
脾
腆
腈
腊
腋
腌
腐
腑
腓
腔
腕
腥
腩
腭
腮
腰
腱
腴
腹
腺
腻
腾
腿
膀
膈
膊
膏
膑
膘
膛
膜
膝
膦
膨
膳
膺
膻
臀
臂
臆
臊
臣
臧
自
臬
臭
至
致
臻
臼
臾
舀
舂
舅
舆
舌
舍
舎
舐
舒
舔
舖
舛
舜
舞
舟
航
舫
般
舰
舱
舵
舶
舷
舸
船
舺
艇
艋
艘
艮
良
艰
色
艳
艹
艺
艾
节
芃
芈
芊
芋
芍
芎
芒
芙
芜
芝
芡
芥
芦
芩
芪
芫
芬
芭
芮
芯
花
芳
芷
芸
芹
芽
芾
苄
苇
苋
苍
苏
苑
苒
苓
苔
苕
苗
苛
苜
苞
苟
苡
苣
若
苦
苫
苯
英
苴
苷
苹
苻
茁
茂
范
茄
茅
茉
茎
茏
茗
茜
茧
茨
茫
茬
茭
茯
茱
茴
茵
茶
茸
茹
荀
荃
荆
草
荏
荐
荒
荔
荖
荘
荚
荞
荟
荠
荡
荣
荤
荥
荧
荨
荪
荫
药
荳
荷
荻
荼
荽
莅
莆
莉
莎
莒
莓
莘
莞
莠
莪
莫
莱
莲
获
莹
莺
莽
菀
菁
菅
菇
菈
菊
菌
菏
菓
菖
菘
菜
菟
菠
菡
菩
菱
菲
菽
萁
萃
萄
萋
萌
萍
萎
萘
萝
萤
营
萦
萧
萨
萩
萱
萸
萼
落
葆
著
葛
葡
董
葩
葫
葬
葭
葱
葳
葵
葶
葺
蒂
蒋
蒙
蒜
蒟
蒨
蒲
蒸
蒹
蒻
蒿
蓁
蓄
蓉
蓑
蓓
蓖
蓝
蓟
蓦
蓬
蓼
蓿
蔑
蔓
蔗
蔚
蔡
蔫
蔬
蔵
蔷
蔺
蔻
蔼
蔽
蕃
蕈
蕉
蕊
蕙
蕤
蕨
蕲
蕴
蕻
蕾
薄
薅
薇
薏
薙
薛
薨
薪
薬
薯
薰
藉
藏
藐
藓
藕
藜
藤
藩
藻
藿
蘑
蘖
蘸
蘼
虎
虏
虐
虑
虔
虚
虞
虢
虫
虬
虱
虹
虻
虽
虾
蚀
蚁
蚂
蚊
蚌
蚓
蚕
蚜
蚝
蚣
蚤
蚧
蚩
蚱
蚵
蛀
蛆
蛇
蛊
蛋
蛎
蛔
蛙
蛛
蛟
蛤
蛭
蛮
蛰
蛳
蛹
蛾
蜀
蜂
蜃
蜇
蜈
蜊
蜒
蜓
蜕
蜗
蜘
蜚
蜜
蜡
蜥
蜱
蜷
蜻
蜿
蝇
蝉
蝎
蝗
蝙
蝠
蝴
蝶
蝽
螂
融
螟
螨
螭
螯
螳
螺
蟀
蟆
蟋
蟑
蟒
蟠
蟹
蟾
蠕
蠡
蠢
蠹
血
衄
衅
行
衍
衔
街
衙
衞
衡
衢
衣
补
表
衩
衫
衬
衮
衰
衲
衷
衾
衿
袁
袂
袄
袅
袋
袍
袒
袖
袜
袤
袪
被
袭
袱
裁
裂
装
裆
裔
裕
裘
裙
裟
裤
裨
裱
裳
裴
裸
裹
裾
褂
褐
褒
褔
褚
褥
褪
褫
褶
襄
襟
西
要
覃
覆
覚
観
见
观
规
觅
视
览
觉
觊
觐
觑
角
觞
解
觥
触
言
訳
詹
誉
誓
読
警
譬
计
订
认
讥
讨
让
讪
讫
训
议
讯
记
讲
讳
讴
讶
讷
许
讹
论
讼
讽
设
访
诀
证
诃
评
诅
识
诈
诉
诊
诋
词
诏
译
试
诗
诘
诙
诚
诛
话
诞
诟
诠
诡
询
诣
诤
该
详
诧
诩
诫
诬
语
误
诰
诱
诲
说
诵
诶
请
诸
诺
读
诽
课
谀
谁
调
谄
谅
谆
谈
谊
谋
谌
谍
谎
谏
谐
谑
谒
谓
谔
谕
谗
谘
谙
谚
谛
谜
谟
谢
谣
谤
谥
谦
谧
谨
谩
谪
谬
谭
谯
谱
谲
谴
谶
谷
豁
豆
豉
豊
豌
豚
象
豢
豪
豫
豹
豺
貂
貌
貔
貘
贝
贞
负
贡
财
责
贤
败
账
货
质
贩
贪
贫
贬
购
贮
贯
贰
贱
贲
贴
贵
贷
贸
费
贺
贻
贼
贾
贿
赁
赂
赃
资
赅
赈
赊
赋
赌
赎
赏
赐
赓
赔
赖
赘
赚
赛
赝
赞
赟
赠
赡
赢
赣
赤
赦
赧
赫
赭
走
赳
赴
赵
赶
起
趁
超
越
趋
趟
趣
足
趴
趸
趺
趾
跃
跄
跆
跋
跌
跎
跑
跖
跗
跛
距
跟
跤
跨
跪
路
跳
践
跷
跺
跻
踊
踏
踝
踞
踢
踩
踪
踮
踱
踵
踹
蹂
蹄
蹇
蹈
蹉
蹊
蹋
蹑
蹙
蹦
蹩
蹬
蹭
蹲
蹴
蹶
蹼
蹿
躁
身
躬
躯
躲
躺
転
车
轧
轨
轩
转
轭
轮
软
轰
轲
轴
轶
轸
轻
轼
载
轿
较
辄
辅
辆
辇
辈
辉
辊
辍
辐
辑
输
辕
辖
辗
辘
辙
辛
辜
辞
辟
辣
辨
辩
辫
辰
辱
边
辺
辻
込
辽
达
迁
迂
迄
迅
过
迈
迎
运
近
返
还
这
进
远
违
连
迟
迢
迤
迥
迦
迩
迪
迫
迭
述
迳
迷
迸
迹
迺
追
退
送
适
逃
逅
逆
选
逊
逍
透
逐
递
途
逗
通
逛
逝
逞
速
造
逢
逮
逵
逶
逸
逻
逼
逾
遁
遂
遇
遍
遏
遐
遑
遒
道
遗
遛
遢
遣
遥
遨
遭
遮
遴
遵
遶
遽
避
邀
邃
邈
邑
邓
邕
邛
邝
邢
那
邦
邨
邪
邬
邮
邯
邰
邱
邳
邵
邸
邹
邺
邻
郁
郅
郊
郎
郑
郗
郜
郝
郡
郢
郤
郦
郧
部
郫
郭
郴
郷
郸
都
鄂
鄙
鄞
鄢
鄱
酉
酊
酋
酌
配
酐
酒
酗
酚
酝
酢
酣
酥
酩
酪
酬
酮
酯
酰
酱
酵
酶
酷
酸
酿
醇
醉
醋
醍
醒
醚
醛
醪
醮
醯
醴
醺
采
釉
释
里
重
野
量
金
釜
鈭
鉄
鉴
銝
銮
鎏
鎗
鏖
鑫
针
钉
钊
钎
钏
钒
钓
钗
钙
钛
钜
钝
钞
钟
钠
钡
钢
钣
钤
钥
钦
钧
钨
钩
钮
钯
钰
钱
钳
钴
钵
钺
钻
钼
钾
钿
铀
铁
铂
铃
铄
铅
铆
铉
铋
铌
铍
铎
铐
铛
铜
铝
铠
铡
铢
铣
铤
铨
铬
铭
铮
铰
铲
铳
铵
银
铸
铺
链
铿
销
锁
锂
锄
锅
锆
锈
锉
锋
锌
锏
锐
锑
锗
错
锚
锟
锡
锢
锣
锤
锥
锦
锭
键
锯
锰
锲
锵
锶
锹
锺
锻
镀
镁
镂
镇
镉
镌
镍
镐
镑
镕
镖
镗
镛
镜
镣
镬
镭
镯
镰
镳
镶
长
関
闘
门
闪
闫
闭
问
闯
闰
闲
间
闵
闷
闸
闹
闺
闻
闽
闾
阀
阁
阂
阅
阆
阇
阈
阉
阎
阐
阑
阔
阕
阖
阗
阙
阚
阜
队
阡
阪
阮
阱
防
阳
阴
阵
阶
阻
阿
陀
陂
附
际
陆
陇
陈
陋
陌
降
限
陕
陛
陟
陡
院
除
陨
险
陪
陲
陵
陶
陷
険
隅
隆
隈
隋
隍
随
隐
隔
隗
隘
隙
障
隞
隠
隡
隣
隧
隶
隼
隽
难
雀
雁
雄
雅
集
雇
雉
雌
雍
雎
雏
雑
雒
雕
雨
雪
雯
雳
零
雷
雹
雾
需
霁
霂
霄
霆
震
霈
霉
霊
霍
霎
霏
霑
霓
霖
霜
霞
霭
霰
露
霸
霹
霾
青
靓
靖
静
靛
非
靠
靡
面
靥
革
靳
靴
靶
靼
鞅
鞋
鞍
鞑
鞘
鞠
鞣
鞭
韦
韧
韩
韬
韭
音
韵
韶
頼
页
顶
顷
项
顺
须
顼
顽
顾
顿
颁
颂
预
颅
领
颇
颈
颉
颊
颌
颍
颏
颐
频
颓
颔
颖
颗
题
颚
颛
颜
额
颞
颠
颡
颢
颤
颦
颧
风
飒
飓
飘
飙
飚
飞
食
飨
餐
饕
饥
饧
饪
饬
饭
饮
饯
饰
饱
饲
饴
饵
饶
饷
饺
饼
饽
饿
馀
馁
馅
馆
馈
馋
馍
馏
馒
馔
首
馗
香
馥
馨
駄
駅
駆
験
马
驭
驮
驯
驰
驱
驳
驴
驶
驷
驸
驹
驻
驼
驾
驿
骁
骂
骄
骅
骆
骇
骈
骊
骋
验
骏
骐
骑
骗
骚
骛
骜
骞
骠
骡
骤
骥
骧
骨
骰
骶
骷
骸
骼
髂
髅
髋
髓
高
髦
髪
髯
髻
鬃
鬓
鬟
鬣
鬲
鬼
魁
魂
魄
魅
魇
魏
魔
鮨
鱼
鱿
鲀
鲁
鲈
鲉
鲍
鲑
鲛
鲜
鲟
鲢
鲤
鲨
鲫
鲱
鲲
鲶
鲷
鲸
鳃
鳄
鳅
鳌
鳍
鳕
鳖
鳗
鳝
鳞
鸟
鸠
鸡
鸢
鸣
鸥
鸦
鸨
鸪
鸭
鸮
鸯
鸳
鸵
鸽
鸾
鸿
鹂
鹃
鹄
鹅
鹈
鹊
鹌
鹏
鹑
鹗
鹘
鹜
鹞
鹤
鹦
鹧
鹫
鹭
鹰
鹳
鹿
麂
麋
麒
麓
麝
麟
麦
麸
麻
麾
黄
黍
黎
黏
黑
黒
黔
默
黛
黜
黝
黠
黯
鼋
鼎
鼐
鼓
鼠
鼬
鼹
鼻
鼾
齁
齐
齿
龄
龈
龋
龙
龚
龛
龟
！
（
）
，
．
：
；
？
00
01
02
03
04
05
06
07
08
09
0l
0t
10
11
12
13
14
15
16
17
18
19
1a
1b
1g
1m
1v
20
21
22
23
24
25
26
27
28
29
2a
2b
2d
2g
2k
2l
2m
30
31
32
33
34
35
36
37
38
39
3a
3c
3d
3g
3m
3p
3s
3t
40
41
42
43
44
45
46
47
48
49
4a
4d
4g
4k
4l
4m
4s
50
51
52
53
54
55
56
57
58
59
5a
5c
5d
5g
5k
5l
5m
5s
5t
5v
60
61
62
63
64
65
66
67
68
69
6a
6g
6l
6m
6p
6s
70
71
72
73
74
75
76
77
78
79
80
81
82
83
84
85
86
87
88
89
8g
8k
90
91
92
93
94
95
96
97
98
99
a1
a2
a3
a4
a5
a6
a7
a8
a9
aa
ab
ac
ad
ae
af
ag
ah
ai
ak
al
am
an
ap
ar
as
at
au
av
b1
b2
b3
b5
b6
ba
bb
bc
bd
be
bh
bi
bl
bo
bp
br
bt
by
c1
c2
c3
c4
c5
ca
cb
cc
cd
ce
cf
cg
ch
ci
cj
ck
cl
cm
cn
co
cp
cr
cs
ct
cv
cx
d1
d2
d3
d5
da
db
dc
dd
de
di
dj
dl
dm
do
dr
ds
dt
du
dv
dx
e1
e2
e3
e5
e6
e7
ea
eb
ec
ed
ee
ef
el
em
en
ep
eq
er
es
et
ev
ex
f1
f2
f3
f4
f5
fa
fb
fc
fe
ff
fi
fm
ft
fu
fx
g1
g2
g3
g5
g6
g7
g9
ga
gb
gc
gd
ge
gg
gi
gl
gm
go
gp
gs
gt
h1
h2
h5
h6
ha
hd
he
hi
hk
ho
hp
hr
hu
i3
i5
i7
ib
ic
id
ie
if
ig
ii
il
im
in
io
ip
iq
ir
is
it
iu
iv
jb
ji
jj
jo
jp
jr
js
k2
ka
kb
kd
kg
kk
kl
km
ko
ky
l1
l2
la
lc
le
lg
li
ll
lo
lp
lt
lu
lv
ly
lz
m1
m2
m3
m4
m5
m8
ma
mb
mc
md
me
mg
mi
mk
ml
mm
mo
mp
mr
ms
mt
mu
mv
mx
my
n1
n2
n3
na
nb
nc
ne
ng
ni
no
np
ns
nt
nu
oa
ob
of
oh
ok
ol
on
oo
op
or
os
p1
p2
p3
p9
pa
pc
pd
pe
pg
ph
pi
pk
pm
po
pp
pr
ps
pt
pu
pv
q1
q2
q3
q4
q5
q7
qa
qe
qi
qq
qr
qs
qt
r1
r2
r8
r9
ra
rc
rd
re
rf
rm
rn
ro
rp
rq
rs
rt
ru
rx
s1
s2
s3
s4
s5
s6
s7
s8
sa
sb
sc
sd
se
sf
sg
sh
si
sk
sm
so
sp
sr
ss
st
su
t1
t2
t3
ta
tb
tc
td
te
tf
ti
tm
to
ts
tt
tv
tw
ua
uc
ui
uk
ul
up
us
uv
v1
v2
v3
v4
v5
v6
v8
v9
va
vc
ve
vi
vm
vr
vs
wd
we
wi
wp
wu
ww
x1
x2
x3
x4
x5
x6
x7
x9
xa
xd
xi
xl
xp
xr
xx
xz
ya
yi
yu
yy
z2
zh
一一
一万
一丈
一下
一世
一丝
一两
一个
一中
一串
一举
一事
一二
一些
一亩
一亿
一代
一件
一任
一份
一伙
一会
一位
一体
一例
一侧
一倍
一元
一八
一共
一具
一册
一再
一出
一刀
一分
一切
一列
一则
一刻
一剑
一副
一动
一勺
一包
一匹
一千
一半
一卷
一双
一发
一口
一句
一只
一台
一叶
一号
一同
一名
一向
一员
一周
一味
一品
一回
一团
一圈
一场
一块
一堂
一堆
一声
一处
一夜
一大
一天
一头
一套
一如
一季
一宗
一定
一审
一家
一寸
一对
一封
一尊
一小
一尺
一局
一层
一届
一岁
一师
一带
一席
一帮
一幅
一幕
一幢
一年
一并
一度
一座
一开
一张
一律
一心
一战
一户
一所
一扇
一手
一打
一批
一把
一抹
一招
一拳
一排
一支
一文
一斤
一新
一方
一旁
一日
一旦
一早
一时
一晃
一曲
一月
一朝
一期
一本
一朵
一杆
一村
一束
一条
一来
一杯
一枚
一枝
一枪
一架
一栋
一株
一样
一根
一案
一桌
一档
一桩
一桶
一梦
一棵
一楼
一概
一次
一款
一步
一段
一气
一汽
一派
一流
一滴
一点
一片
一班
一瓶
一生
一番
一百
一盆
一盏
一盒
一盘
一直
一眼
一睹
一瞬
一碗
一票
一种
一秒
一程
一站
一章
一端
一笔
一等
一箱
一篇
一米
一类
一粒
一级
一纸
一线
一组
一经
一统
一维
一缕
一群
一股
一脚
一脸
一腔
一致
一般
一艘
一色
一节
一行
一袋
一览
一角
一记
一贯
一起
一趟
一路
一身
一车
一轮
一辆
一辈
一边
一连
一通
一遍
一道
一部
一重
一针
一门
一间
一队
一阵
一隅
一集
一面
一页
一顶
一项
一顿
一颗
一餐
一首
一齐
丁丁
丁卯
丁基
丁未
丁酉
丁香
七一
七七
七世
七个
七五
七位
七八
七分
七十
七千
七号
七品
七夕
七天
七宝
七层
七届
七岁
七年
七座
七彩
七律
七成
七日
七星
七月
七条
七次
七点
七百
七种
七章
七级
七色
七言
七里
七项
万一
万万
万丈
万世
万两
万个
万事
万亩
万亿
万代
万件
万份
万众
万余
万元
万册
万分
万千
万卷
万历
万古
万台
万名
万向
万吨
万国
万圣
万块
万多
万头
万套
万宁
万安
万宝
万家
万山
万岁
万州
万年
万张
万户
万斤
万方
万条
万株
万桶
万次
万民
万物
万福
万种
万科
万米
万股
万能
万般
万象
万豪
万辆
万达
万通
万部
万里
丈夫
丈量
三七
三万
三下
三世
三两
三个
三中
三九
三五
三井
三亚
三产
三代
三件
三份
三位
三倍
三元
三八
三公
三军
三农
三分
三包
三区
三十
三千
三卷
三口
三句
三只
三台
三叶
三号
三合
三名
三周
三品
三四
三国
三场
三块
三处
三天
三头
三套
三子
三季
三宝
三家
三尺
三局
三层
三届
三山
三岁
三岛
三峡
三年
三度
三座
三张
三弦
三成
三房
三才
三支
三教
三方
三无
三日
三明
三星
三昧
三晋
三月
三期
三本
三条
三板
三根
三桥
三次
三款
三步
三段
三毛
三水
三江
三河
三洋
三流
三清
三滤
三点
三环
三生
三甲
三界
三百
三皇
三相
三种
三科
三秦
三章
三等
三篇
三类
三级
三线
三组
三维
三者
三联
三节
三菱
三藏
三观
三角
三路
三轮
三进
三通
三遍
三道
三部
三里
三重
三门
三间
三阳
三院
三面
三项
三颗
三餐
三首
上万
上下
上乘
上书
上交
上京
上任
上传
上位
上体
上佳
上党
上册
上前
上千
上升
上午
上半
上卷
上去
上古
上台
上司
上周
上品
上唇
上场
上坡
上天
上头
上学
上官
上将
上尉
上层
上届
上山
上岗
上岸
上市
上帝
上年
上床
上当
上扬
上报
上攻
上方
上旬
上映
上期
上机
上来
上架
上校
上桌
上楼
上榜
上次
上流
上浮
上海
上涨
上游
上溯
上演
上火
上班
上瘾
上百
上皮
上移
上空
上端
上篮
上级
上线
上缴
上网
上联
上肢
上船
上药
上菜
上虞
上行
上街
上衣
上表
上装
上访
上证
上诉
上课
上调
上路
上身
上车
上边
上述
上部
上野
上钩
上铺
上门
上阵
上限
上面
上颌
上风
上饶
上马
下乡
下令
下位
下体
下关
下册
下凡
下列
下午
下单
下压
下去
下发
下台
下同
下周
下唇
下图
下场
下坡
下垂
下嫁
下层
下属
下山
下岗
下巴
下手
下挫
下探
下摆
下放
下文
下方
下旬
下期
下来
下棋
下楼
下榻
下次
下水
下沉
下沙
下注
下流
下海
下游
下滑
下狱
下班
下界
下移
下端
下笔
下篇
下级
下线
下联
下肢
下腹
下落
下行
下设
下课
下调
下跌
下跪
下身
下车
下载
下辖
下边
下达
下过
下述
下部
下锅
下降
下限
下陷
下雨
下雪
下面
下颌
下颚
下马
不下
不严
不丹
不久
不乏
不了
不予
不争
不二
不仅
不休
不会
不但
不住
不便
不俗
不值
不停
不光
不免
不公
不具
不再
不准
不减
不凡
不利
不到
不力
不单
不厌
不及
不变
不可
不吃
不合
不同
不善
不均
不堪
不够
不失
不好
不如
不妙
不妥
不妨
不孕
不孝
不安
不定
不宜
不容
不小
不少
不尽
不屈
不屑
不巧
不已
不平
不幸
不当
不得
不必
不忍
不快
不怕
不息
不悦
不惜
不想
不愧
不慎
不懈
不成
不拘
不敢
不料
不断
不无
不时
不明
不易
不是
不曾
不服
不朽
不止
不正
不法
不济
不满
不然
不爽
不理
不甘
不用
不由
不畏
不留
不知
不破
不祥
不禁
不竭
不符
不算
不管
不羁
不肯
不育
不胜
不能
不致
不良
不菲
不行
不衰
不要
不见
不觉
不解
不计
不让
不许
不论
不该
不详
不语
不负
不败
不足
不过
不远
不适
不通
不配
不错
不问
不难
不靠
不顺
不须
不顾
不齐
与会
与其
与否
与非
丐帮
丑女
丑恶
丑闻
丑陋
专一
专业
专人
专供
专修
专刊
专列
专利
专制
专区
专卖
专员
专场
专家
专属
专心
专户
专指
专攻
专政
专有
专权
专柜
专栏
专案
专注
专版
专用
专电
专科
专程
专精
专线
专署
专职
专营
专著
专访
专车
专辑
专长
专门
专集
专项
专题
世上
世事
世人
世代
世俗
世博
世外
世子
世孙
世宗
世家
世尊
世居
世情
世故
世界
世祖
世系
世纪
世袭
世贸
世道
世间
丘疹
丘陵
丙午
丙烯
丙申
丙肝
丙辰
丙酮
业主
业余
业内
业务
业已
业态
业界
业绩
业者
丛中
丛书
丛刊
丛林
丛生
东东
东临
东乡
东亚
东京
东侧
东关
东兴
东北
东区
东升
东华
东南
东台
东吴
东周
东坡
东城
东大
东夷
东安
东宫
东家
东山
东岳
东岸
东川
东平
东征
东德
东方
东明
东晋
东村
东来
东林
东欧
东段
东汉
东江
东洋
东海
东渡
东港
东湖
东盟
东站
东端
东线
东经
东至
东航
东芝
东莞
东营
东街
东西
东起
东路
东边
东郊
东部
东野
东门
东阳
东阿
东非
东面
东风
东魏
东麓
丝巾
丝带
丝毫
丝状
丝瓜
丝线
丝绒
丝绸
丝网
丝袜
丝路
丞相
丢下
丢人
丢失
丢弃
丢掉
丢脸
两万
两下
两个
两代
两件
两份
两会
两位
两侧
两倍
两册
两分
两千
两半
两卷
两厢
两口
两句
两只
两台
两名
两周
两地
两场
两块
两基
两处
两天
两头
两套
两委
两季
两家
两对
两层
两届
两岁
两岸
两幅
两年
两广
两度
两座
两张
两性
两成
两所
两手
两把
两排
两支
两方
两旁
两日
两期
两本
两条
两极
两枚
两架
两栋
两栖
两样
两根
两次
两款
两步
两段
两汉
两江
两河
两派
两点
两片
两用
两百
两眼
两种
两端
两篇
两米
两类
两级
两线
两组
两翼
两者
两股
两艘
两节
两行
两起
两路
两车
两轮
两辆
两边
两遍
两道
两部
两门
两间
两队
两院
两难
两面
两项
两颗
两首
严厉
严守
严密
严寒
严峻
严惩
严打
严控
严明
严查
严格
严禁
严肃
严苛
严谨
严酷
严重
严防
丧事
丧命
丧失
丧尸
丧父
丧生
丧葬
个个
个人
个体
个例
个别
个头
个子
个展
个性
个数
个案
个股
丫头
丫鬟
中专
中东
中举
中亚
中产
中介
中信
中共
中兴
中军
中加
中化
中医
中午
中华
中南
中卫
中原
中古
中叶
中国
中土
中场
中坚
中型
中堂
中外
中央
中奖
中子
中学
中将
中尉
中小
中层
中山
中州
中巴
中常
中平
中年
中度
中庸
中建
中式
中弹
中心
中性
中意
中投
中招
中指
中排
中文
中断
中方
中日
中旬
中暑
中曾
中期
中枢
中标
中校
中档
中欧
中止
中正
中段
中毒
中油
中海
中游
中环
中秋
中科
中空
中立
中等
中篇
中粮
中级
中线
中继
中考
中耕
中职
中联
中肯
中航
中药
中行
中街
中西
中观
中视
中试
中资
中路
中转
中轴
中远
中选
中途
中速
中道
中部
中铁
中银
中锋
中间
中队
中院
中非
中频
中风
中餐
丰产
丰厚
丰县
丰台
丰富
丰收
丰满
丰田
丰盈
丰盛
丰硕
丰碑
串口
串珠
串联
串行
串通
临场
临安
临川
临床
临摹
临时
临江
临汾
临沂
临沧
临河
临海
临淄
临清
临港
临界
临终
临行
临街
临近
丸子
丹东
丹佛
丹参
丹尼
丹田
丹药
丹阳
丹霞
丹青
丹麦
为主
为了
为伍
为伴
为何
为先
为准
为名
为啥
为官
为害
为政
为数
为期
为止
为此
为民
为生
为辅
为重
为难
为题
为首
主业
主义
主产
主人
主任
主体
主修
主公
主创
主力
主办
主动
主厨
主唱
主因
主场
主城
主妇
主委
主子
主审
主宰
主导
主将
主峰
主帅
主席
主干
主张
主意
主战
主打
主持
主控
主推
主攻
主教
主料
主旨
主机
主权
主板
主枝
主楼
主次
主治
主流
主演
主神
主笔
主管
主线
主编
主营
主要
主见
主观
主角
主讲
主语
主轴
主队
主页
主频
主题
主食
丽丽
丽人
丽水
丽江
丽莎
举人
举例
举兵
举出
举办
举动
举家
举手
举报
举措
举杯
举止
举荐
举行
举证
举起
举重
乃是
乃至
久久
久之
久保
久病
久远
久违
义乌
义军
义务
义卖
义工
义气
义理
义诊
之一
之三
之上
之下
之中
之二
之内
之前
之后
之外
之江
之流
之用
之类
之间
之际
乌云
乌兰
乌头
乌尔
乌拉
乌斯
乌梅
乌江
乌贼
乌镇
乌鸡
乌鸦
乌黑
乌龙
乌龟
乏力
乏味
乐乐
乐于
乐器
乐团
乐园
乐土
乐坛
乐天
乐山
乐平
乐府
乐意
乐手
乐曲
乐果
乐清
乐理
乐章
乐舞
乐观
乐谱
乐趣
乐迷
乐队
乒乓
乔丹
乔木
乔治
乖乖
乖巧
乘以
乘员
乘坐
乘客
乘机
乘法
乘着
乘积
乘船
乘车
乘风
乙丑
乙基
乙方
乙未
乙炔
乙烯
乙级
乙肝
乙酯
乙酰
乙酸
乙醇
乙醚
九个
九九
九二
九五
九分
九十
九华
九号
九品
九大
九天
九宫
九尾
九层
九届
九岁
九州
九年
九成
九日
九曲
九月
九条
九段
九江
九洲
九点
九种
九章
九重
九门
九阳
九霄
九鼎
九龙
乞丐
乞讨
也好
也罢
也许
也门
习作
习俗
习性
习惯
习题
乡下
乡亲
乡土
乡情
乡愁
乡村
乡民
乡级
乡试
乡贤
乡里
乡镇
乡长
乡间
书上
书体
书信
书写
书刊
书包
书协
书单
书卷
书友
书名
书后
书城
书局
书屋
书展
书库
书店
书房
书斋
书本
书架
书柜
书桌
书法
书生
书画
书目
书社
书稿
书签
书籍
书系
书记
书评
书院
书面
书香
买下
买入
买单
买卖
买好
买家
买房
买断
买方
买来
买点
买票
买进
乱世
乳业
乳剂
乳化
乳品
乳头
乳房
乳汁
乳液
乳突
乳粉
乳糖
乳胶
乳腺
乳酪
乳酸
乳香
乳鸽
乾坤
乾隆
了结
了解
予以
争做
争先
争创
争取
争吵
争夺
争当
争得
争执
争抢
争斗
争相
争端
争议
争论
争辩
争锋
争霸
争鸣
事业
事事
事件
事例
事儿
事先
事关
事前
事务
事发
事变
事后
事宜
事实
事态
事情
事故
事权
事物
事理
事由
事迹
事项
二七
二三
二世
二两
二个
二中
二人
二代
二位
二元
二八
二分
二十
二千
二卷
二句
二号
二名
二品
二哥
二回
二处
二套
二审
二小
二层
二届
二年
二度
二战
二手
二日
二月
二期
二本
二条
二来
二楼
二次
二段
二流
二环
二甲
二百
二种
二章
二等
二类
二级
二线
二组
二维
二者
二胎
二胡
二路
二连
二道
二郎
二部
二重
二队
二阶
二项
二首
于今
于是
亏了
亏损
亏本
云中
云云
云南
云台
云天
云层
云山
云彩
云朵
云杉
云梦
云母
云海
云游
云烟
云盘
云端
云阳
云集
云雾
云霄
云霞
云顶
云龙
互不
互为
互信
互利
互动
互助
互惠
互换
互生
互相
互联
互补
互连
互通
五一
五七
五万
五世
五个
五中
五代
五位
五保
五倍
五六
五分
五十
五千
五卷
五台
五号
五名
五味
五品
五四
五块
五大
五天
五官
五家
五层
五届
五岁
五岳
五峰
五帝
五常
五年
五座
五彩
五成
五指
五方
五日
五星
五更
五月
五条
五次
五洲
五点
五环
五百
五矿
五福
五种
五笔
五类
五级
五经
五脏
五色
五行
五言
五谷
五路
五通
五道
五郎
五部
五里
五金
五间
五项
五香
五龙
井上
井下
井口
井喷
井水
井盖
亘古
亚丁
亚东
亚克
亚军
亚太
亚尔
亚当
亚斯
亚欧
亚泰
亚洲
亚瑟
亚目
亚种
亚科
亚纲
亚裔
亚运
亚非
亚麻
些许
亟待
亟需
亡国
亡灵
亢奋
亢进
交互
交付
交代
交会
交出
交到
交割
交办
交叉
交友
交口
交响
交大
交往
交待
交情
交战
交手
交投
交换
交接
交收
交易
交替
交汇
交流
交涉
交游
交火
交点
交由
交界
交税
交纳
交织
交给
交联
交融
交行
交警
交谈
交货
交费
交运
交通
交配
交钱
交锋
交错
交际
交集
亦可
亦庄
亦然
亦非
产下
产业
产于
产值
产假
产出
产区
产卵
产后
产品
产地
产妇
产权
产物
产生
产科
产能
产量
产销
亨利
亨特
亩产
享乐
享受
享年
享有
享用
享誉
京东
京兆
京剧
京华
京城
京师
京报
京沪
京津
京珠
京都
亭子
亮丽
亮光
亮出
亮化
亮度
亮点
亮相
亮眼
亮色
亲临
亲亲
亲人
亲信
亲切
亲历
亲友
亲吻
亲妈
亲子
亲密
亲属
亲情
亲戚
亲手
亲朋
亲本
亲水
亲热
亲爱
亲率
亲王
亲生
亲眼
亲笔
亲缘
亲自
亲身
亲近
亳州
亵渎
人世
人为
人事
人人
人们
人体
人偶
人儿
人力
人参
人口
人员
人命
人品
人均
人士
人声
人大
人头
人妖
人学
人家
人寿
人居
人工
人形
人影
人心
人性
人情
人手
人才
人数
人文
人机
人权
人格
人次
人民
人气
人流
人渣
人潮
人物
人生
人眼
人种
人称
人类
人缘
人群
人脑
人脸
人行
人质
人身
人选
人造
人间
人防
人际
人面
人马
亿万
亿元
亿吨
亿多
亿年
亿次
亿股
什么
仁义
仁和
仁寿
仁川
仁德
仁慈
仁爱
仁者
仄仄
仅仅
仆人
仇人
仇恨
仇敌
仇视
今世
今人
今后
今夏
今夜
今天
今年
今日
今晚
今朝
今生
介于
介入
介子
介导
介意
介绍
介词
介质
仍旧
仍然
从不
从业
从严
从中
从事
从众
从军
从前
从句
从头
从容
从小
从师
从政
从教
从未
从来
从此
从没
从而
从轻
从重
仓位
仓促
仓储
仓库
仓鼠
仔猪
仔细
仕途
他人
他们
他俩
他家
仗义
付出
付息
付款
付清
付给
付费
付钱
仙人
仙剑
仙台
仙境
仙女
仙子
仙居
仙山
仙桃
仙游
仙界
仙鹤
代为
代价
代偿
代入
代办
代号
代孕
代尔
代工
代收
代数
代替
代步
代理
代码
代称
代管
代行
代表
代言
代词
代谢
代购
代销
令人
令牌
令狐
以上
以下
以东
以为
以便
以免
以内
以利
以前
以北
以南
以及
以后
以图
以备
以外
以太
以往
以待
以德
以期
以来
以此
以求
以示
以至
以致
以西
以防
仪器
仪式
仪表
仰卧
仰天
仰慕
仰望
仰视
仲裁
价位
价值
价差
价格
价款
价钱
任一
任何
任免
任内
任凭
任务
任县
任命
任性
任意
任教
任期
任用
任由
任职
任选
份子
份量
份额
仿佛
仿制
仿古
仿效
仿照
仿生
仿真
企业
企划
企及
企图
企鹅
伊万
伊人
伊凡
伊利
伊始
伊尔
伊斯
伊朗
伊犁
伊索
伊达
伎俩
伏击
伏笔
伏羲
伐木
休假
休克
休养
休学
休息
休憩
休整
休斯
休眠
休闲
众人
众多
众生
优于
优先
优劣
优势
优化
优厚
优异
优待
优惠
优抚
优点
优生
优秀
优美
优胜
优良
优质
优越
优选
优雅
伙伴
伙计
伙食
会上
会儿
会刊
会务
会友
会合
会同
会后
会员
会商
会场
会址
会堂
会展
会师
会徽
会心
会战
会昌
会晤
会考
会见
会计
会议
会诊
会试
会谈
会费
会长
会阴
会面
会馆
伞形
伟业
伟人
伟大
传世
传中
传人
传入
传出
传到
传动
传单
传唱
传奇
传媒
传导
传开
传感
传承
传授
传播
传教
传来
传染
传热
传球
传略
传真
传神
传给
传统
传言
传记
传译
传说
传诵
传输
传达
传送
传递
传遍
传道
传销
传闻
伤亡
伤人
伤势
伤及
伤口
伤员
伤害
伤寒
伤心
伤悲
伤情
伤感
伤残
伤疤
伤病
伤痕
伤痛
伤者
伦敦
伦理
伪军
伪装
伪造
伫立
伯乐
伯伯
伯恩
伯格
伯爵
伯父
估价
估值
估算
估计
伴侣
伴奏
伴娘
伴有
伴生
伴随
伸入
伸出
伸向
伸展
伸手
伸直
伸缩
伸长
伺候
伺服
伺机
似乎
似火
似的
伽蓝
但丁
但凡
但愿
但是
位于
位列
位处
位子
位居
位数
位点
位移
位置
低下
低于
低价
低估
低位
低俗
低保
低分
低劣
低压
低声
低头
低层
低廉
低效
低档
低沉
低洼
低温
低潮
低点
低矮
低空
低端
低等
低级
低落
低调
低谷
低迷
低速
低音
低频
住址
住处
住宅
住宿
住户
住房
住所
住持
住校
住院
佐料
佐藤
佐证
体会
体位
体例
体内
体制
体力
体味
体坛
体型
体外
体委
体式
体弱
体形
体彩
体征
体态
体悟
体操
体校
体格
体检
体液
体温
体现
体积
体系
体罚
体育
体能
体色
体虚
体表
体裁
体谅
体质
体贴
体重
体量
体长
体面
体验
体魄
何不
何为
何事
何人
何以
何其
何况
何在
何处
何如
何妨
何尝
何必
何故
何方
何日
何时
何来
何止
何物
何用
何种
何等
何苦
何谓
何须
余万
余下
余个
余亩
余件
余位
余元
余台
余名
余地
余处
余姚
余家
余幅
余年
余户
余条
余杭
余次
余款
余热
余生
余种
余篇
余米
余脉
余部
余间
余项
余额
佚名
佛像
佛光
佛堂
佛塔
佛学
佛家
佛寺
佛山
佛手
佛教
佛殿
佛法
佛珠
佛祖
佛经
佛门
佛陀
作业
作为
作乱
作价
作假
作出
作协
作品
作响
作图
作坊
作好
作客
作家
作对
作序
作废
作弊
作怪
作息
作恶
作成
作战
作文
作曲
作案
作法
作物
作用
作画
作祟
作答
作罢
作者
作证
作词
作风
你们
你好
你家
佣金
佤族
佩兰
佩尔
佩带
佩戴
佩服
佩里
佳丽
佳人
佳作
佳句
佳品
佳绩
佳肴
佳能
佳节
佳话
使出
使劲
使君
使命
使徒
使得
使然
使用
使者
使臣
使节
使馆
侄女
侄子
例会
例句
例外
例如
例子
例行
例证
例题
侍中
侍从
侍卫
侍奉
侍女
侍郎
侏儒
侗族
供养
供奉
供应
供暖
供气
供水
供求
供油
供热
供电
供给
供职
供货
供述
供销
供需
依依
依偎
依恋
依托
依据
依旧
依次
依法
依然
依照
依稀
依赖
依附
依靠
侠义
侠客
侠盗
侥幸
侦办
侦察
侦探
侦查
侦测
侦破
侧向
侧枝
侧线
侧翼
侧身
侧边
侧重
侧面
侨乡
侨务
侨民
侨眷
侨联
侮辱
侯爵
侵入
侵华
侵占
侵害
侵扰
侵权
侵染
侵犯
侵略
侵蚀
侵袭
便于
便利
便宜
便当
便捷
便携
便是
便民
便秘
便血
促使
促成
促进
促销
俄军
俄国
俄文
俄语
俊朗
俊杰
俊秀
俊美
俏皮
俗世
俗名
俗套
俗气
俗称
俗语
俘获
俘虏
保住
保佑
保修
保值
保健
保全
保养
保利
保单
保卫
保命
保姆
保存
保守
保安
保定
保密
保山
保底
保护
保持
保暖
保有
保本
保洁
保温
保湿
保留
保税
保管
保级
保罗
保育
保荐
保证
保费
保送
保镖
保险
保障
保额
保鲜
信义
信令
信仰
信件
信任
信众
信佛
信使
信函
信号
信奉
信守
信封
信徒
信心
信念
信息
信托
信教
信服
信条
信物
信用
信箱
信誉
信访
信贷
信赖
信道
信阳
俨然
修习
修仙
修养
修剪
修士
修复
修女
修好
修学
修建
修成
修护
修改
修整
修正
修炼
修理
修筑
修编
修缮
修葺
修行
修补
修订
修路
修身
修车
修辞
修造
修道
修长
修饰
俯仰
俯冲
俯瞰
俯视
俱佳
俱全
俸禄
倍加
倍受
倍增
倍感
倍数
倍率
倒下
倒伏
倒入
倒卖
倒地
倒塌
倒影
倒挂
倒掉
倒数
倒流
倒立
倒置
倒车
倒退
倒逼
倒闭
倒霉
倔强
倘若
候补
候车
候选
候鸟
借以
借力
借助
借势
借口
借机
借条
借来
借款
借此
借用
借着
借给
借调
借贷
借鉴
借钱
借阅
倡导
倡议
倦怠
倭寇
债主
债券
债务
债市
债权
值守
值得
值班
值钱
倾倒
倾力
倾向
倾听
倾城
倾尽
倾心
倾情
倾斜
倾注
倾泻
倾覆
倾角
倾诉
假体
假使
假借
假冒
假发
假名
假如
假定
假山
假币
假想
假扮
假日
假期
假若
假装
假设
假话
假说
假象
假货
假释
假面
偌大
偏偏
偏僻
偏南
偏向
偏好
偏差
偏心
偏执
偏振
偏斜
偏方
偏激
偏爱
偏瘫
偏离
偏移
偏西
偏要
偏见
偏转
偏远
偏重
偏颇
偏食
做主
做事
做人
做作
做做
做出
做到
做好
做官
做客
做工
做成
做梦
做法
做爱
做菜
做起
做饭
停下
停业
停产
停刊
停办
停工
停战
停放
停机
停歇
停止
停水
停泊
停滞
停火
停牌
停用
停电
停留
停课
停车
停运
停靠
停顿
健体
健全
健在
健壮
健康
健忘
健美
健胃
健身
偶像
偶尔
偶数
偶然
偶遇
偷偷
偷懒
偷拍
偷渡
偷盗
偷看
偷窃
偷窥
偷袭
偷走
偿付
偿债
偿还
傀儡
傍晚
傣族
储备
储存
储户
储粮
储罐
储能
储蓄
储藏
储运
储量
催促
催化
催收
催生
催眠
傲慢
傲视
傻子
傻瓜
像是
像样
像素
僧人
僧众
僧侣
僵化
僵尸
僵局
僵持
僵硬
儋州
儒学
儒家
儒林
儒雅
儿女
儿媳
儿子
儿孙
儿时
儿歌
儿科
儿童
允许
元丰
元代
元件
元凶
元始
元宝
元宵
元帅
元年
元旦
元月
元朗
元朝
元气
元素
元老
元音
元首
兄妹
兄弟
兄长
充值
充分
充填
充实
充当
充斥
充气
充沛
充满
充电
充盈
充血
充裕
充足
充饥
兆瓦
先于
先人
先例
先兆
先前
先后
先天
先导
先帝
先是
先期
先机
先民
先河
先烈
先王
先生
先知
先祖
先秦
先端
先行
先贤
先辈
先进
先锋
先驱
光临
光亮
光伏
光华
光合
光圈
光复
光大
光头
光子
光学
光州
光年
光度
光彩
光影
光敏
光明
光是
光景
光束
光栅
光标
光棍
光波
光泽
光洁
光源
光滑
光灯
光热
光照
光环
光电
光盘
光碟
光纤
光线
光绪
光缆
光耀
光芒
光荣
光谱
光谷
光辉
光速
光阴
光顾
光驱
光鲜
克利
克制
克劳
克尔
克拉
克斯
克星
克服
克罗
克莱
克里
克隆
免于
免冠
免去
免受
免征
免得
免收
免检
免疫
免税
免签
免职
免试
免责
免费
免遭
免除
兑付
兑奖
兑换
兑现
兔子
兔肉
兖州
党内
党务
党参
党史
党员
党团
党外
党委
党建
党性
党政
党校
党派
党章
党籍
党纪
党组
党群
党部
党风
兜兜
兜底
兜里
入世
入主
入伍
入会
入住
入侵
入党
入关
入冬
入口
入味
入围
入场
入境
入学
入室
入市
入库
入户
入手
入校
入海
入狱
入球
入眠
入睡
入网
入股
入药
入账
入选
入门
入院
入驻
全乡
全书
全会
全体
全党
全军
全剧
全力
全区
全县
全名
全员
全园
全国
全场
全城
全境
全天
全套
全家
全局
全岛
全州
全市
全年
全开
全彩
全息
全数
全文
全新
全日
全景
全本
全权
全村
全校
全歼
全民
全港
全然
全班
全球
全盘
全省
全真
全科
全称
全程
全篇
全线
全网
全美
全职
全胜
全能
全貌
全资
全身
全部
全都
全镇
全长
全队
全院
全集
全面
全额
全麦
八一
八个
八中
八五
八仙
八位
八分
八十
八千
八卦
八卷
八号
八名
八大
八字
八宝
八届
八岁
八年
八度
八强
八成
八戒
八方
八旗
八日
八景
八月
八条
八次
八点
八百
八种
八章
八级
八荒
八角
八路
八里
八项
公主
公事
公交
公仔
公众
公会
公使
公信
公债
公允
公元
公公
公共
公关
公分
公办
公务
公卿
公历
公厕
公司
公告
公园
公国
公墓
公婆
公子
公孙
公学
公安
公家
公寓
公尺
公差
公布
公平
公开
公式
公房
公所
公投
公报
公文
公斤
公映
公有
公案
公款
公正
公民
公派
公演
公然
公爵
公牛
公理
公用
公益
公示
公社
公私
公积
公称
公立
公章
公约
公署
公羊
公职
公认
公证
公诉
公路
公车
公转
公道
公里
公顷
公馆
公鸡
六一
六七
六世
六个
六中
六五
六位
六十
六卷
六号
六合
六名
六大
六天
六安
六家
六层
六届
六岁
六年
六成
六日
六月
六朝
六条
六次
六点
六百
六种
六章
六级
六经
六角
六路
六道
六部
六项
兰亭
兰州
兰德
兰斯
兰溪
兰特
兰花
兰陵
共事
共享
共创
共勉
共同
共和
共处
共存
共度
共建
共性
共振
共有
共生
共用
共计
共识
共谋
共通
共鸣
关上
关东
关中
关乎
关于
关停
关公
关内
关切
关卡
关口
关外
关头
关山
关岛
关心
关怀
关押
关掉
关机
关注
关照
关爱
关税
关系
关羽
关联
关节
关西
关进
关键
关门
关闭
兴业
兴义
兴亡
兴办
兴化
兴华
兴县
兴国
兴奋
兴宁
兴安
兴建
兴旺
兴盛
兴致
兴衰
兴起
兴趣
兴隆
兵力
兵变
兵器
兵团
兵家
兵役
兵法
兵种
兵营
兵部
兵马
其一
其三
其中
其二
其他
其余
其内
其后
其四
其妻
其子
其它
其实
其意
其时
其次
其父
其间
具体
具备
具有
具象
典型
典当
典故
典礼
典籍
典范
典藏
典雅
养分
养女
养子
养家
养心
养成
养护
养殖
养母
养活
养父
养牛
养猪
养生
养眼
养羊
养老
养育
养花
养蚕
养身
养车
养鱼
养鸡
兼任
兼具
兼备
兼容
兼并
兼得
兼有
兼职
兼营
兼顾
兽医
兽类
兽药
冀东
冀中
冀州
内丹
内乱
内伤
内侧
内力
内功
内务
内化
内参
内向
内含
内因
内圈
内在
内地
内城
内墙
内壁
内外
内存
内容
内尔
内层
内嵌
内幕
内应
内径
内心
内战
内控
内政
内敛
内斯
内服
内核
内江
内河
内测
内涝
内涵
内热
内环
内生
内疚
内皮
内科
内线
内经
内置
内胆
内能
内脏
内膜
内蒙
内行
内衣
内衬
内裤
内设
内资
内部
内酯
内里
内销
内镜
内阁
内陆
内需
内面
册封
再三
再也
再创
再婚
再审
再度
再战
再有
再次
再版
再现
再生
再者
再行
再见
再说
再起
再造
冒充
冒烟
冒犯
冒用
冒险
冗余
冗长
写下
写作
写信
写入
写写
写出
写字
写实
写意
写成
写手
写明
写景
写法
写照
写生
写真
写给
写诗
写道
军中
军事
军人
军力
军功
军务
军区
军医
军品
军团
军士
军备
军委
军官
军工
军师
军情
军政
军方
军旅
军旗
军服
军机
军校
军械
军民
军火
军用
军籍
军粮
军统
军舰
军营
军衔
军装
军警
军训
军费
军部
军长
军阀
军队
军需
农业
农事
农会
农具
农历
农商
农地
农场
农垦
农大
农夫
农委
农学
农家
农工
农庄
农户
农技
农机
农村
农林
农民
农活
农牧
农用
农田
农科
农耕
农药
农行
农资
冠以
冠军
冠名
冠脉
冤家
冤枉
冥想
冥界
冬天
冬季
冬日
冬春
冬瓜
冬眠
冬笋
冬至
冬菇
冬雨
冬青
冰上
冰冷
冰冻
冰凉
冰块
冰封
冰山
冰岛
冰川
冰心
冰晶
冰毒
冰水
冰河
冰火
冰点
冰片
冰球
冰箱
冰糖
冰镇
冰雪
冰雹
冰霜
冲入
冲出
冲击
冲刷
冲刺
冲剂
冲动
冲压
冲向
冲天
冲床
冲撞
冲服
冲泡
冲洗
冲浪
冲淡
冲着
冲破
冲突
冲绳
冲走
冲锋
决不
决出
决定
决心
决意
决战
决斗
决断
决策
决算
决绝
决胜
决裂
决议
决赛
况且
冶炼
冶金
冷冻
冷凝
冷却
冷峻
冷库
冷战
冷暖
冷月
冷气
冷水
冷汗
冷淡
冷清
冷漠
冷热
冷眼
冷笑
冷艳
冷落
冷藏
冷血
冷轧
冷酷
冷门
冷静
冷面
冷风
冷饮
冻伤
冻死
冻结
净值
净利
净化
净土
净水
净空
净重
净额
凄凉
凄惨
凄美
准予
准入
准则
准备
准时
准确
准许
凉亭
凉山
凉州
凉快
凉拌
凉水
凉爽
凉粉
凉茶
凉菜
凉鞋
凉风
凋亡
凋谢
凋零
凌乱
凌云
凌厉
凌晨
凌空
凌辱
减产
减仓
减低
减值
减免
减刑
减半
减压
减去
减小
减少
减弱
减慢
减持
减掉
减排
减法
减灾
减税
减缓
减肥
减至
减负
减轻
减退
减速
减重
减量
减震
凑合
凝固
凝望
凝神
凝练
凝结
凝聚
凝胶
凝视
凝重
几万
几下
几个
几乎
几代
几件
几位
几何
几倍
几分
几十
几千
几口
几句
几只
几名
几周
几回
几场
几块
几声
几处
几多
几天
几套
几家
几岁
几年
几度
几张
几所
几招
几日
几时
几本
几条
几根
几次
几款
几步
几段
几滴
几点
几片
几率
几番
几百
几种
几秒
几篇
几米
几类
几经
几许
几近
几遍
几道
几部
几项
几颗
几首
凡事
凡人
凡尘
凡是
凡间
凤凰
凤城
凤尾
凤山
凤梨
凤翔
凤阳
凭借
凭着
凭空
凭证
凯利
凯尔
凯恩
凯撒
凯文
凯斯
凯旋
凯特
凯蒂
凯里
凳子
凶恶
凶手
凶残
凶狠
凶猛
凶险
凸出
凸显
凸现
凸起
凸轮
凹凸
凹槽
凹陷
出世
出乎
出书
出事
出于
出云
出产
出价
出任
出众
出使
出借
出入
出兵
出具
出击
出力
出动
出卖
出厂
出去
出发
出口
出台
出名
出品
出售
出国
出土
出场
出境
出处
出外
出头
出奇
出嫁
出家
出局
出山
出差
出师
出席
出库
出庭
出彩
出征
出息
出战
出手
出新
出来
出栏
出水
出汗
出没
出海
出游
出演
出炉
出版
出狱
出现
出生
出示
出租
出纳
出线
出自
出色
出苗
出血
出行
出警
出让
出访
出货
出资
出走
出路
出身
出轨
出过
出逃
出钱
出错
出镜
出门
出院
出面
出题
击中
击伤
击倒
击剑
击打
击毁
击毙
击沉
击溃
击球
击破
击碎
击穿
击落
击败
击退
击鼓
函授
函数
刀具
刀刃
刀剑
刀口
刀子
刀法
刀片
刀锋
刁蛮
刁难
分为
分享
分会
分体
分值
分光
分册
分出
分列
分别
分割
分包
分化
分区
分卷
分厂
分叉
分发
分型
分外
分头
分娩
分子
分家
分寸
分封
分局
分层
分居
分属
分工
分布
分店
分开
分形
分心
分成
分手
分批
分担
分拆
分拣
分摊
分支
分散
分数
分明
分期
分机
分权
分析
分枝
分校
分株
分步
分歧
分段
分母
分水
分治
分泌
分派
分流
分清
分界
分社
分离
分科
分立
分站
分管
分类
分红
分级
分组
分给
分获
分蘖
分行
分裂
分装
分解
分设
分贝
分身
分辨
分选
分部
分配
分量
分钟
分钱
分销
分队
分院
分隔
分项
分馆
切丝
切入
切削
切割
切勿
切口
切合
切块
切实
切尔
切开
切忌
切换
切断
切片
切碎
切磋
切花
切莫
切记
切身
切除
切面
刊出
刊发
刊物
刊登
刊行
刊载
刑事
刑侦
刑拘
刑期
刑法
刑罚
刑警
刑部
划伤
划入
划出
划分
划定
划归
划拨
划痕
划破
划算
划线
划船
划转
划过
列为
列举
列传
列入
列出
列子
列宁
列岛
列席
列强
列报
列支
列明
列表
列车
刘备
刘家
刘海
刘翔
刘裕
刘邦
刚刚
刚好
刚度
刚强
刚性
刚才
刚果
刚毅
刚毛
创下
创世
创业
创举
创优
创伤
创作
创出
创刊
创制
创办
创口
创始
创建
创意
创投
创收
创新
创立
创维
创设
创造
创面
初一
初三
初中
初二
初五
初值
初八
初创
初夏
初始
初学
初审
初年
初恋
初探
初时
初春
初期
初次
初步
初版
初生
初秋
初稿
初等
初级
初衷
初见
初试
初赛
初选
删减
删去
删掉
删除
判例
判决
判刑
判别
判处
判官
判定
判断
判罚
利于
利亚
利兹
利刃
利剑
利器
利多
利奥
利好
利害
利尔
利尿
利差
利弊
利息
利民
利润
利湿
利率
利用
利益
利税
利空
利落
利马
别人
别克
别具
别号
别名
别国
别墅
别处
别家
别扭
别提
别样
别的
别离
别称
别致
别说
刮刀
刮痧
到任
到位
到场
到处
到头
到底
到户
到手
到期
到来
到校
到访
到货
到达
制作
制做
制冷
制剂
制动
制取
制品
制售
制图
制备
制定
制导
制度
制式
制成
制服
制止
制法
制热
制片
制版
制种
制糖
制约
制胜
制药
制衡
制衣
制表
制裁
制订
制造
制鞋
刷刷
刷卡
刷子
刷新
刷洗
刷牙
券商
刹车
刹那
刺伤
刺刀
刺史
刺客
刺杀
刺激
刺猬
刺痛
刺眼
刺绣
刺耳
刺鼻
刻划
刻印
刻字
刻度
刻录
刻意
刻有
刻本
刻板
刻画
刻石
刻苦
刻薄
剁碎
剂型
剂量
削减
削弱
削皮
前世
前人
前任
前倾
前兆
前列
前卫
前厅
前去
前台
前后
前场
前夕
前夜
前天
前夫
前头
前奏
前妻
前年
前庭
前往
前排
前提
前方
前日
前景
前朝
前期
前来
前款
前段
前沿
前生
前瞻
前秦
前移
前程
前端
前线
前缀
前缘
前置
前者
前肢
前胸
前臂
前茅
前行
前言
前路
前身
前轮
前辈
前边
前进
前述
前途
前部
前锋
前门
前面
前额
前驱
剑圣
剑士
剑客
剑术
剑桥
剑气
剑法
剑锋
剔除
剖开
剖析
剖面
剥削
剥去
剥夺
剥皮
剥离
剥落
剧中
剧作
剧团
剧场
剧情
剧本
剧毒
剧烈
剧照
剧痛
剧目
剧社
剧种
剧组
剧院
剩下
剩余
剪刀
剪切
剪影
剪纸
剪裁
剪辑
剪除
副业
副刊
副官
副将
副总
副手
副本
副职
副词
割据
割肉
割舍
割裂
割让
剿匪
力主
力争
力作
力克
力图
力士
力学
力帆
力度
力推
力气
力求
力矩
力道
力量
劝告
劝导
劝说
劝退
劝阻
办事
办公
办刊
办到
办发
办好
办学
办完
办成
办案
办法
办理
办税
办结
办证
办起
功业
功利
功力
功劳
功勋
功名
功夫
功底
功德
功效
功法
功率
功用
功绩
功耗
功能
功臣
功课
加上
加之
加以
加价
加倍
加元
加入
加冕
加减
加剧
加压
加厚
加固
加大
加宽
加密
加封
加州
加工
加强
加快
加息
加成
加拉
加持
加挂
加收
加斯
加权
加气
加氢
加水
加油
加法
加注
加深
加温
加湿
加点
加热
加班
加盐
加盖
加盟
加码
加粗
加糖
加紧
加纳
加薪
加藤
加装
加载
加进
加速
加里
加重
加长
加高
务农
务实
务工
务必
务求
劣势
劣质
动乱
动产
动人
动作
动力
动向
动听
动员
动因
动容
动工
动弹
动心
动态
动情
动感
动手
动摇
动机
动漫
动物
动用
动画
动笔
动能
动脉
动脑
动荡
动议
动词
动车
动辄
动量
动静
助人
助剂
助力
助威
助学
助您
助手
助推
助攻
助教
助残
助理
助益
助长
助阵
努力
努尔
劫匪
劫持
劫掠
劫难
励志
励磁
劲儿
劲旅
劲松
劳作
劳力
劳务
劳动
劳工
劳损
劳教
劳模
劳累
劳资
势力
势头
势必
势能
勃起
勇于
勇士
勇夺
勇敢
勇气
勇猛
勇者
勇闯
勉励
勉强
勋爵
勋章
勒令
勒斯
勒索
勘察
勘探
勘查
勘测
募捐
募集
勤于
勤俭
勤务
勤劳
勤勉
勤奋
勤学
勤快
勤政
勺子
勾兑
勾勒
勾引
勾搭
勾画
勾结
匀称
包住
包修
包公
包养
包办
包厢
包含
包围
包头
包子
包容
包干
包庇
包房
包扎
包括
包拯
包换
包揽
包机
包涵
包皮
包衣
包袱
包装
包裹
包覆
包谷
包车
包间
匆匆
匆忙
匈奴
匍匐
匕首
化为
化作
化名
化妆
化学
化工
化成
化疗
化痰
化石
化纤
化肥
化脓
化装
化解
化身
化验
北上
北京
北伐
北侧
北关
北区
北周
北国
北城
北外
北大
北宋
北山
北岛
北岸
北川
北平
北斗
北方
北朝
北条
北极
北欧
北段
北汽
北洋
北流
北海
北湖
北疆
北站
北端
北约
北纬
北美
北航
北街
北路
北辰
北边
北郊
北部
北镇
北门
北非
北面
北风
北魏
北麓
北齐
匝道
匠人
匠心
匪徒
匮乏
匹敌
匹配
区位
区内
区分
区划
区别
区区
区县
区块
区域
区委
区属
区段
区直
区级
区里
区长
区间
医保
医务
医嘱
医大
医学
医家
医师
医德
医患
医技
医护
医改
医术
医案
医治
医生
医用
医疗
医科
医者
医药
医院
匾额
匿名
十一
十七
十万
十三
十个
十九
十二
十五
十位
十余
十佳
十倍
十八
十六
十几
十分
十卷
十号
十名
十四
十堰
十大
十天
十字
十家
十届
十岁
十年
十指
十方
十日
十月
十条
十次
十点
十种
十章
十级
十足
十里
十项
千万
千个
千亩
千亿
千伏
千余
千元
千兆
千克
千卡
千古
千叶
千名
千家
千层
千山
千岁
千年
千户
千斤
千瓦
千秋
千种
千米
千载
千里
千金
升任
升值
升入
升华
升压
升天
升学
升平
升息
升格
升温
升空
升级
升职
升腾
升至
升起
升迁
升降
升高
午休
午后
午夜
午睡
午间
午餐
午饭
半两
半个
半价
半句
半圆
半场
半坡
半夏
半夜
半天
半山
半岛
半年
半径
半截
半数
半斤
半月
半点
半球
半生
半程
半路
半身
半边
半部
华东
华中
华为
华丽
华亭
华人
华佗
华侨
华信
华光
华兴
华北
华南
华商
华夏
华天
华安
华山
华工
华府
华文
华晨
华林
华沙
华泰
华润
华电
华盖
华硕
华章
华纳
华美
华联
华能
华裔
华西
华诞
华语
华谊
华贵
华里
华阳
华龙
协会
协作
协力
协办
协助
协同
协和
协商
协定
协管
协议
协调
卑微
卑鄙
卓然
卓著
卓越
单一
单个
单于
单产
单亲
单人
单价
单位
单体
单侧
单元
单兵
单击
单列
单单
单反
单发
单叶
单向
单子
单字
单宁
单层
单张
单手
单打
单挑
单据
单数
单方
单日
单晶
单月
单机
单板
单果
单株
单核
单点
单独
单生
单相
单碟
单科
单程
单笔
单纯
单线
单色
单薄
单行
单证
单词
单调
单身
单车
单边
单间
单靠
单面
单项
卖出
卖力
卖场
卖家
卖掉
卖方
卖淫
卖点
南下
南丰
南亚
南京
南侧
南充
南关
南北
南区
南华
南县
南口
南向
南唐
南国
南坪
南城
南宁
南安
南宋
南宫
南山
南岭
南岳
南岸
南川
南巡
南平
南康
南开
南方
南昌
南明
南朝
南村
南极
南桥
南段
南江
南沙
南洋
南海
南湖
南湾
南溪
南澳
南瓜
南疆
南站
南端
南粤
南线
南美
南航
南苑
南行
南街
南诏
南越
南路
南边
南通
南郊
南部
南门
南阳
南非
南面
南韩
南风
南麓
博世
博会
博取
博古
博园
博士
博大
博学
博客
博导
博山
博弈
博彩
博得
博拉
博文
博格
博爱
博物
博览
博采
博雅
博鳌
占优
占卜
占地
占据
占星
占有
占用
占领
卡住
卡利
卡卡
卡口
卡号
卡塔
卡尔
卡巴
卡拉
卡斯
卡片
卡特
卡瓦
卡罗
卡西
卡车
卡通
卡里
卡门
卢卡
卢布
卢梭
卢比
卤水
卤素
卧室
卧床
卧底
卧式
卧槽
卧龙
卫兵
卫冕
卫国
卫士
卫报
卫星
卫校
卫浴
卫生
卫视
卫队
印制
印刷
印发
印尼
印度
印有
印染
印章
印花
印记
印证
印象
印迹
危及
危害
危急
危房
危机
危重
危险
危难
即位
即使
即便
即兴
即刻
即可
即墨
即将
即时
即期
却是
却说
卵子
卵巢
卵形
卵泡
卵石
卷上
卷入
卷发
卷子
卷帘
卷曲
卷烟
卷起
卷轴
卷首
卸下
卸任
卸妆
卸载
厂区
厂商
厂址
厂家
厂房
厂牌
厂矿
厂里
厂长
厄尔
厄运
厅堂
厅级
厅长
历代
历任
历史
历城
历官
历尽
历届
历年
历时
历来
历次
历法
历程
历练
历经
历险
厉害
压低
压住
压倒
压制
压力
压实
压差
压强
压抑
压根
压榨
压电
压痛
压缩
压轴
压迫
压铸
厌倦
厌恶
厌烦
厌食
厕所
厘清
厘米
厚实
厚度
厚朴
厚爱
厚薄
厚道
厚重
原产
原件
原价
原位
原作
原先
原则
原创
原发
原名
原告
原味
原因
原图
原地
原址
原型
原始
原子
原定
原形
原意
原文
原料
原有
原木
原本
原来
原样
原油
原点
原煤
原版
原物
原理
原生
原由
原画
原稿
原籍
原罪
原色
原著
原装
原话
原谅
原貌
原配
原野
厢房
厦大
厦门
厨具
厨卫
厨师
厨房
厨艺
厮守
厮杀
去世
去向
去处
去年
去往
去掉
去核
去皮
去过
去除
县乡
县令
县内
县区
县城
县域
县境
县委
县官
县属
县市
县府
县志
县立
县级
县衙
县里
县长
参与
参事
参会
参保
参军
参加
参合
参天
参展
参差
参战
参拜
参政
参数
参演
参照
参看
参编
参考
参股
参见
参观
参议
参评
参谋
参赛
参赞
参选
参阅
又名
又称
叉车
及其
及早
及时
及格
及第
及至
友人
友军
友善
友好
友情
友爱
友谊
双亲
双人
双倍
双击
双十
双双
双向
双唇
双城
双塔
双头
双子
双层
双峰
双手
双打
双拥
双排
双方
双星
双核
双桥
双模
双流
双溪
双生
双百
双目
双眸
双眼
双线
双翼
双联
双肩
双脚
双腿
双臂
双语
双赢
双边
双重
双面
双顶
双鱼
双龙
反之
反倒
反光
反共
反击
反动
反叛
反向
反响
反复
反对
反导
反射
反差
反帝
反常
反应
反弹
反思
反恐
反悔
反感
反战
反手
反扑
反抗
反攻
反映
反正
反派
反潜
反省
反而
反腐
反观
反超
反转
反问
反面
反馈
反驳
发丝
发亮
发作
发债
发光
发兵
发出
发到
发动
发包
发卡
发呆
发售
发型
发声
发射
发展
发布
发帖
发怒
发情
发愁
发扬
发抖
发挥
发掘
发放
发散
发文
发明
发条
发来
发汗
发泄
发泡
发源
发火
发炎
发烧
发热
发现
发球
发生
发电
发疯
发病
发痒
发白
发票
发稿
发端
发红
发给
发育
发胖
发自
发芽
发行
发表
发觉
发言
发誓
发证
发财
发货
发起
发车
发达
发迹
发送
发酵
发问
发际
发霉
发音
发髻
发黄
发黑
叔叔
叔父
取代
取值
取出
取名
取向
取回
取土
取得
取悦
取景
取暖
取材
取样
取款
取水
取消
取现
取用
取笑
取经
取缔
取胜
取自
取舍
取证
取食
受众
受伤
受体
受凉
受到
受力
受助
受压
受命
受孕
受宠
受审
受害
受尽
受惠
受托
受挫
受损
受控
受潮
受灾
受热
受理
受用
受益
受精
受累
受聘
受苦
受让
受训
受访
受贿
受过
受邀
受阻
受限
受雇
受骗
变为
变体
变动
变化
变卖
变坏
变型
变小
变幻
变异
变强
变形
变得
变态
变性
变成
变换
变故
变数
变暖
变更
变法
变焦
变现
变电
变白
变相
变硬
变种
变脸
变色
变质
变迁
变通
变速
变造
变量
变革
变频
叙事
叙述
叛乱
叛军
叛变
叛徒
叛逆
叠加
叠翠
口中
口令
口号
口吃
口吻
口味
口头
口子
口岸
口径
口感
口才
口服
口气
口水
口渴
口琴
口碑
口粮
口红
口罩
口腔
口臭
口舌
口蘑
口袋
口角
口诀
口译
口语
口述
口镇
口音
古书
古井
古人
古今
古代
古典
古刹
古力
古国
古城
古堡
古塔
古墓
古寺
古巴
古庙
古建
古怪
古拉
古文
古方
古时
古朴
古来
古树
古桥
古玩
古琴
古田
古称
古筝
古籍
古老
古董
古装
古诗
古迹
古道
古都
古镇
古风
古龙
句句
句号
句型
句子
句式
句法
另外
另类
另行
只好
只得
只怕
只是
只有
只求
只用
只管
只能
只要
只见
只读
只身
只限
只顾
叫作
叫做
叫停
叫嚣
叫声
叫好
叫法
叫醒
召唤
召回
召开
召见
召集
叮咬
叮嘱
可不
可乐
可以
可信
可取
可变
可口
可可
可否
可喜
可好
可循
可怕
可怜
可恨
可恶
可悲
可惜
可控
可是
可望
可比
可汗
可溶
可燃
可爱
可用
可疑
可知
可笑
可耻
可能
可行
可见
可观
可视
可言
可调
可谓
可贵
可辨
可逆
可靠
台上
台下
台东
台前
台北
台南
台商
台地
台基
台大
台子
台山
台州
台式
台海
台湾
台灯
台独
台球
台站
台网
台词
台语
台资
台车
台长
台阶
台面
台风
叱咤
史书
史册
史前
史学
史官
史实
史家
史志
史料
史籍
史记
史论
史诗
史话
史迹
右侧
右卫
右图
右岸
右手
右派
右眼
右翼
右脑
右脚
右腿
右臂
右路
右边
右键
叶子
叶柄
叶片
叶状
叶脉
叶腋
叶色
叶轮
叶酸
叶面
叶鞘
号令
号召
号子
号牌
号码
号称
号角
司令
司仪
司徒
司机
司法
司空
司职
司长
司马
叹息
吃亏
吃力
吃喝
吃惊
吃掉
吃水
吃法
吃素
吃苦
吃药
吃醋
吃饭
吃香
各个
各乡
各人
各位
各区
各县
各国
各地
各型
各处
各家
各州
各市
各庄
各异
各式
各方
各族
各村
各校
各派
各界
各省
各种
各科
各章
各类
各级
各组
各自
各色
各路
各部
各镇
各门
各项
吆喝
合一
合为
合乎
合伙
合体
合作
合剂
合力
合办
合同
合唱
合围
合奏
合川
合并
合影
合成
合拍
合格
合欢
合法
合流
合照
合理
合用
合租
合称
合约
合编
合署
合群
合肥
合营
合著
合葬
合规
合计
合资
合适
合金
合集
吉他
吉凶
吉利
吉士
吉姆
吉安
吉恩
吉斯
吉日
吉林
吉祥
吉米
吉首
吊带
吊打
吊桥
吊灯
吊装
吊车
吊销
吊顶
同一
同业
同乐
同乡
同事
同仁
同伙
同伴
同僚
同化
同台
同名
同声
同学
同安
同居
同属
同年
同心
同志
同性
同情
同意
同房
同日
同时
同月
同期
同样
同桌
同步
同比
同治
同济
同源
同班
同理
同盟
同知
同种
同等
同类
同级
同胞
同行
同调
同轴
同辈
同道
同门
同音
同龄
名下
名为
名义
名人
名企
名优
名作
名典
名册
名列
名利
名医
名单
名厨
名句
名叫
名号
名品
名城
名士
名声
名头
名媛
名字
名家
名将
名山
名师
名店
名录
名扬
名曰
名曲
名望
名校
名模
名次
名气
名流
名片
名牌
名画
名目
名称
名篇
名胜
名臣
名茶
名菜
名著
名表
名言
名誉
名词
名贵
名车
名酒
名门
名额
后世
后主
后事
后人
后代
后任
后侧
后劲
后勤
后卫
后发
后台
后周
后唐
后场
后备
后天
后头
后妃
后妈
后宫
后山
后市
后座
后悔
后排
后方
后期
后来
后果
后汉
后生
后盾
后继
后续
后缀
后缘
后置
后羿
后者
后肢
后背
后腰
后腿
后裔
后记
后路
后轮
后辈
后边
后进
后退
后部
后金
后门
后院
后面
吏部
吐司
吐蕃
吐血
吐露
向上
向下
向东
向前
向善
向导
向往
向来
向着
向量
向阳
吓人
吓唬
吓坏
吕布
吕梁
吗啡
君主
君子
君王
君臣
吝啬
吞咽
吞噬
吞并
吞没
吞食
吟咏
吟唱
吟诗
吟诵
吡啶
否决
否则
否定
否认
吧台
吨位
吨级
吩咐
含义
含有
含水
含油
含泪
含笑
含糊
含糖
含蓄
含量
含铁
听从
听众
听信
听写
听到
听力
听取
听听
听懂
听歌
听者
听见
听觉
听讲
听证
听话
听说
听课
听闻
启东
启功
启动
启发
启明
启用
启示
启程
启航
启蒙
启迪
启闭
吲哚
吴中
吴兴
吴县
吴国
吴江
吴起
吴越
吵架
吵闹
吸入
吸取
吸引
吸收
吸毒
吸气
吸水
吸湿
吸烟
吸盘
吸管
吸纳
吸附
吸食
吹响
吹嘘
吹奏
吹捧
吹牛
吹风
吻合
呆板
呆滞
呈报
呈现
告别
告密
告急
告状
告白
告知
告示
告终
告警
告诉
告诫
呐喊
呕吐
员外
员工
呜呜
呜呼
周一
周三
周二
周五
周代
周全
周六
周刊
周初
周到
周口
周四
周围
周家
周密
周岁
周年
周庄
周报
周旋
周日
周易
周朝
周期
周末
周瑜
周礼
周身
周转
周边
周遭
周长
味儿
味精
味苦
味蕾
味觉
味道
呵呵
呵护
呻吟
呼叫
呼吁
呼吸
呼呼
呼唤
呼啸
呼喊
呼声
呼应
呼救
呼气
命中
命令
命名
命案
命理
命脉
命运
命题
咀嚼
咆哮
和亲
和县
和善
和尚
和平
和弦
和服
和田
和睦
和约
和蔼
和解
和谈
和谐
和顺
咒语
咖啡
咖喱
咨询
咪咪
咫尺
咬伤
咬住
咬合
咬牙
咯血
咱们
咳嗽
咸丰
咸味
咸宁
咸水
咸菜
咸蛋
咸阳
咸鱼
咽喉
咽炎
咽部
哀伤
哀怨
哀悼
品位
品名
品味
品尝
品德
品性
品格
品牌
品种
品类
品系
品级
品茗
品茶
品行
品评
品读
品质
品酒
品鉴
哈佛
哈利
哈哈
哈密
哈尔
哈尼
哈市
哈德
哈拉
哈斯
哈特
哈登
哈达
哈里
响亮
响声
响应
响彻
响起
哎呀
哎哟
哑巴
哑铃
哥们
哥哥
哥特
哨兵
哪个
哪些
哪位
哪儿
哪吒
哪家
哪怕
哪里
哭声
哭泣
哭诉
哭闹
哮喘
哲人
哲学
哲理
哺乳
哺育
哼哼
哽咽
唇膏
唇部
唏嘘
唐人
唐代
唐僧
唐宋
唐朝
唐末
唐诗
唠叨
唢呐
唤起
唤醒
售价
售出
售卖
售后
售楼
售票
售罄
唯一
唯恐
唯有
唯独
唯美
唱功
唱和
唱响
唱戏
唱歌
唱法
唱片
唱腔
唱词
唱起
唾弃
唾液
商丘
商业
商事
商人
商代
商会
商住
商务
商厦
商号
商周
商品
商圈
商场
商城
商定
商家
商店
商战
商户
商报
商旅
商朝
商机
商标
商检
商榷
商法
商洛
商海
商用
商界
商科
商船
商行
商誉
商讨
商议
商谈
商贩
商贸
商贾
商道
商都
商量
商铺
商鞅
啤酒
啧啧
啪啪
啮合
啰嗦
喀什
喀山
喂养
喂奶
喂食
善举
善事
善于
善人
善后
善待
善心
善恶
善意
善本
善款
善用
善良
善行
喇叭
喇嘛
喉咙
喉科
喉部
喊话
喊道
喘息
喜乐
喜事
喜人
喜剧
喜好
喜庆
喜悦
喜欢
喜爱
喜讯
喜鹊
喝彩
喝水
喝汤
喝茶
喝酒
喝醉
喧哗
喧嚣
喧闹
喷出
喷发
喷嘴
喷墨
喷头
喷射
喷气
喷水
喷泉
喷洒
喷涂
喷漆
喷火
喷雾
喻为
嗅觉
嗓子
嗓音
嗜好
嗜睡
嘈杂
嘉义
嘉兴
嘉华
嘉奖
嘉定
嘉宾
嘉庆
嘉禾
嘉靖
嘌呤
嘟嘟
嘧啶
嘱咐
嘲笑
嘲讽
嘴唇
嘴巴
嘴角
嘴边
嘴里
嘻嘻
嘿嘿
器乐
器件
器具
器官
器材
器械
器物
器皿
器重
噩梦
噩耗
噪声
噪音
噱头
嚣张
嚷嚷
囊中
囊括
囊肿
囚徒
囚犯
囚禁
四世
四个
四中
四书
四五
四代
四位
四分
四化
四区
四十
四千
四卷
四口
四句
四只
四号
四合
四名
四周
四品
四国
四场
四块
四壁
四处
四大
四天
四季
四家
四射
四层
四届
四岁
四川
四平
四年
四库
四座
四张
四成
四方
四日
四时
四星
四月
四期
四条
四柱
四楼
四次
四款
四段
四海
四溢
四点
四环
四百
四种
四章
四等
四篇
四类
四级
四线
四组
四维
四肢
四至
四色
四角
四起
四路
四轮
四通
四道
四部
四门
四面
四项
四首
回乡
回事
回信
回击
回到
回升
回去
回合
回味
回响
回国
回城
回填
回声
回复
回头
回家
回应
回廊
回归
回忆
回想
回扣
回执
回报
回撤
回收
回放
回旋
回族
回暖
回望
回来
回民
回流
回溯
回火
回眸
回程
回答
回荡
回落
回访
回调
回购
回路
回车
回转
回过
回避
回音
回顾
回馈
回首
回鹘
回龙
因为
因子
因应
因故
因果
因此
因素
因缘
因而
团伙
团体
团员
团团
团圆
团委
团练
团结
团聚
团购
团长
团队
囤积
园丁
园中
园内
园区
园地
园子
园林
园艺
园里
园长
困境
困局
困惑
困扰
困苦
困难
困顿
围住
围剿
围困
围城
围堵
围墙
围岩
围巾
围攻
围栏
围棋
围着
围绕
围裙
围观
固件
固体
固化
固原
固守
固定
固态
固执
固有
固然
国事
国产
国人
国企
国会
国信
国债
国光
国共
国内
国军
国别
国力
国医
国华
国史
国号
国名
国君
国土
国境
国外
国学
国安
国宝
国家
国师
国庆
国库
国度
国徽
国情
国投
国政
国文
国旅
国旗
国有
国标
国歌
国民
国泰
国王
国电
国画
国界
国税
国立
国籍
国粹
国美
国联
国脚
国航
国药
国营
国语
国货
国贸
国资
国道
国门
国防
国际
国风
图书
图像
图册
图尔
图库
图形
图文
图斯
图景
图标
图样
图案
图片
图版
图画
图示
图纸
图腾
图表
图解
图说
图谋
图谱
图象
图鉴
图集
圆周
圆圆
圆圈
圆寂
圆弧
圆形
圆心
圆柱
圆桌
圆梦
圆润
圆滑
圆满
圆点
圆状
圆环
圆球
圆盘
圆筒
圆融
圆通
圆锥
圆顶
圆领
圈养
圈圈
圈地
圈套
圈子
圈里
土匪
土司
土地
土城
土壤
土家
土层
土工
土建
土改
土方
土星
土木
土楼
土著
土豆
土豪
土质
土路
土鸡
圣人
圣地
圣女
圣徒
圣心
圣战
圣旨
圣殿
圣母
圣水
圣洁
圣火
圣灵
圣物
圣王
圣经
圣者
圣诞
圣贤
在世
在乎
在于
在位
在内
在册
在场
在外
在家
在座
在建
在意
在手
在校
在线
在编
在职
在读
圩镇
地上
地下
地主
地产
地价
地位
地利
地势
地区
地名
地图
地址
地块
地坪
地域
地基
地壳
地处
地头
地委
地学
地宫
地层
地带
地底
地府
地形
地摊
地支
地方
地板
地标
地步
地段
地毯
地点
地热
地牢
地狱
地球
地理
地瓜
地界
地盘
地砖
地税
地籍
地级
地缘
地膜
地表
地被
地貌
地质
地道
地里
地铁
地雷
地震
地面
地黄
场上
场内
场合
场地
场外
场所
场景
场次
场站
场长
场面
场馆
均值
均分
均匀
均线
均衡
坊间
坍塌
坎坷
坏事
坏人
坏处
坏掉
坏死
坏蛋
坏话
坏账
坐下
坐在
坐垫
坐姿
坐式
坐标
坐牢
坐等
坐落
坐车
坐镇
坐骑
坑道
块状
块茎
块钱
坚信
坚决
坚固
坚守
坚定
坚实
坚强
坚持
坚挺
坚果
坚毅
坚硬
坚韧
坝区
坝址
坝顶
坟墓
坠入
坠机
坠楼
坠毁
坠落
坡地
坡度
坡道
坦克
坦然
坦率
坦白
坦荡
坦言
坦诚
垂体
垂柳
垂涎
垂直
垂钓
垃圾
垄断
型号
型式
型态
型材
型钢
垫付
垫子
埃及
埃斯
埋伏
埋入
埋头
埋怨
埋没
埋葬
埋藏
埋设
城下
城东
城中
城乡
城关
城内
城北
城区
城南
城址
城垣
城堡
城墙
城外
城子
城市
城府
城建
城楼
城池
城管
城西
城邦
城郊
城里
城镇
城门
城际
城隍
域名
域外
培养
培根
培植
培育
培训
基业
基于
基体
基准
基因
基团
基地
基坑
基尔
基层
基底
基座
基建
基德
基数
基斯
基本
基材
基板
基点
基督
基石
基础
基站
基线
基肥
基调
基质
基辅
基部
基金
基隆
堂堂
堂弟
堆叠
堆放
堆满
堆砌
堆积
堕入
堕胎
堕落
堡垒
堤坝
堤防
堪忧
堪称
堵住
堵塞
堵车
塌方
塌陷
塑像
塑形
塑性
塑料
塑胶
塑身
塑造
塔克
塔内
塔尔
塔山
塔拉
塔斯
塔林
塔楼
塔罗
塔身
塔顶
塘村
塘沽
塞外
塞尔
塞拉
塞斯
塞纳
塞进
填充
填写
填埋
填报
填料
填满
填空
填补
填词
境内
境况
境地
境外
境界
境遇
墓园
墓地
墓室
墓志
墓碑
墓穴
墓群
墓葬
墓道
墙上
墙体
墙壁
墙纸
墙角
墙面
增产
增值
增减
增刊
增加
增压
增厚
增发
增城
增多
增大
增幅
增建
增强
增援
增收
增效
增殖
增添
增生
增益
增至
增色
增补
增设
增资
增进
增速
增重
增量
增长
增高
墨子
墨家
墨水
墨盒
墨色
墨迹
墨镜
墨鱼
壁上
壁垒
壁炉
壁画
壁纸
壤土
士人
士兵
士卒
士官
士族
士林
士气
壬辰
壮丽
壮举
壮士
壮大
壮志
壮族
壮烈
壮美
壮观
壮阔
壮阳
声乐
声优
声像
声势
声名
声响
声声
声学
声带
声援
声明
声望
声母
声波
声称
声纳
声线
声誉
声讨
声调
声道
声部
声音
壳体
壳牌
壹号
处世
处事
处于
处以
处决
处分
处在
处境
处处
处女
处室
处所
处方
处死
处理
处级
处罚
处置
处长
备件
备份
备受
备战
备有
备查
备案
备注
备用
备考
备胎
备课
备选
复习
复仇
复位
复兴
复出
复制
复印
复原
复发
复古
复合
复员
复国
复垦
复审
复建
复式
复数
复方
复旦
复星
复杂
复查
复核
复检
复活
复生
复用
复眼
复线
复置
复苏
复议
复试
复读
复赛
复辟
复述
夏侯
夏利
夏天
夏季
夏日
夏朝
夏秋
夏至
夕阳
外事
外交
外人
外企
外传
外伤
外侧
外借
外债
外公
外出
外力
外加
外卖
外号
外向
外周
外商
外围
外国
外圈
外地
外型
外墙
外壳
外套
外婆
外孙
外宾
外层
外币
外延
外形
外径
外感
外戚
外挂
外援
外教
外敷
外文
外方
外星
外景
外来
外汇
外泄
外派
外流
外海
外滩
外环
外甥
外用
外界
外皮
外省
外科
外籍
外线
外缘
外置
外联
外行
外衣
外表
外观
外设
外语
外貌
外贸
外资
外边
外逃
外遇
外部
外销
外长
外阴
外露
外面
夙愿
多万
多个
多久
多么
多于
多亏
多云
多些
多亩
多亿
多件
多份
多位
多余
多元
多克
多出
多分
多则
多半
多发
多变
多只
多台
多名
多吨
多场
多块
多处
多多
多天
多夫
多头
多套
多姿
多孔
多家
多寡
多少
多尔
多层
多岁
多幅
多年
多座
多彩
多情
多户
多所
多指
多支
多数
多斤
多方
多日
多月
多条
多样
多次
多款
多汁
多汗
多点
多特
多用
多疑
多种
多篇
多米
多糖
多级
多维
多罗
多者
多肽
多谢
多路
多辆
多边
多达
多部
多重
多长
多难
多面
多项
多首
夜光
夜半
夜叉
夜场
夜宵
夜市
夜幕
夜晚
夜景
夜深
夜班
夜空
夜色
夜行
夜视
夜郎
夜里
夜间
够用
大三
大专
大业
大丰
大为
大举
大义
大乘
大乱
大事
大二
大于
大亨
大人
大仙
大件
大众
大伙
大会
大伟
大伯
大体
大佛
大作
大佬
大使
大侠
大便
大修
大全
大公
大关
大兴
大兵
大典
大内
大写
大军
大冶
大刀
大力
大功
大加
大势
大包
大化
大匙
大区
大千
大半
大华
大卡
大卫
大厂
大厅
大厦
大厨
大发
大叔
大叫
大吉
大同
大名
大哥
大哭
大唐
大喊
大喜
大四
大国
大圣
大地
大坑
大块
大坝
大坪
大型
大城
大埔
大堂
大堤
大塘
大增
大声
大夏
大多
大大
大夫
大头
大奖
大好
大妈
大姐
大娘
大字
大学
大宅
大宇
大安
大宗
大官
大宝
大家
大寨
大寺
大将
大小
大局
大展
大屯
大山
大岛
大岭
大川
大巴
大师
大帝
大幅
大幕
大庆
大度
大德
大忌
大志
大悦
大悲
大意
大戏
大成
大战
大户
大批
大抵
大捷
大方
大族
大旗
大旱
大明
大权
大枣
大树
大校
大案
大桥
大梁
大棚
大楼
大概
大步
大段
大殿
大气
大水
大汉
大江
大河
大法
大洋
大洲
大浪
大海
大清
大港
大湖
大湾
大溪
大漠
大潮
大火
大灯
大炮
大爷
大片
大牌
大王
大理
大田
大病
大白
大盗
大盘
大石
大碍
大碗
大碟
大礼
大神
大禹
大笑
大笔
大米
大系
大红
大约
大纲
大肆
大肠
大胆
大胜
大脑
大脚
大腕
大腿
大臣
大致
大船
大荒
大营
大葱
大蒜
大虾
大街
大衣
大观
大计
大话
大调
大豆
大象
大败
大赛
大足
大跌
大路
大车
大运
大连
大选
大通
大道
大部
大都
大量
大钟
大钱
大锅
大门
大队
大阪
大陆
大院
大雁
大雅
大雨
大雪
大雾
大额
大风
大餐
大饼
大马
大鱼
大鹏
大麦
大麻
大黄
大黑
大鼓
大鼠
大龄
大龙
天一
天上
天下
天主
天书
天井
天亮
天仙
天价
天佑
天体
天使
天保
天元
天分
天华
天台
天命
天国
天地
天坛
天城
天堂
天外
天大
天天
天女
天子
天宇
天安
天宝
天宫
天将
天尊
天山
天师
天帝
天干
天平
天府
天庭
天心
天性
天意
天成
天才
天敌
天数
天文
天时
天明
天星
天晴
天朝
天机
天柱
天桥
天梯
天正
天气
天水
天池
天河
天津
天海
天涯
天灾
天然
天牛
天王
天珠
天理
天生
天界
天皇
天目
天真
天眼
天神
天福
天秤
天空
天窗
天竺
天籁
天线
天网
天色
天花
天蓝
天虹
天象
天资
天赋
天赐
天边
天道
天长
天门
天际
天雷
天顺
天马
天骄
天鹅
天麻
天黑
天龙
太久
太仓
太保
太傅
太公
太冷
太原
太古
太史
太后
太和
太太
太子
太学
太守
太宗
太尉
太小
太岁
太师
太常
太平
太康
太晚
太极
太湖
太白
太监
太短
太祖
太空
太紧
太虚
太行
太贵
太郎
太重
太阳
太阴
夫人
夫君
夫妇
夫妻
夫子
夭折
央行
央视
夯实
失业
失主
失事
失传
失信
失利
失去
失学
失守
失常
失忆
失恋
失意
失手
失控
失效
失散
失明
失望
失水
失火
失灵
失真
失眠
失职
失落
失血
失衡
失误
失调
失败
失足
失踪
失重
头上
头像
头发
头号
头奖
头子
头孢
头寸
头尾
头巾
头昏
头晕
头条
头枕
头灯
头球
头疼
头痛
头皮
头盔
头目
头等
头绪
头脑
头衔
头部
头顶
头颅
头领
头颈
头饰
头骨
夸克
夸大
夸奖
夸张
夸赞
夹住
夹克
夹具
夹击
夹子
夹层
夹带
夹杂
夹板
夹紧
夹缝
夹角
夺冠
夺去
夺取
夺回
夺得
夺目
夺走
奇书
奇人
奇兵
奇妙
奇峰
奇幻
奇异
奇怪
奇才
奇效
奇数
奇景
奇点
奇特
奇瑞
奇石
奇缘
奇葩
奇观
奇趣
奇迹
奇遇
奇闻
奈何
奈特
奈良
奉劝
奉化
奉命
奉天
奉旨
奉献
奉祀
奉行
奉贤
奋力
奋勇
奋发
奋战
奋斗
奋起
奋进
奏响
奏效
契丹
契合
契机
契税
契约
奔放
奔波
奔流
奔腾
奔走
奔赴
奔跑
奔驰
奖励
奖品
奖惩
奖杯
奖牌
奖状
奖章
奖赏
奖金
奖项
套书
套件
套利
套取
套房
套数
套牢
套现
套用
套筒
套管
套装
套路
套间
套餐
奠基
奠定
奢侈
奢华
奢望
奥利
奥妙
奥托
奥拉
奥数
奥特
奥秘
奥运
奥迪
女人
女仆
女优
女侠
女儿
女兵
女单
女友
女团
女士
女声
女娲
女婴
女婿
女子
女孩
女工
女巫
女性
女排
女方
女星
女权
女王
女生
女皇
女真
女神
女童
女篮
女装
女警
女足
女郎
女鞋
女鬼
奴婢
奴役
奴隶
奶奶
奶水
奶油
奶牛
奶瓶
奶粉
奶茶
奶酪
奸臣
她们
她家
好久
好书
好事
好些
好人
好似
好像
好几
好动
好友
好吃
好听
好喝
好坏
好处
好多
好奇
好好
好学
好客
好心
好意
好感
好戏
好手
好找
好歹
好比
好汉
好玩
好看
好笑
好色
好评
好话
好象
好转
好运
如下
如云
如今
如何
如其
如初
如同
如实
如意
如愿
如故
如是
如期
如来
如果
如此
如潮
如玉
如皋
如约
如若
妃子
妄图
妄想
妇人
妇女
妇幼
妇科
妇联
妈咪
妈妈
妈祖
妊娠
妒忌
妓女
妓院
妖娆
妖孽
妖怪
妖精
妖艳
妖魔
妙法
妙用
妥协
妥善
妥当
妨害
妨碍
妩媚
妹妹
妹子
妻儿
妻子
姊妹
始于
始创
始发
始建
始末
始祖
始终
姐夫
姐妹
姐姐
姐弟
姑且
姑姑
姑娘
姑苏
姓名
姓氏
委任
委会
委办
委员
委婉
委屈
委托
委派
姚明
姜丝
姜文
姜汁
姜片
姥姥
姥爷
姨妈
姻缘
姿势
姿态
姿色
威严
威信
威力
威名
威尔
威廉
威慑
威望
威武
威海
威胁
威震
威风
娃娃
娄底
娇妻
娇嫩
娇小
娇艳
娘亲
娘娘
娘子
娘家
娜娜
娱乐
娴熟
娶妻
婆娑
婆婆
婆媳
婆家
婉拒
婉约
婉转
婚事
婚前
婚后
婚姻
婚嫁
婚宴
婚庆
婚恋
婚礼
婚约
婚纱
婚育
婴儿
婷婷
婺源
媒人
媒介
媒体
媲美
媳妇
嫁人
嫁妆
嫁接
嫁衣
嫂子
嫉妒
嫌弃
嫌犯
嫌疑
嫖娼
嫦娥
嫩叶
嫩枝
嫩江
嫩肤
嫩芽
嬉戏
嬗变
子午
子叶
子囊
子夜
子女
子孙
子宫
子弟
子弹
子房
子民
子集
孔子
孔庙
孔径
孔明
孔洞
孔隙
孔雀
孕前
孕妇
孕期
孕育
字义
字体
字典
字句
字号
字型
字头
字字
字帖
字幕
字形
字数
字样
字母
字画
字眼
字符
字节
字词
字迹
字面
存世
存亡
存储
存入
存单
存取
存在
存折
存放
存有
存栏
存档
存款
存活
存留
存疑
存续
存货
存量
存钱
孙女
孙子
孙家
孙权
孙武
孙策
孙膑
孜然
孝义
孝子
孝宗
孝心
孝感
孝敬
孝道
孝顺
孟买
孟子
孢子
季军
季刊
季度
季报
季节
季风
孤傲
孤僻
孤儿
孤单
孤寂
孤山
孤岛
孤独
孤立
孤身
学业
学习
学会
学位
学分
学刊
学到
学制
学前
学区
学医
学历
学名
学员
学园
学堂
学士
学好
学子
学学
学家
学年
学府
学弟
学徒
学成
学报
学时
学期
学术
学校
学法
学派
学理
学生
学画
学界
学社
学科
学籍
学系
学组
学者
学联
学艺
学苑
学识
学说
学费
学部
学长
学问
学院
学风
孩儿
孩子
孩童
孵化
宁乡
宁可
宁夏
宁德
宁愿
宁波
宁海
宁远
宁静
它们
宅院
宇宙
宇文
宇航
守信
守候
守军
守则
守卫
守城
守备
守恒
守护
守时
守望
守法
守门
安东
安乐
安乡
安保
安倍
安全
安利
安化
安南
安危
安县
安吉
安国
安好
安妮
安娜
安宁
安安
安定
安家
安居
安平
安庆
安康
安徽
安心
安息
安慰
安抚
安拉
安排
安放
安检
安泰
安溪
安然
安生
安神
安稳
安置
安葬
安装
安西
安详
安达
安逸
安邦
安防
安阳
安静
安顺
宋代
宋元
宋史
宋朝
宋江
宋词
完事
完全
完善
完备
完好
完小
完工
完成
完整
完毕
完结
完美
完胜
完蛋
完颜
宏伟
宏图
宏大
宏观
宏达
宗亲
宗室
宗师
宗庙
宗教
宗族
宗旨
宗派
宗祠
宗谱
官位
官僚
官兵
官军
官制
官司
官名
官吏
官员
官场
官府
官方
官窑
官署
官职
官话
官邸
宙斯
定下
定为
定义
定于
定价
定位
定做
定制
定力
定名
定向
定型
定子
定居
定州
定律
定性
定时
定期
定格
定植
定海
定点
定理
定稿
定级
定罪
定西
定论
定语
定远
定都
定量
定金
定额
宛如
宛若
宜人
宜兰
宜兴
宜家
宜宾
宜居
宜昌
宜春
宝典
宝剑
宝地
宝塔
宝安
宝宝
宝山
宝岛
宝库
宝座
宝洁
宝物
宝玉
宝珠
宝石
宝藏
宝贝
宝贵
宝钢
宝马
宝鸡
实业
实为
实习
实事
实体
实例
实况
实则
实力
实务
实名
实在
实地
实属
实干
实录
实心
实情
实惠
实战
实收
实效
实数
实施
实时
实景
实有
实权
实测
实物
实现
实用
实绩
实行
实证
实话
实质
实践
实际
实验
宠儿
宠爱
宠物
审判
审定
审慎
审批
审查
审核
审理
审稿
审美
审视
审计
审议
审讯
审评
审问
审阅
审题
审验
客串
客人
客体
客厅
客商
客场
客家
客座
客户
客房
客服
客机
客栈
客气
客流
客源
客观
客货
客车
客运
客队
宣传
宣判
宣化
宣告
宣和
宣城
宣布
宣德
宣战
宣扬
宣教
宣泄
宣示
宣称
宣纸
宣统
宣言
宣誓
宣讲
宣读
室内
室友
室外
室温
宦官
宪兵
宪宗
宪政
宪法
宪章
宫中
宫主
宫内
宫城
宫女
宫室
宫廷
宫殿
宫里
宫门
宫颈
宰杀
宰相
害人
害怕
害死
害羞
害虫
宴会
宴席
宴请
家世
家业
家中
家乡
家书
家事
家产
家人
家伙
家传
家住
家兔
家具
家养
家务
家园
家境
家宅
家家
家居
家属
家常
家庄
家庙
家庭
家当
家政
家教
家族
家暴
家村
家用
家电
家畜
家禽
家私
家臣
家装
家训
家谱
家贫
家里
家长
家门
家风
容器
容忍
容易
容积
容纳
容许
容貌
容量
容颜
宽厚
宽大
宽容
宽带
宽幅
宽广
宽度
宽恕
宽敞
宽松
宽泛
宽窄
宽裕
宽阔
宽频
宾利
宾客
宾语
宾馆
宿主
宿命
宿存
宿州
宿敌
宿舍
宿迁
寂寞
寂寥
寂静
寄主
寄予
寄养
寄存
寄宿
寄居
寄托
寄生
寄语
寄送
密云
密切
密宗
密实
密室
密封
密布
密度
密林
密码
密谋
密钥
密闭
密集
富丽
富于
富人
富余
富含
富商
富国
富士
富家
富庶
富强
富有
富民
富翁
富裕
富豪
富贵
富足
富阳
富集
富饶
寒假
寒冬
寒冷
寒凉
寒暑
寒气
寒湿
寒热
寒门
寒风
寓居
寓意
寓所
寓言
寝室
察看
察觉
寡人
寡头
寡妇
寥寥
寨子
寰宇
对于
对付
对位
对偶
对内
对冲
对决
对准
对华
对口
对唱
对外
对子
对局
对岸
对峙
对应
对待
对手
对抗
对折
对接
对敌
对数
对方
对此
对比
对流
对焦
对照
对生
对症
对白
对称
对立
对策
对联
对虾
对视
对话
对象
对错
对阵
对面
对齐
寺庙
寺院
寻回
寻宝
寻常
寻找
寻根
寻梦
寻求
寻觅
寻访
导体
导入
导出
导向
导师
导引
导弹
导报
导数
导流
导游
导演
导热
导电
导管
导线
导致
导航
导论
导语
导读
导购
导轨
寿光
寿县
寿司
寿命
寿山
寿星
寿险
封信
封印
封口
封号
封地
封堵
封存
封建
封杀
封禁
封装
封锁
封闭
封面
封顶
射中
射入
射击
射手
射杀
射电
射程
射箭
射精
射线
射速
射门
射频
将军
将士
将帅
将来
将要
将近
将领
尊严
尊崇
尊敬
尊称
尊者
尊贵
尊重
小丑
小事
小于
小人
小伙
小传
小便
小偷
小儿
小兔
小兵
小刀
小勺
小包
小区
小叶
小号
小吃
小名
小品
小哥
小国
小型
小城
小声
小妹
小姐
小姨
小子
小孔
小字
小学
小孩
小宝
小寨
小将
小小
小屋
小山
小岛
小川
小巧
小巴
小巷
小幅
小店
小康
小弟
小张
小强
小径
小心
小憩
小戏
小手
小指
小数
小时
小曲
小村
小林
小枝
小树
小样
小桥
小楷
小楼
小步
小气
小河
小泉
小溪
小火
小点
小熊
小牛
小狗
小猪
小猫
小班
小球
小生
小病
小盘
小看
小站
小童
小米
小组
小结
小羊
小肠
小胖
小脑
小脚
小腹
小腿
小舟
小船
小节
小花
小草
小菜
小葱
小街
小觑
小说
小调
小贝
小贩
小费
小资
小路
小车
小道
小野
小钱
小镇
小队
小院
小雅
小雨
小雪
小额
小食
小马
小鬼
小鱼
小鸟
小鸡
小鹿
小麦
小黑
小鼠
小龙
少于
少儿
少华
少女
少妇
少将
少尉
少年
少数
少时
少有
少林
少校
少爷
少见
少许
少量
尔克
尔后
尔多
尔巴
尔德
尔斯
尔格
尔特
尔雅
尔顿
尖刀
尖叫
尖头
尖山
尖峰
尖椒
尖端
尖锐
尘世
尘土
尘埃
尘封
尚且
尚书
尚可
尚存
尚无
尚有
尚未
尚武
尝到
尝尝
尝试
尤为
尤其
尤里
就业
就义
就任
就医
就学
就是
就此
就算
就职
就要
就让
就诊
就读
就近
就餐
尴尬
尸体
尸骨
尺寸
尺度
尺码
尼亚
尼克
尼奥
尼姑
尼尔
尼康
尼斯
尼特
尼采
尼龙
尽兴
尽力
尽头
尽心
尽快
尽情
尽早
尽管
尽职
尽责
尽量
尾声
尾巴
尾气
尾灯
尾盘
尾端
尾羽
尾翼
尾部
尾随
尾鳍
尿布
尿液
尿素
尿路
尿道
尿酸
尿频
局势
局地
局部
局长
局限
局面
屁股
层层
层次
层状
层级
层面
层高
居中
居于
居住
居士
居多
居委
居室
居家
居所
居民
居然
居留
屈光
屈原
屈曲
屈服
屈膝
屈辱
届时
届满
屋内
屋后
屋外
屋子
屋檐
屋里
屋面
屋顶
屌丝
屏保
屏幕
屏蔽
屏障
屏风
展会
展位
展出
展区
展厅
展台
展品
展商
展开
展望
展期
展板
展演
展现
展示
展翅
展览
展销
展露
展馆
属下
属于
属地
属实
属性
属相
屠夫
屠宰
屠杀
屠龙
屡屡
屡次
履历
履带
履约
履职
履行
屯兵
屯田
屯门
山上
山下
山丘
山东
山中
山乡
山体
山前
山势
山区
山南
山口
山地
山场
山坡
山城
山塘
山墙
山头
山姆
山寨
山寺
山居
山岗
山岭
山岳
山峦
山峰
山崖
山巅
山川
山庄
山形
山景
山本
山村
山林
山楂
山歌
山水
山沟
山河
山泉
山洞
山洪
山海
山涧
山田
山石
山神
山羊
山脉
山脊
山脚
山腰
山色
山花
山茶
山药
山西
山谷
山路
山道
山里
山野
山镇
山门
山间
山阳
山阴
山顶
山鸡
山麓
屹立
岁数
岁月
岂能
岐山
岔路
岗位
岗前
岛上
岛内
岛国
岛屿
岛津
岛礁
岩体
岩土
岩壁
岩层
岩性
岩洞
岩浆
岩溶
岩画
岩石
岭南
岳母
岳父
岳飞
岷江
岸上
岸线
岸边
峡谷
峥嵘
峨眉
峭壁
峰会
峰值
峰山
峰峦
峰顶
崂山
崇尚
崇德
崇拜
崇敬
崇文
崇明
崇祯
崇高
崎岖
崛起
崩坏
崩塌
崩溃
崩盘
崭新
嵌入
嵩山
巅峰
巍峨
巍巍
川东
川剧
川北
川南
川崎
川芎
川菜
川西
州委
州市
州府
州郡
州长
巡回
巡展
巡抚
巡查
巡检
巡游
巡演
巡礼
巡航
巡视
巡警
巡逻
巢湖
巢穴
工业
工事
工人
工件
工会
工伤
工位
工作
工党
工兵
工具
工农
工况
工匠
工厂
工友
工商
工地
工场
工大
工夫
工委
工学
工序
工控
工整
工时
工期
工矿
工种
工科
工程
工笔
工艺
工行
工装
工贸
工资
工部
工龄
左传
左侧
左右
左岸
左手
左旋
左派
左眼
左翼
左耳
左脚
左腿
左臂
左边
巧合
巧妙
巧遇
巨人
巨作
巨兽
巨制
巨匠
巨变
巨响
巨型
巨大
巨头
巨幅
巨星
巨款
巨浪
巨石
巨著
巨资
巨量
巨额
巨龙
巩固
巫女
巫山
巫师
巫术
差价
差值
差分
差别
差劲
差异
差点
差距
差速
差错
差额
己任
己方
已婚
已成
已故
已有
已然
已知
已经
巴中
巴克
巴利
巴士
巴尔
巴山
巴巴
巴德
巴拉
巴掌
巴斯
巴林
巴比
巴特
巴登
巴萨
巴蜀
巴西
巴赫
巴里
巴金
巴顿
巴马
巴黎
巷子
巷道
巾帼
币种
市井
市价
市值
市内
市区
市县
市场
市委
市容
市局
市属
市府
市政
市民
市直
市立
市级
市郊
市里
市镇
市长
市集
市面
布丁
布什
布兰
布利
布尔
布局
布拉
布料
布斯
布施
布景
布朗
布满
布线
布罗
布置
布衣
布袋
布设
布道
布里
布阵
布雷
帅哥
帅气
帆布
帆船
师专
师从
师傅
师兄
师团
师大
师妹
师姐
师弟
师徒
师承
师法
师父
师生
师范
师资
师长
师门
师院
希冀
希尔
希望
希腊
帐号
帐户
帐篷
帕劳
帕拉
帖子
帝位
帝君
帝国
帝王
帝都
带上
带入
带兵
带到
带动
带回
带头
带子
带宽
带式
带有
带来
带状
带球
带电
带病
带给
带薪
带走
带队
带领
带鱼
席位
席卷
帮主
帮会
帮助
帮帮
帮忙
帮手
帮扶
帮教
帮派
帷幕
常人
常会
常住
常务
常压
常备
常委
常客
常山
常州
常常
常平
常年
常德
常态
常数
常有
常温
常熟
常理
常用
常绿
常考
常见
常规
常设
常识
常量
常青
常驻
帽子
幅员
幅度
幅面
幌子
幕僚
幕后
幕墙
幕府
干事
干净
干劲
干吗
干咳
干姜
干将
干式
干性
干扰
干掉
干支
干旱
干果
干枯
干校
干法
干洗
干活
干流
干涉
干涩
干涸
干渠
干湿
干燥
干爹
干爽
干粉
干粮
干线
干练
干脆
干警
干贝
干货
干道
干部
干酪
干预
平仄
平仓
平价
平凉
平凡
平分
平原
平反
平台
平和
平喘
平地
平均
平坦
平壤
平复
平安
平定
平实
平局
平展
平山
平川
平常
平平
平底
平度
平庸
平息
平成
平房
平手
平整
平方
平日
平时
平板
平民
平江
平淡
平添
平湖
平滑
平潭
平生
平直
平移
平稳
平等
平米
平缓
平胸
平菇
平行
平衡
平装
平谷
平遥
平铺
平阳
平静
平面
平顺
年产
年代
年份
年内
年初
年前
年华
年均
年头
年少
年岁
年幼
年底
年度
年报
年期
年末
年检
年满
年率
年画
年糕
年级
年纪
年终
年老
年薪
年表
年谱
年轮
年轻
年迈
年鉴
年长
年间
年限
年青
年龄
并且
并举
并作
并入
并列
并发
并处
并存
并州
并拢
并排
并未
并用
并称
并联
并肩
并行
并购
并进
并重
并非
幸亏
幸免
幸好
幸存
幸得
幸福
幸运
幻化
幻境
幻影
幻想
幻术
幻灭
幻觉
幻象
幼体
幼儿
幼女
幼子
幼小
幼师
幼年
幼教
幼时
幼树
幼犬
幼稚
幼童
幼苗
幼虫
幽冥
幽州
幽幽
幽暗
幽深
幽灵
幽谷
幽门
幽雅
幽静
幽香
幽默
广东
广为
广义
广元
广博
广发
广告
广场
广大
广安
广岛
广州
广布
广度
广德
广播
广汉
广泛
广电
广袤
广西
广角
广谱
广阔
广陵
广韵
庄严
庄主
庄园
庄子
庄家
庄稼
庄重
庆丰
庆云
庆元
庆典
庆幸
庆祝
庆贺
庆阳
庇护
床上
床位
床单
床垫
床头
床边
床铺
序列
序号
序幕
序曲
序言
庐山
庐江
库克
库区
库存
库容
库尔
库房
库里
应为
应予
应交
应从
应付
应力
应变
应声
应天
应对
应届
应当
应征
应得
应急
应收
应有
应激
应用
应税
应答
应考
应聘
应诉
应试
应该
应选
应邀
应酬
应验
底下
底价
底子
底层
底座
底本
底板
底气
底片
底盘
底线
底色
底蕴
底薪
底质
底部
底面
店主
店名
店员
店子
店家
店里
店铺
店长
店面
庙会
庙堂
庙宇
庙里
庚子
庚寅
庚辰
府城
府邸
庞大
废品
废墟
废弃
废料
废旧
废止
废气
废水
废渣
废物
废纸
废话
废除
度假
度数
度日
度过
度量
座位
座标
座椅
座舱
座落
座谈
庭园
庭审
庭长
庭院
康乐
康体
康佳
康复
康宁
康定
康德
康桥
康熙
庸俗
廉价
廉政
廉洁
廉租
廊坊
廊桥
廊道
延伸
延吉
延安
延寿
延展
延庆
延时
延期
延续
延缓
延至
延误
延边
延迟
延长
建业
建中
建于
建交
建党
建军
建制
建功
建华
建厂
建国
建委
建宁
建安
建工
建平
建康
建德
建成
建房
建文
建新
建有
建材
建构
建树
建校
建档
建模
建武
建立
建筑
建行
建议
建设
建起
建造
建部
建都
开业
开会
开元
开光
开关
开具
开出
开凿
开刀
开创
开办
开动
开化
开发
开口
开合
开启
开售
开园
开国
开场
开垦
开头
开奖
开始
开学
开导
开封
开局
开展
开山
开工
开市
开幕
开平
开店
开府
开庭
开建
开式
开张
开往
开心
开成
开战
开户
开房
开打
开拍
开拓
开挖
开播
开支
开放
开时
开明
开朗
开机
开来
开枪
开标
开水
开源
开火
开班
开球
开皇
开盘
开票
开窍
开窗
开立
开端
开篇
开罗
开胃
开花
开荒
开行
开裂
开讲
开设
开课
开赛
开路
开车
开辟
开运
开进
开通
开采
开销
开锁
开锅
开门
开闭
开间
开阔
开除
开馆
异乡
异位
异动
异化
异同
异名
异味
异国
异地
异型
异域
异常
异形
异性
异族
异样
异步
异物
异端
异类
异能
异议
弃婴
弃权
弄清
弊病
弊端
式微
式样
弓箭
引信
引入
引出
引力
引发
引向
引子
引导
引得
引擎
引文
引来
引水
引流
引渡
引燃
引爆
引用
引申
引种
引线
引致
引荐
引言
引证
引诱
引资
引起
引路
引进
引述
引领
弗利
弗拉
弗莱
弗里
弗雷
弘扬
弘治
弘法
弟兄
弟子
弟弟
张口
张嘴
张大
张家
张开
张扬
张掖
张旭
张衡
张贴
张飞
弥勒
弥散
弥漫
弥补
弦乐
弧度
弧形
弧线
弯弯
弯曲
弯腰
弯路
弯道
弱势
弱化
弱小
弱智
弱点
弱者
弱视
弹丸
弹力
弹劾
弹匣
弹唱
弹头
弹奏
弹射
弹幕
弹性
弹指
弹琴
弹簧
弹药
弹跳
弹道
强于
强健
强光
强军
强制
强力
强加
强劲
强势
强化
强县
强国
强壮
强大
强奸
强度
强弱
强强
强忍
强悍
强攻
强效
强敌
强暴
强权
强求
强烈
强生
强盗
强盛
强硬
强者
强行
强调
强身
强迫
强酸
强队
强项
强风
归于
归侨
归入
归化
归去
归口
归国
归宿
归属
归来
归档
归类
归纳
归结
归还
归途
归附
归隐
归集
归顺
当下
当中
当事
当今
当代
当众
当作
当做
当兵
当初
当前
当即
当地
当场
当天
当头
当好
当官
当家
当局
当年
当庭
当归
当心
当成
当日
当时
当晚
当月
当然
当真
当着
当红
当选
当量
当铺
当面
录像
录入
录制
录取
录得
录用
录音
彗星
彝族
形似
形体
形制
形势
形变
形声
形容
形式
形态
形成
形状
形神
形象
彩云
彩信
彩印
彩图
彩妆
彩排
彩民
彩电
彩画
彩礼
彩票
彩绘
彩色
彩虹
彩蛋
彩超
彩陶
彩霞
彪悍
彰化
彰显
影业
影像
影印
影后
影响
影坛
影城
影子
影射
影展
影星
影楼
影片
影视
影评
影迷
影院
影音
彷徨
彻夜
彻底
彼岸
彼得
彼时
彼此
往事
往前
往后
往回
往复
往届
往常
往年
往往
往日
往昔
往来
往返
征伐
征信
征兆
征兵
征召
征地
征婚
征得
征战
征收
征文
征服
征求
征用
征程
征税
征管
征缴
征讨
征询
征象
征途
征集
径向
径流
径直
待业
待人
待命
待定
待客
待机
待查
待用
待见
待遇
很多
很大
很小
很少
很快
很早
律动
律师
律诗
徐克
徐家
徐州
徐徐
徐福
徒劳
徒弟
徒手
徒步
得主
得以
得体
得出
得分
得利
得到
得力
得名
得失
得奖
得当
得意
得手
得救
得来
得病
得知
得票
得罪
得胜
得逞
徘徊
徜徉
御史
御寒
御用
御览
循环
微光
微克
微分
微创
微利
微型
微妙
微孔
微小
微弱
微微
微星
微晶
微机
微波
微笑
微米
微粒
微细
微薄
微观
微调
微软
微酸
微量
微风
微黄
德克
德军
德利
德化
德华
德国
德安
德尔
德川
德州
德性
德拉
德文
德斯
德林
德比
德清
德甲
德罗
德育
德行
德语
德里
德阳
德鲁
徽商
徽州
徽派
徽章
心上
心中
心事
心仪
心切
心力
心动
心包
心地
心境
心声
心头
心安
心室
心寒
心底
心弦
心形
心得
心怀
心态
心思
心急
心性
心悸
心情
心想
心意
心愿
心慌
心房
心扉
心智
心机
心法
心灵
心烦
心爱
心率
心理
心田
心疼
心病
心痛
心皮
心目
心眼
心碎
心神
心系
心结
心绪
心肌
心肺
心胸
心脏
心腹
心血
心衰
心计
心语
心跳
心软
心酸
心里
必修
必备
必定
必将
必然
必经
必考
必胜
必要
必读
必需
必须
忌讳
忌食
忍住
忍受
忍心
忍术
忍痛
忍者
忍耐
忍让
忏悔
忐忑
志向
志在
志士
志强
志愿
志远
忘却
忘情
忘我
忘掉
忘记
忙于
忙碌
忠义
忠于
忠厚
忠告
忠孝
忠实
忠心
忠臣
忠良
忠诚
忠贞
忧伤
忧愁
忧虑
忧郁
快乐
快件
快快
快意
快感
快慢
快报
快捷
快板
快步
快活
快点
快船
快艇
快要
快讯
快车
快递
快速
快门
快餐
念书
念佛
念叨
念头
念经
忻州
忽悠
忽然
忽略
忽视
怀上
怀中
怀化
怀古
怀孕
怀念
怀抱
怀揣
怀旧
怀有
怀柔
怀特
怀疑
怀着
怀远
怀里
态势
态度
怂恿
怎么
怎样
怒吼
怒放
怒气
怒江
怒火
怜悯
怜惜
思乡
思念
思想
思明
思源
思潮
思科
思索
思绪
思维
思考
思虑
思路
思辨
思量
急于
急促
急切
急剧
急忙
急急
急性
急救
急流
急症
急诊
急躁
急速
急需
性交
性别
性味
性命
性子
性情
性感
性格
性欲
性爱
性状
性病
性能
性腺
性质
怨恨
怨气
怨言
怪事
怪人
怪兽
怪圈
怪异
怪物
怪石
怪诞
怪谈
总之
总产
总价
总会
总体
总值
总共
总兵
总分
总则
总务
总厂
总台
总和
总局
总店
总归
总得
总成
总支
总数
总是
总理
总监
总目
总督
总社
总称
总站
总算
总管
总线
总结
总统
总编
总署
总能
总行
总裁
总装
总计
总论
总部
总量
总长
总队
总院
总额
恋人
恋情
恋爱
恍惚
恐吓
恐怕
恐怖
恐惧
恐慌
恐龙
恒久
恒定
恒山
恒星
恒河
恒温
恒生
恢复
恢宏
恢弘
恣意
恩人
恩仇
恩师
恩德
恩怨
恩情
恩惠
恩斯
恩施
恩爱
恩赐
恪守
恬淡
恬静
恭喜
恭敬
息肉
恰似
恰好
恰巧
恰当
恰恰
恰逢
恳求
恳请
恶习
恶人
恶劣
恶化
恶心
恶性
恶意
恶梦
恶毒
恶臭
恶霸
恶魔
恼怒
恼火
悄悄
悄然
悉尼
悉心
悉数
悔恨
悖论
悟出
悟性
悟道
悠久
悠悠
悠扬
悠然
悠远
悠长
悠闲
患上
患儿
患处
患有
患病
患者
悦耳
您好
悬崖
悬念
悬挂
悬架
悬殊
悬浮
悬疑
悬空
悬赏
悲伤
悲凉
悲剧
悲哀
悲壮
悲惨
悲愤
悲欢
悲歌
悲痛
悲观
悸动
悼念
情义
情书
情事
情人
情仇
情侣
情况
情势
情商
情场
情境
情妇
情形
情志
情怀
情态
情思
情意
情感
情愫
情愿
情报
情操
情敌
情景
情欲
情歌
情深
情爱
情结
情绪
情缘
情色
情节
情话
情调
情谊
情趣
惆怅
惊人
惊动
惊厥
惊叹
惊吓
惊呆
惊呼
惊喜
惊天
惊奇
惊异
惊心
惊恐
惊悚
惊慌
惊讶
惊醒
惊险
惊魂
惋惜
惟一
惟有
惠农
惠及
惠安
惠州
惠普
惠民
惠阳
惧怕
惨剧
惨案
惨死
惨淡
惨烈
惨痛
惨败
惨遭
惨重
惩处
惩戒
惩治
惩罚
惬意
惭愧
惯例
惯性
惯用
惰性
想像
想到
想尽
想开
想必
想念
想想
想来
想法
想着
想要
想见
想象
想起
惶恐
愈加
愈发
愈合
愉快
愉悦
意义
意向
意味
意图
意在
意境
意外
意志
意念
意思
意愿
意指
意料
意欲
意气
意淫
意甲
意蕴
意见
意识
意译
意象
意趣
愚昧
愚蠢
感人
感伤
感光
感冒
感到
感动
感化
感受
感召
感叹
感官
感应
感怀
感性
感恩
感悟
感情
感想
感慨
感染
感激
感知
感觉
感触
感言
感谢
愤怒
愤慨
愧疚
愿意
愿望
慈善
慈悲
慈溪
慈爱
慈祥
慈禧
慌乱
慌张
慌忙
慎用
慎重
慕名
慕容
慢性
慢慢
慢火
慢跑
慢速
慧眼
慰藉
慰问
慵懒
慷慨
憋屈
憎恨
憎恶
憔悴
憧憬
憨厚
懂事
懂得
懈怠
懊恼
懒人
懒得
懒惰
懒散
懦弱
懵懂
戈壁
戈尔
戊子
戊戌
戊辰
戏份
戏剧
戏台
戏弄
戏曲
戏楼
戏水
戏班
戏码
戏称
戏谑
戏院
成为
成书
成交
成亲
成人
成仙
成份
成佛
成像
成全
成册
成分
成功
成化
成名
成员
成品
成因
成团
成型
成天
成套
成婚
成家
成就
成年
成形
成才
成效
成教
成文
成本
成材
成林
成果
成活
成渝
成熟
成片
成瘾
成立
成绩
成群
成色
成虫
成行
成衣
成语
成败
成都
成长
成龙
我们
我会
我俩
我党
我军
我国
我家
我市
我心
我方
我校
我省
我行
我院
戒备
戒律
戒指
戒毒
戒烟
戒酒
或是
或者
或许
或非
战乱
战争
战事
战俘
战况
战前
战力
战功
战区
战友
战后
战国
战地
战场
战士
战备
战将
战局
战平
战役
战斗
战时
战术
战机
战果
战死
战法
战火
战犯
战略
战神
战线
战绩
战胜
战舰
战船
战败
战车
战马
戛纳
截取
截图
截断
截止
截然
截留
截肢
截至
截获
截面
戴尔
户主
户县
户口
户均
户型
户外
户户
户数
户籍
户部
房东
房中
房主
房事
房产
房价
房前
房型
房子
房客
房室
房屋
房山
房市
房款
房源
房租
房管
房舍
房贷
房费
房车
房里
房门
房间
房顶
所以
所在
所学
所属
所幸
所得
所思
所指
所有
所欲
所求
所用
所知
所致
所说
所谓
所部
所长
扁平
扁担
扁豆
扁鹊
扇区
扇子
扇形
扇贝
扇面
手上
手下
手中
手书
手册
手写
手动
手势
手印
手头
手套
手工
手帕
手心
手感
手执
手把
手持
手指
手掌
手提
手握
手术
手机
手枪
手柄
手段
手法
手淫
手环
手稿
手笔
手绘
手续
手背
手脚
手腕
手臂
手艺
手表
手袋
手记
手语
手足
手软
手边
手部
手里
手链
手镯
手雷
才刚
才华
才女
才子
才学
才干
才情
才智
才气
才能
才艺
扎克
扎堆
扎实
扎根
扎西
扑克
扑救
扑灭
扑鼻
打下
打中
打乱
打人
打仗
打伤
打倒
打假
打入
打出
打击
打分
打动
打劫
打包
打卡
打印
打压
打发
打听
打响
打嗝
打坐
打孔
打字
打工
打底
打开
打成
打手
打打
打扫
打扮
打扰
打折
打拼
打捞
打散
打斗
打断
打架
打死
打法
打消
打滑
打滚
打点
打牌
打猎
打球
打理
打着
打破
打碎
打磨
打算
打结
打蜡
打败
打赌
打赢
打车
打通
打造
打野
打量
打针
打铁
打闹
打骂
扔下
扔掉
托付
托叶
托尔
托斯
托盘
托福
托管
托起
托运
扛着
扛起
扣减
扣分
扣子
扣押
扣留
扣篮
扣缴
扣除
扦插
执业
执事
执勤
执委
执导
执意
执掌
执政
执教
执法
执照
执着
执笔
执著
执行
扩充
扩增
扩大
扩容
扩展
扩建
扩张
扩散
扫地
扫墓
扫射
扫帚
扫描
扫盲
扫荡
扫除
扬名
扬子
扬州
扬帆
扬言
扬起
扭伤
扭力
扭头
扭曲
扭矩
扭转
扮演
扯淡
扰乱
扰动
扰民
扳平
扳手
扳机
扶养
扶助
扶手
扶持
扶桑
扶梯
扶植
扶正
扶贫
扶风
批准
批判
批发
批号
批复
批文
批斗
批次
批注
批示
批评
批量
扼杀
找出
找到
找回
找寻
找矿
找茬
承保
承兑
承办
承包
承压
承受
承建
承德
承担
承接
承揽
承租
承继
承袭
承认
承诺
承载
承运
承重
承销
技击
技工
技巧
技师
技改
技术
技校
技法
技能
技艺
抄写
抄本
抄袭
抄送
抉择
把关
把头
把手
把持
把握
把玩
把脉
把酒
把门
抑制
抑或
抑菌
抑郁
抒写
抒发
抒情
抓住
抓取
抓好
抓手
抓拍
抓捕
抓狂
抓紧
抓获
抓走
抓起
投产
投保
投入
投向
投奔
投宿
投射
投币
投影
投手
投掷
投放
投机
投标
投注
投票
投稿
投篮
投胎
投诉
投资
投身
投递
投降
投靠
抖动
抗争
抗体
抗击
抗原
抗寒
抗性
抗战
抗拒
抗敌
抗日
抗旱
抗洪
抗灾
抗病
抗癌
抗联
抗菌
抗衡
抗议
抗逆
抗震
折价
折叠
折合
折射
折扣
折断
折旧
折服
折磨
折算
折纸
折腾
折返
抚养
抚州
抚平
抚恤
抚慰
抚摸
抚育
抚顺
抛光
抛出
抛售
抛开
抛弃
抢修
抢先
抢劫
抢占
抢夺
抢抓
抢救
抢断
抢眼
抢购
抢走
抢险
护卫
护发
护国
护坡
护士
护套
护栏
护法
护照
护理
护肤
护航
护送
报上
报业
报仇
报价
报关
报刊
报名
报告
报国
报复
报导
报应
报废
报恩
报批
报收
报文
报案
报社
报税
报答
报纸
报经
报考
报表
报警
报请
报送
报道
报酬
报销
报错
抨击
披上
披肩
披露
披风
抬升
抬头
抬起
抬高
抱住
抱团
抱怨
抱抱
抱歉
抱负
抵制
抵御
抵扣
抵抗
抵押
抵挡
抵消
抵触
抵达
抵销
抹布
抹杀
抹黑
押运
押送
押金
押韵
抽出
抽取
抽奖
抽屉
抽搐
抽查
抽样
抽检
抽水
抽烟
抽空
抽筋
抽签
抽血
抽调
抽象
抽风
拂晓
担任
担保
担子
担当
担心
担忧
担纲
担负
拆借
拆分
拆卸
拆开
拆掉
拆散
拆毁
拆解
拆迁
拆除
拇指
拉丁
拉丝
拉伸
拉克
拉力
拉动
拉大
拉姆
拉尔
拉尼
拉屎
拉开
拉德
拉手
拉扯
拉拉
拉拢
拉斯
拉曼
拉杆
拉格
拉特
拉美
拉菲
拉萨
拉近
拉里
拉链
拉长
拉面
拉高
拌匀
拌和
拍卖
拍品
拍戏
拍手
拍打
拍拍
拍摄
拍照
拍片
拐卖
拐弯
拐杖
拐点
拒绝
拓宽
拓展
拓扑
拓本
拓片
拓跋
拔出
拔尖
拔掉
拔牙
拔除
拖动
拖延
拖拉
拖拽
拖欠
拖累
拖车
拖鞋
拘役
拘捕
拘束
拘留
招办
招募
招呼
招商
招工
招式
招录
招待
招惹
招手
招揽
招收
招数
招来
招标
招牌
招生
招用
招考
招聘
招股
招致
招行
招财
拜师
拜年
拜托
拜拜
拜见
拜访
拜谢
拟任
拟向
拟定
拟建
拟订
拥军
拥堵
拥戴
拥护
拥抱
拥挤
拥有
拥立
拦住
拦截
拧紧
拨付
拨动
拨号
拨开
拨打
拨款
拨通
择业
择优
择偶
择校
括号
拮抗
拮据
拯救
拱形
拱桥
拱门
拳击
拳头
拳术
拳法
拳王
拳皇
拳脚
拷贝
拷问
拼写
拼凑
拼命
拼图
拼接
拼搏
拼死
拼装
拼音
拾取
拾起
拾遗
拿下
拿出
拿到
拿手
拿捏
拿来
拿给
拿走
持久
持仓
持刀
持平
持有
持枪
持续
持股
持节
持证
挂件
挂号
挂图
挂失
挂帅
挂机
挂牌
挂职
挂车
挂钩
挂靠
挂面
指代
指令
指使
指出
指南
指向
指头
指定
指导
指尖
指引
指挥
指控
指教
指数
指明
指望
指标
指正
指法
指派
指点
指环
指甲
指着
指示
指称
指纹
指责
指路
指针
按住
按压
按揭
按摩
按时
按期
按照
按着
按钮
按键
挑出
挑剔
挑战
挑拨
挑衅
挑起
挑选
挑逗
挑食
挖出
挖坑
挖掘
挚友
挚爱
挟持
挡位
挡住
挡板
挣得
挣扎
挣脱
挣钱
挤出
挤占
挤压
挤满
挥动
挥发
挥手
挥毫
挥洒
挥舞
挥霍
挨个
挨打
挨着
挪威
挪用
挫伤
挫折
挫败
振兴
振动
振华
振奋
振幅
振荡
挺拔
挺直
挺立
挺进
挽回
挽救
挽留
捂住
捆绑
捉住
捉弄
捍卫
捏造
捐助
捐款
捐献
捐给
捐资
捐赠
捕捉
捕捞
捕杀
捕猎
捕获
捕食
捕鱼
损伤
损坏
损失
损害
损毁
损益
损耗
换上
换下
换乘
换人
换代
换位
换发
换取
换季
换届
换成
换来
换气
换热
换算
换装
捣乱
捣毁
捣碎
捣蛋
捧场
据传
据悉
据此
据点
据称
据说
捷克
捷径
捷达
捷运
掀开
掀起
授予
授信
授意
授权
授牌
授粉
授课
掉入
掉头
掉线
掉落
掌上
掌中
掌声
掌心
掌控
掌握
掌故
掌权
掌柜
掌管
掌门
掏出
掏空
掏钱
排位
排便
排入
排出
排列
排卵
排名
排尿
排序
排成
排挤
排放
排斥
排查
排毒
排气
排水
排污
排泄
排涝
排演
排灌
排烟
排版
排球
排空
排练
排行
排解
排量
排长
排队
排除
排风
排骨
掘进
掘金
掠夺
掠过
探亲
探伤
探头
探寻
探底
探明
探望
探查
探案
探求
探测
探秘
探究
探索
探讨
探访
探针
探险
接上
接下
接任
接入
接到
接力
接受
接口
接合
接听
接吻
接地
接壤
接头
接应
接待
接手
接收
接替
接机
接洽
接点
接球
接盘
接着
接种
接管
接纳
接线
接续
接缝
接见
接触
接诊
接轨
接过
接近
接连
接送
接通
接驳
控件
控制
控告
控温
控球
控股
控诉
推上
推举
推介
推倒
推入
推出
推力
推动
推向
推定
推导
推崇
推广
推开
推手
推拿
推敲
推断
推测
推演
推理
推移
推算
推翻
推荐
推行
推论
推诿
推车
推辞
推进
推迟
推送
推选
推销
掩埋
掩护
掩映
掩盖
掩饰
措施
措辞
掺入
掺杂
揉搓
描写
描摹
描画
描绘
描述
提交
提价
提供
提倡
提出
提到
提前
提升
提单
提及
提取
提名
提成
提拉
提拔
提携
提早
提案
提法
提炼
提现
提督
提示
提神
提笔
提纯
提纲
提要
提议
提请
提货
提起
提速
提醒
提问
提防
提高
插件
插入
插口
插图
插头
插座
插手
插曲
插槽
插画
插秧
插管
插花
插队
握住
握手
握把
揣摩
揣测
揪心
揭发
揭幕
揭开
揭晓
揭牌
揭示
揭秘
揭穿
揭阳
揭露
援军
援助
援建
援引
援手
揽胜
搁浅
搁置
搅动
搅拌
搏击
搏斗
搓洗
搜寻
搜捕
搜救
搜查
搜狐
搜狗
搜索
搜罗
搜集
搞好
搞定
搞怪
搞笑
搞错
搪瓷
搬出
搬家
搬走
搬迁
搬运
搬进
搭乘
搭建
搭档
搭理
搭讪
搭载
搭配
携带
携手
携程
摄像
摄入
摄制
摄取
摄影
摄政
摄氏
摄食
摆件
摆动
摆在
摆布
摆摊
摆放
摆渡
摆脱
摆设
摇动
摇头
摇摆
摇晃
摇曳
摇滚
摇篮
摊位
摊开
摊派
摊点
摊贩
摒弃
摔倒
摔跤
摘下
摘取
摘录
摘得
摘掉
摘自
摘要
摘除
摧残
摧毁
摩尔
摩崖
摩托
摩擦
摩根
摩登
摩西
摩诃
摸底
摸摸
摸清
摸索
撇开
撒娇
撒旦
撒谎
撕开
撕碎
撕裂
撞倒
撞击
撞死
撞见
撞车
撤军
撤出
撤回
撤并
撤消
撤离
撤职
撤退
撤销
撩人
撬动
播出
播报
播放
播映
播种
播音
撮合
撰写
撰文
撰稿
撼动
擂台
擅自
擅长
操作
操刀
操场
操守
操心
操控
操盘
操纵
操练
擎天
擦伤
擦拭
擦洗
攀升
攀岩
攀援
攀比
攀爬
攀登
攒钱
支付
支农
支出
支取
支座
支承
支护
支招
支持
支援
支撑
支教
支架
支柱
支流
支点
支票
支系
支线
支行
支路
支部
支配
支队
收下
收买
收付
收储
收入
收养
收到
收割
收发
收取
收受
收口
收听
收回
收场
收复
收官
收容
收尾
收录
收成
收报
收拾
收据
收支
收敛
收服
收款
收留
收益
收盘
收看
收紧
收纳
收编
收缩
收缴
收获
收藏
收视
收购
收费
收起
收银
收集
收音
改为
改任
改元
改写
改制
改动
改厕
改变
改名
改善
改姓
改嫁
改建
改性
改成
改掉
改正
改版
改用
改由
改称
改组
改编
改良
改行
改装
改观
改过
改进
改造
改道
改革
攻下
攻克
攻入
攻关
攻击
攻势
攻占
攻取
攻坚
攻守
攻打
攻略
攻破
攻读
攻防
攻陷
放下
放任
放假
放入
放养
放出
放到
放在
放大
放学
放宽
放射
放屁
放开
放弃
放心
放慢
放手
放映
放松
放款
放水
放火
放牧
放生
放电
放疗
放眼
放空
放纵
放缓
放置
放肆
放荡
放行
放贷
放过
放进
放送
放逐
放量
放飞
政事
政令
政企
政体
政党
政务
政区
政协
政变
政和
政坛
政委
政审
政客
政局
政工
政府
政教
政权
政治
政法
政界
政策
政绩
政要
政风
故乡
故事
故人
故作
故国
故土
故地
故城
故宫
故居
故意
故此
故而
故道
故里
故障
效仿
效力
效应
效忠
效果
效法
效率
效用
效益
效能
敌人
敌军
敌后
敌国
敌对
敌情
敌意
敌我
敌方
敌机
敏感
敏捷
敏锐
救世
救人
救出
救助
救命
救国
救护
救援
救救
救治
救活
救济
救火
救灾
救生
救起
教主
教义
教书
教会
教具
教养
教务
教化
教区
教友
教员
教坛
教堂
教士
教委
教子
教学
教宗
教官
教室
教导
教工
教师
教廷
教徒
教授
教改
教材
教条
教案
教法
教派
教父
教皇
教研
教科
教程
教练
教给
教职
教育
教训
教诲
教辅
敛财
敞开
敢于
散乱
散光
散发
散失
散射
散居
散布
散开
散户
散打
散播
散文
散曲
散步
散漫
散热
散结
散落
散装
敦促
敦煌
敬业
敬仰
敬佩
敬意
敬爱
敬畏
敬礼
敬老
敬请
敬酒
敬重
数万
数个
数位
数倍
数值
数列
数十
数千
数名
数周
数天
数字
数学
数家
数年
数据
数控
数日
数月
数条
数次
数理
数百
数目
数码
数种
数篇
数组
数论
数量
数额
敲击
敲响
敲定
敲打
敲诈
敲门
整个
整体
整修
整合
整地
整场
整块
整备
整夜
整天
整套
整容
整年
整座
整张
整形
整改
整数
整整
整日
整机
整条
整治
整洁
整流
整理
整编
整车
整部
整顿
整齐
敷衍
敷设
文中
文书
文人
文件
文体
文具
文凭
文化
文华
文史
文员
文坛
文娱
文字
文学
文宗
文官
文山
文峰
文帝
文广
文库
文庙
文成
文摘
文教
文文
文昌
文明
文本
文案
文档
文武
文殊
文法
文火
文物
文献
文王
文玩
文理
文电
文登
文盲
文种
文科
文秘
文稿
文章
文笔
文职
文联
文胸
文脉
文艺
文苑
文莱
文言
文论
文豪
文身
文辞
文选
文采
文雅
文集
文静
文革
文风
文龙
斐济
斑块
斑斓
斑点
斑纹
斑马
斑驳
斗争
斗士
斗志
斗拱
斗殴
斗气
斗牛
斗篷
料到
料理
料酒
斜坡
斜视
斜阳
斜面
斟酌
斥责
斥资
斧头
斩断
斩杀
斩获
斩首
断奶
断定
断层
断崖
断开
断桥
断电
断线
断绝
断续
断肠
断裂
断言
断面
斯塔
斯托
斯文
斯汀
斯特
斯诺
新丰
新乡
新书
新人
新任
新低
新余
新作
新光
新兴
新兵
新军
新农
新创
新剧
新化
新区
新华
新品
新址
新型
新城
新塘
新增
新奇
新娘
新婚
新安
新宠
新宿
新居
新屋
新平
新年
新庄
新店
新建
新式
新意
新房
新手
新报
新政
新教
新旧
新昌
新星
新春
新月
新机
新村
新桥
新欢
新款
新民
新河
新法
新洲
新派
新浪
新海
新港
新潮
新片
新版
新生
新田
新界
新疆
新知
新秀
新科
新竹
新约
新编
新罗
新股
新药
新街
新论
新词
新诗
新贵
新路
新车
新近
新郎
新郑
新锐
新闻
新颖
新风
新馆
新高
新鲜
方丈
方位
方便
方剂
方可
方向
方圆
方块
方子
方家
方寸
方差
方式
方形
方志
方才
方格
方案
方正
方法
方略
方知
方程
方舟
方药
方言
方针
方阵
方面
施以
施加
施压
施展
施工
施放
施政
施救
施治
施法
施用
施肥
施舍
施药
施行
旁人
旁听
旁白
旁边
旅人
旅客
旅居
旅店
旅游
旅社
旅程
旅舍
旅行
旅途
旅长
旅顺
旅馆
旋即
旋律
旋涡
旋翼
旋转
旋钮
旋风
族人
族群
族裔
族谱
族长
旖旎
旗下
旗号
旗帜
旗杆
旗舰
旗袍
无不
无为
无人
无从
无以
无价
无偿
无关
无力
无功
无助
无双
无可
无名
无味
无垠
无声
无处
无头
无奈
无妨
无害
无尘
无尽
无常
无序
无异
无形
无心
无忧
无悔
无情
无惧
无意
无感
无损
无故
无效
无敌
无数
无明
无暇
无望
无机
无权
无极
无果
无毒
无比
无氧
无水
无法
无涯
无烟
无理
无瑕
无用
无畏
无疆
无疑
无痛
无益
无知
无碍
无礼
无私
无穷
无端
无级
无线
无缘
无缝
无罪
无耻
无聊
无能
无良
无色
无菌
无视
无言
无论
无误
无谓
无赖
无趣
无辜
无边
无道
无遗
无量
无铅
无锡
无间
无限
无需
无非
无须
既定
既往
既有
既然
日产
日伪
日元
日光
日军
日出
日前
日剧
日化
日历
日后
日圆
日均
日夜
日子
日寇
日常
日式
日志
日报
日数
日文
日方
日日
日晒
日月
日期
日本
日渐
日照
日用
日电
日益
日程
日立
日经
日落
日记
日语
日趋
日间
日食
旧事
旧址
旧城
旧居
旧式
旧情
旧日
旧时
旧有
旧版
旧称
旧约
旨在
旨意
早上
早些
早产
早先
早前
早安
早就
早已
早年
早恋
早报
早教
早日
早早
早春
早晚
早晨
早期
早泄
早点
早熟
早稻
早衰
早起
早逝
早间
早餐
早饭
旭东
旭日
旱地
旱灾
时事
时代
时令
时任
时会
时候
时值
时光
时分
时刻
时尚
时局
时差
时常
时序
时态
时报
时政
时效
时日
时时
时期
时机
时段
时空
时而
时节
时装
时说
时辰
时速
时钟
时间
时限
时隔
时髦
旷世
旷野
旺季
旺旺
旺火
旺盛
旺角
昂扬
昂贵
昂首
昆仑
昆山
昆明
昆曲
昆虫
昊天
昌平
昌盛
昌都
明亮
明人
明代
明光
明史
明堂
明天
明媚
明年
明德
明快
明文
明日
明明
明星
明显
明晰
明智
明暗
明月
明朗
明朝
明末
明治
明清
明火
明灯
明珠
明白
明目
明知
明确
明示
明细
明胶
明说
明镜
昏暗
昏睡
昏迷
易于
易发
易名
易地
易学
易得
易怒
易懂
易溶
易燃
易用
易碎
易经
昔日
星云
星体
星光
星团
星宿
星座
星星
星月
星期
星河
星海
星火
星球
星空
星等
星系
星级
星辰
星际
映像
映射
映照
映衬
春光
春分
春华
春城
春天
春季
春播
春日
春晓
春晖
春水
春江
春游
春生
春秋
春笋
春耕
春联
春色
春节
春花
春运
春雨
春雷
春风
昨夜
昨天
昨日
昨晚
昭君
昭和
昭示
昭通
是从
是否
是夜
是非
昵称
昼夜
显出
显卡
显存
显影
显得
显微
显性
显然
显现
显眼
显示
显著
显赫
显露
晃动
晋中
晋书
晋代
晋升
晋国
晋城
晋朝
晋江
晋王
晋级
晋阳
晓得
晕倒
晕厥
晕车
晚上
晚会
晚唐
晚安
晚宴
晚年
晚报
晚期
晚清
晚点
晚熟
晚睡
晚稻
晚辈
晚间
晚霞
晚餐
晚饭
晦涩
晨光
晨报
晨曦
普京
普利
普及
普吉
普宁
普尔
普拉
普查
普法
普洱
普照
普罗
普贤
普通
普遍
普里
普陀
景仰
景区
景天
景山
景气
景泰
景深
景点
景物
景致
景色
景观
景象
晴天
晴朗
晴空
晶体
晶格
晶片
晶石
晶粒
晶莹
智利
智力
智勇
智商
智库
智慧
智者
智联
智能
智谋
智障
智齿
晾凉
晾干
晾晒
暂且
暂住
暂停
暂定
暂时
暂缓
暂行
暑假
暑期
暖和
暖气
暖风
暗中
暗器
暗处
暗影
暗恋
暗暗
暗杀
暗流
暗淡
暗示
暗算
暗自
暗色
暗藏
暗访
暗香
暗黑
暧昧
暮色
暴乱
暴利
暴力
暴动
暴发
暴君
暴富
暴徒
暴打
暴晒
暴涨
暴虐
暴行
暴走
暴跌
暴躁
暴雨
暴雪
暴露
暴风
暹罗
曙光
曝光
曝晒
曲子
曲折
曲江
曲牌
曲率
曲目
曲线
曲艺
曲解
曲调
曲轴
曲阜
曲靖
曲面
曲风
更为
更佳
更具
更加
更名
更好
更换
更改
更新
更是
更替
更正
更深
更趋
更迭
曹丕
曹操
曹植
曹魏
曼城
曼妙
曼联
曼谷
曾孙
曾祖
曾经
替代
替换
替补
替身
最为
最低
最佳
最先
最全
最初
最后
最大
最好
最小
最少
最差
最强
最快
最新
最早
最最
最深
最终
最美
最近
最远
最重
最长
最高
月亮
月份
月光
月入
月刊
月初
月华
月台
月均
月夜
月季
月底
月度
月影
月末
月牙
月球
月票
月经
月色
月薪
月饼
月龄
有事
有些
有人
有余
有偿
有关
有利
有别
有力
有功
有加
有助
有名
有售
有声
有失
有奖
有如
有害
有幸
有序
有形
有待
有心
有志
有性
有情
有意
有感
有所
有损
有效
有数
有方
有无
有时
有望
有机
有权
有毒
有氧
有源
有点
有理
有生
有用
有益
有着
有神
有种
有空
有线
有缘
有罪
有色
有误
有趣
有违
有钱
有限
有鬼
朋克
朋友
服从
服侍
服刑
服务
服役
服用
服药
服装
服食
服饰
朗德
朗诵
朗读
望京
望去
望族
望月
望江
望见
朝代
朝向
朝圣
朝夕
朝廷
朝拜
朝政
朝日
朝晖
朝气
朝着
朝贡
朝野
朝阳
朝霞
朝鲜
期中
期内
期刊
期初
期待
期望
期末
期权
期满
期盼
期许
期货
期间
期限
朦胧
木业
木偶
木兰
木制
木刻
木匠
木叶
木器
木头
木子
木屋
木工
木料
木星
木材
木村
木板
木桶
木棍
木炭
木瓜
木箱
木纹
木耳
木薯
木质
木门
木雕
木香
木马
未免
未几
未及
未央
未婚
未定
未尝
未必
未曾
未有
未来
未果
未满
未知
未经
未能
未获
未遂
末世
末代
末尾
末年
末日
末期
末梢
末班
末端
本义
本乡
本书
本事
本人
本位
本体
本分
本刊
本剧
本区
本厂
本原
本县
本名
本周
本命
本国
本土
本地
本场
本子
本季
本局
本届
本州
本市
本店
本心
本性
本息
本意
本报
本文
本方
本月
本期
本本
本村
本条
本来
本校
本案
本次
本法
本源
本溪
本片
本版
本田
本病
本省
本真
本着
本社
本科
本站
本章
本篇
本级
本纪
本组
本能
本色
本草
本行
本该
本质
本身
本轮
本部
本金
本钱
本镇
本院
本领
本题
本馆
札幌
札记
术后
术士
术语
朱子
朱家
朱德
朱文
朱棣
朱熹
朱砂
朱雀
朴实
朴素
朵朵
机上
机件
机会
机体
机关
机具
机制
机务
机动
机器
机场
机型
机壳
机头
机子
机密
机床
机房
机敏
机智
机构
机枪
机架
机械
机油
机灵
机炮
机率
机理
机电
机票
机种
机箱
机组
机缘
机翼
机能
机舱
机芯
机要
机身
机车
机载
机遇
机长
杀人
杀伤
杀入
杀出
杀害
杀戮
杀手
杀掉
杀敌
杀机
杀死
杀毒
杀气
杀灭
杀生
杀菌
杀虫
杀青
杂乱
杂交
杂剧
杂志
杂技
杂文
杂木
杂物
杂种
杂粮
杂草
杂记
杂货
杂质
杂音
权利
权力
权势
权威
权属
权益
权臣
权衡
权证
权谋
权责
权贵
权重
权限
杆菌
杉木
李俊
李娜
李子
李宁
李家
李广
李强
李德
李成
李斯
李氏
李渊
李煜
李白
李铁
李靖
李鹏
杏仁
杏林
杏花
材料
材质
村上
村东
村内
村办
村务
村口
村委
村子
村官
村容
村寨
村小
村居
村庄
村村
村民
村级
村组
村落
村里
村镇
村长
杜仲
杜威
杜撰
杜比
杜牧
杜甫
杜绝
杜邦
杜鹃
束缚
杠杆
杠铃
条件
条例
条幅
条形
条文
条款
条状
条理
条目
条码
条约
条纹
来世
来临
来京
来信
来到
来华
来历
来回
来客
来宾
来往
来得
来时
来校
来源
来潮
来电
来看
来稿
来者
来自
来讲
来访
来说
杨家
杨柳
杨树
杨梅
杭州
杯中
杯子
杯水
杯赛
杯酒
杰作
杰克
杰出
杰夫
杰瑞
松下
松动
松土
松子
松山
松开
松弛
松懈
松散
松木
松本
松林
松柏
松树
松江
松涛
松紧
松绑
松茸
松软
松香
松鼠
板凳
板块
板子
板式
板材
板栗
板桥
极为
极乐
极了
极佳
极光
极其
极具
极力
极化
极品
极地
极大
极好
极富
极小
极少
极尽
极差
极度
极快
极性
极易
极点
极短
极端
极致
极速
极限
构件
构图
构型
构建
构思
构想
构成
构架
构筑
构造
枇杷
析出
枕头
林下
林业
林中
林冲
林区
林地
林场
林子
林家
林带
林彪
林木
林果
林森
林海
林立
林肯
林芝
林荫
林间
果仁
果农
果冻
果品
果园
果壳
果子
果实
果敢
果断
果树
果汁
果然
果皮
果真
果穗
果糖
果肉
果胶
果蔬
果酱
果酸
果香
枝叶
枝头
枝干
枝条
枢纽
枣庄
枣树
枪击
枪口
枪声
枪弹
枪战
枪手
枪托
枪支
枪杀
枪械
枪毙
枪法
枪炮
枪管
枫叶
枫林
枫树
枭雄
枯枝
枯死
枯燥
枯竭
枯萎
枯黄
架上
架势
架子
架构
架空
架设
架起
枷锁
枸杞
柏林
柏树
柏油
某个
某事
某些
某人
某位
某地
某处
某日
某某
某次
某种
某部
柑桔
柑橘
染上
染发
染成
染料
染病
染色
柔和
柔嫩
柔弱
柔性
柔情
柔滑
柔美
柔软
柔道
柔韧
柔顺
柚子
柚木
柜台
柜子
柠檬
查出
查办
查处
查实
查封
查找
查明
查杀
查查
查清
查理
查看
查获
查证
查询
查阅
查验
柯达
柱头
柱子
柱状
柳州
柳林
柳树
柳永
柳絮
柴油
柴胡
柿子
栀子
栅栏
标价
标兵
标准
标出
标号
标定
标尺
标志
标明
标有
标本
标杆
标榜
标注
标点
标牌
标的
标示
标称
标签
标线
标致
标记
标识
标语
标题
标高
栈道
栋梁
栏杆
栏目
树上
树冠
树势
树叶
树干
树形
树木
树林
树枝
树根
树皮
树种
树立
树脂
树苗
树龄
栓塞
栖息
栖霞
栗子
校企
校内
校准
校办
校务
校勘
校区
校友
校名
校园
校址
校外
校对
校尉
校庆
校徽
校报
校方
校服
校本
校歌
校正
校注
校级
校舍
校花
校董
校训
校车
校长
校门
校际
校风
校验
株型
株洲
样品
样子
样式
样本
样机
样板
样样
样貌
核准
核发
核定
核实
核对
核弹
核心
核果
核查
核桃
核电
核算
核能
核酸
核销
根基
根据
根本
根植
根治
根源
根系
根茎
根部
根除
格利
格力
格勒
格外
格子
格局
格式
格律
格拉
格斗
格斯
格林
格格
格罗
格言
格调
格里
格雷
栽培
栽植
栽种
桁架
桂冠
桂圆
桂林
桂枝
桂皮
桂花
桂阳
桃仁
桃园
桃子
桃木
桃李
桃树
桃源
桃花
框架
案件
案例
案卷
案发
案头
案子
案情
案板
桌上
桌子
桌椅
桌面
桎梏
桐乡
桐城
桐庐
桑叶
桑园
桑拿
桑树
桔子
桔梗
档期
档案
档次
桥下
桥东
桥墩
桥头
桥梁
桥段
桥涵
桥牌
桥西
桥面
梁家
梁山
梁祝
梅县
梅子
梅山
梅州
梅斯
梅林
梅森
梅毒
梅花
梅里
梗阻
梦乡
梦回
梦境
梦幻
梦想
梦游
梦见
梦醒
梦魇
梧州
梧桐
梨园
梨子
梨树
梨花
梯子
梯度
梯形
梯田
梯级
梯队
梳头
梳子
梳理
梵文
梵语
梵高
检举
检修
检出
检定
检察
检方
检查
检测
检疫
检索
检视
检讨
检阅
检验
棉布
棉签
棉纱
棉花
棉衣
棉袄
棉被
棋子
棋局
棋手
棋牌
棋盘
棋类
棍子
棍棒
棒子
棒状
棒球
棕壤
棕榈
棕色
棘手
森林
棱形
棱角
棱镜
棺木
棺材
椅子
植保
植入
植树
植株
植物
植被
椎体
椎管
椒盐
椭圆
椰子
楔形
楚国
楚王
楚辞
楚雄
楠木
楷书
楷模
楹联
楼上
楼下
楼主
楼兰
楼台
楼宇
楼层
楼市
楼房
楼板
楼梯
楼盘
楼道
楼阁
楼面
楼顶
概况
概念
概括
概率
概算
概要
概论
概述
榆林
榆树
榕树
榛子
榜样
榜首
榨汁
榨菜
榴弹
榴莲
槐树
槐花
槟城
槟榔
樟木
樟树
模仿
模具
模块
模型
模式
模拟
模板
模样
模版
模特
模糊
模组
模范
横亘
横县
横向
横山
横幅
横扫
横梁
横滨
横琴
横生
横穿
横竖
横纹
横线
横行
横贯
横跨
樱桃
樱花
橄榄
橘子
橙子
橙汁
橙色
橡木
橡树
橡皮
橡胶
橱柜
橱窗
檀香
欠下
欠佳
欠款
欠缺
欠费
次之
次子
次年
次序
次数
次方
次日
次生
次第
次级
次要
次韵
欢乐
欢呼
欢喜
欢庆
欢心
欢快
欢笑
欢迎
欣喜
欣慰
欣然
欣赏
欧亚
欧元
欧式
欧拉
欧文
欧洲
欧盟
欧美
欧阳
欧陆
欲望
欲求
欺凌
欺压
欺诈
欺负
欺骗
款式
款待
款款
款物
款项
歉意
歌会
歌剧
歌名
歌咏
歌唱
歌坛
歌声
歌德
歌手
歌星
歌曲
歌王
歌者
歌舞
歌词
歌谣
歌迷
歌颂
歙县
止咳
止损
止步
止泻
止渴
止痒
止痛
止血
止跌
正中
正义
正交
正传
正值
正像
正则
正副
正午
正反
正史
正名
正向
正品
正在
正大
正太
正好
正如
正字
正宗
正定
正巧
正常
正式
正弦
正当
正德
正文
正是
正月
正本
正极
正果
正殿
正气
正法
正派
正版
正直
正确
正线
正经
正统
正职
正要
正规
正视
正负
正道
正邪
正门
正阳
正面
正题
正餐
此举
此书
此事
此人
此刻
此前
此剧
此后
此地
此处
此外
此役
此战
此文
此时
此曲
此案
此次
此款
此法
此片
此生
此番
此病
此种
此等
此类
此行
此言
此间
此项
步伐
步入
步兵
步子
步履
步态
步枪
步步
步法
步行
步进
步骤
武侠
武侯
武力
武功
武器
武士
武大
武夷
武威
武学
武安
武官
武将
武当
武打
武技
武昌
武术
武松
武林
武汉
武火
武者
武艺
武装
武警
武进
武都
武陵
歧义
歧视
歪曲
歹徒
死亡
死伤
死党
死刑
死去
死因
死地
死守
死心
死机
死板
死死
死活
死神
死者
死角
歼敌
歼灭
殆尽
殉国
殊荣
残余
残存
残害
残废
残忍
残暴
残渣
残片
残留
残疾
残破
残缺
残联
残酷
残障
残骸
殖民
殡葬
殴打
段位
段子
段落
殷勤
殷商
殷墟
殷实
殿下
殿内
殿堂
殿宇
殿试
毁坏
毁容
毁损
毁掉
毁灭
毅力
毅然
母乳
母亲
母体
母女
母婴
母子
母本
母校
母爱
母牛
母猪
母系
母线
母语
母鸡
每个
每亩
每人
每份
每位
每册
每周
每场
每块
每天
每套
每家
每届
每年
每张
每当
每户
每支
每日
每晚
每月
每期
每桶
每次
每每
每班
每种
每秒
每章
每篇
每股
每逢
每部
每间
每集
毒品
毒害
毒性
毒死
毒气
毒液
毒物
毒理
毒素
毒药
毒蛇
毒贩
比丘
比亚
比价
比作
比例
比值
比分
比利
比喻
比如
比尔
比拟
比拼
比斯
比方
比武
比比
比照
比特
比率
比肩
比萨
比赛
比起
比较
比邻
比重
比高
毕业
毕生
毕竟
毕节
毗连
毗邻
毛利
毛刷
毛发
毛囊
毛坯
毛孔
毛尖
毛巾
毛毛
毛毯
毛病
毛皮
毛竹
毛笔
毛线
毛色
毛衣
毛豆
毛钱
毫不
毫克
毫升
毫安
毫无
毫秒
毫米
氏族
民主
民乐
民事
民企
民众
民俗
民兵
民初
民办
民团
民国
民宅
民宿
民居
民工
民建
民心
民情
民意
民房
民政
民族
民权
民歌
民法
民生
民用
民盟
民航
民营
民警
民调
民谣
民进
民间
民防
民革
民风
气体
气候
气力
气功
气动
气势
气化
气压
气味
气喘
气囊
气场
气垫
气孔
气度
气态
气息
气愤
气旋
气机
气概
气氛
气泡
气派
气流
气温
气源
气滞
气球
气瓶
气相
气短
气管
气缸
气色
气节
气虚
气血
气象
气质
气道
气量
气门
气韵
气馁
气魄
氙气
氛围
氢化
氢气
氤氲
氧化
氧吧
氧气
氨基
氨水
氮气
氮肥
氯仿
氯化
氯气
水上
水下
水中
水乡
水井
水产
水仙
水价
水份
水位
水体
水军
水准
水分
水利
水力
水务
水印
水厂
水压
水口
水土
水坝
水垢
水城
水域
水塘
水墨
水声
水壶
水头
水工
水师
水平
水库
水底
水彩
水性
水手
水政
水文
水族
水星
水景
水晶
水暖
水木
水杯
水果
水样
水桶
水槽
水母
水气
水池
水汽
水沟
水河
水泡
水波
水泥
水泵
水洗
水洞
水流
水浒
水浸
水深
水渠
水温
水源
水滴
水火
水灾
水牛
水珠
水瓶
水生
水田
水电
水疗
水疱
水稻
水窖
水管
水箱
水系
水肥
水肿
水能
水色
水花
水草
水表
水解
水货
水质
水费
水路
水车
水边
水运
水道
水量
水银
水闸
水陆
水雷
水面
水饺
水龙
永不
永世
永丰
永久
永乐
永兴
永利
永华
永和
永嘉
永存
永宁
永安
永定
永川
永州
永平
永年
永康
永恒
永新
永昌
永明
永春
永泰
永清
永生
永磁
永福
永续
永远
汁液
求助
求医
求变
求和
求婚
求学
求实
求得
求援
求救
求教
求新
求爱
求生
求真
求知
求索
求职
求解
求证
求购
汇丰
汇价
汇兑
汇入
汇合
汇总
汇成
汇报
汇款
汇演
汇率
汇票
汇编
汇聚
汇通
汇集
汉中
汉书
汉人
汉代
汉化
汉口
汉唐
汉城
汉堡
汉墓
汉奸
汉子
汉字
汉学
汉文
汉斯
汉族
汉服
汉朝
汉末
汉水
汉江
汉王
汉英
汉译
汉语
汉阳
汉魏
汕头
汕尾
汗水
汗液
汗腺
汛期
汝南
汝州
江东
江中
江北
江华
江南
江口
江城
江夏
江宁
江山
江州
江户
江村
江水
江汉
江河
江津
江浙
江海
江淮
江湖
江湾
江苏
江西
江边
江都
江门
江阴
江陵
江青
江面
池塘
池州
池水
污垢
污染
污水
污泥
污浊
污渍
污点
污物
污秽
汤匙
汤圆
汤姆
汤水
汤汁
汤锅
汪洋
汲取
汶川
汹涌
汽水
汽油
汽缸
汽车
汽配
汾河
沂蒙
沃伦
沃土
沃顿
沈阳
沉入
沉寂
沉思
沉沉
沉没
沉沦
沉浮
沉浸
沉淀
沉痛
沉着
沉睡
沉积
沉稳
沉船
沉迷
沉醉
沉重
沉闷
沉降
沉静
沉香
沉默
沏茶
沐浴
沙丘
沙俄
沙县
沙发
沙哑
沙土
沙地
沙场
沙子
沙尘
沙市
沙拉
沙棘
沙河
沙洲
沙湾
沙滩
沙漠
沙特
沙田
沙皇
沙盘
沙石
沙质
沙锅
沙门
沙龙
沛县
沟壑
沟槽
沟渠
沟谷
沟通
没事
没准
没收
没有
没法
没用
没空
没落
没错
沥青
沦为
沦落
沦陷
沧州
沧桑
沧海
沪宁
沪市
沭阳
沮丧
河东
河内
河北
河南
河口
河堤
河套
河山
河岸
河川
河床
河村
河段
河水
河池
河洛
河流
河湾
河源
河滩
河畔
河蟹
河西
河谷
河边
河道
河里
河间
河马
沸水
沸点
沸腾
油井
油价
油压
油品
油墨
油库
油性
油料
油条
油松
油气
油水
油污
油泵
油渍
油温
油漆
油炸
油烟
油田
油画
油管
油箱
油缸
油耗
油脂
油腻
油茶
油菜
油路
油轮
油锅
油门
治国
治学
治安
治平
治愈
治所
治本
治校
治水
治沙
治法
治理
治疗
治病
沼气
沼泽
沾染
沾满
沿岸
沿江
沿河
沿海
沿用
沿着
沿线
沿街
沿袭
沿路
沿途
沿革
泄密
泄泻
泄洪
泄漏
泄露
泉城
泉州
泉水
泊位
泊车
泌尿
法人
法令
法会
法兰
法典
法军
法则
法制
法力
法务
法医
法华
法器
法国
法子
法学
法官
法定
法宝
法家
法尔
法师
法度
法庭
法式
法律
法政
法文
法术
法案
法治
法王
法理
法甲
法网
法老
法规
法语
法门
法院
泗水
泛指
泛滥
泛舟
泛起
泛黄
泡妞
泡沫
泡泡
泡澡
泡茶
泡菜
波兰
波动
波及
波导
波尔
波形
波折
波斯
波段
波浪
波涛
波澜
波特
波纹
波罗
波长
波音
波黑
泥土
泥塑
泥巴
泥沙
泥泞
泥浆
泥潭
泥炭
泥鳅
注入
注册
注塑
注定
注射
注意
注明
注水
注目
注视
注解
注资
注释
注重
注销
注音
泪水
泪痕
泯灭
泰兴
泰勒
泰和
泰国
泰安
泰尔
泰山
泰州
泰式
泰拳
泰斗
泰达
泳池
泳装
泵站
泸州
泻药
泼墨
泼辣
泽泻
洁具
洁净
洁癖
洁白
洋人
洋房
洋气
洋河
洋洋
洋溢
洋芋
洋葱
洋行
洒水
洒脱
洗净
洗刷
洗头
洗手
洗掉
洗洗
洗浴
洗涤
洗漱
洗澡
洗牌
洗盘
洗碗
洗礼
洗练
洗脑
洗脚
洗脸
洗衣
洗车
洗钱
洛克
洛夫
洛尔
洛斯
洛林
洛桑
洛特
洛阳
洞口
洞天
洞察
洞庭
洞悉
洞房
洞穴
洞窟
津液
津贴
洪亮
洪山
洪武
洪水
洪流
洪涛
洪湖
洪灾
洪荒
洱海
洲际
活人
活体
活佛
活儿
活力
活动
活化
活塞
活字
活性
活捉
活检
活水
活泼
活活
活着
活血
活该
活跃
洼地
洽谈
派克
派兵
派出
派别
派发
派员
派对
派生
派系
派送
派遣
派驻
流下
流云
流亡
流产
流传
流体
流光
流入
流出
流利
流动
流变
流向
流域
流失
流感
流放
流明
流星
流氓
流水
流汗
流沙
流泪
流派
流浪
流涕
流淌
流畅
流离
流程
流线
流经
流苏
流落
流血
流行
流言
流转
流过
流连
流通
流逝
流速
流量
流露
浅层
浅显
浅析
浅水
浅浅
浅海
浅滩
浅色
浅薄
浅谈
浆果
浆液
浇水
浇注
浇灌
浇筑
测井
测光
测出
测定
测度
测控
测温
测算
测绘
测评
测试
测速
测量
测验
济世
济南
济宁
济州
济源
浏览
浏阳
浑厚
浑浊
浑身
浓厚
浓密
浓度
浓浓
浓淡
浓烈
浓烟
浓缩
浓茶
浓郁
浓重
浓香
浙东
浙南
浙大
浙江
浦东
浦口
浦江
浩劫
浩大
浩瀚
浩然
浩荡
浪子
浪漫
浪潮
浪花
浪费
浮云
浮出
浮力
浮动
浮华
浮夸
浮桥
浮沉
浮游
浮现
浮生
浮肿
浮躁
浮雕
浴场
浴室
浴巾
浴池
浴盆
浴缸
浴血
浴袍
海上
海东
海丰
海事
海伦
海信
海关
海内
海军
海区
海南
海参
海口
海员
海啸
海地
海城
海域
海外
海天
海姆
海子
海宁
海安
海尔
海山
海岛
海岸
海峡
海州
海带
海底
海德
海战
海报
海拔
海星
海景
海棠
海水
海沧
海河
海波
海洋
海派
海浪
海涛
海淀
海港
海湾
海滨
海滩
海潮
海燕
海牙
海珠
海瑞
海盐
海盗
海神
海米
海绵
海航
海藻
海螺
海西
海角
海豚
海豹
海贼
海路
海边
海运
海选
海通
海里
海量
海门
海防
海阳
海陆
海面
海风
海马
海鲜
海鸥
海龙
海龟
浸入
浸出
浸泡
浸润
浸渍
浸湿
浸种
浸透
涂刷
涂层
涂布
涂抹
涂改
涂料
涂膜
涂色
涂装
涂鸦
消亡
消化
消失
消息
消散
消暑
消极
消毒
消沉
消渴
消灭
消炎
消瘦
消磨
消耗
消肿
消融
消解
消费
消退
消逝
消遣
消防
消除
消食
涉事
涉农
涉及
涉外
涉嫌
涉密
涉案
涉水
涉猎
涉税
涉足
涌入
涌出
涌动
涌泉
涌现
涟漪
涡流
涡轮
涤纶
润泽
润滑
润燥
润肤
润肺
涨价
涨停
涨势
涨幅
涨跌
涪陵
液体
液化
液压
液态
液晶
液相
液面
涵义
涵养
涵洞
涵盖
淀粉
淄博
淋巴
淋浴
淋漓
淋病
淑女
淘宝
淘气
淘汰
淘洗
淘金
淞沪
淡出
淡化
淡季
淡忘
淡水
淡泊
淡淡
淡漠
淡然
淡薄
淡雅
淡黄
淤泥
淤积
淤血
淫秽
淬火
淮北
淮南
淮安
淮山
淮河
淮海
淮阳
淮阴
深井
深信
深入
深切
深刻
深化
深厚
深受
深圳
深处
深夜
深奥
深层
深山
深市
深度
深思
深情
深意
深感
深挖
深水
深沉
深沟
深浅
深海
深深
深渊
深知
深秋
深究
深红
深绿
深耕
深色
深蓝
深藏
深证
深谙
深谷
深远
深造
深邃
深部
深重
深陷
淳朴
淳熙
混乱
混交
混入
混匀
混双
混合
混居
混战
混杂
混沌
混浊
混淆
混混
混用
混蛋
混血
混迹
混音
淹死
淹没
添加
添置
清丽
清亮
清人
清代
清偿
清兵
清军
清冷
清净
清凉
清初
清剿
清华
清单
清史
清官
清宫
清平
清幽
清廉
清廷
清心
清扫
清新
清明
清晨
清晰
清朝
清末
清查
清楚
清水
清江
清汤
清河
清泉
清洁
清洗
清流
清淡
清淤
清源
清溪
清澈
清点
清热
清爽
清理
清甜
清白
清真
清秀
清空
清算
清纯
清肺
清脆
清蒸
清贫
清迈
清运
清远
清醒
清闲
清除
清雅
清零
清静
清风
清香
清高
渊博
渊源
渎职
渐变
渐次
渐渐
渐趋
渐进
渔业
渔人
渔具
渔场
渔夫
渔家
渔政
渔村
渔民
渔港
渔船
渗入
渗出
渗水
渗漏
渗透
渠道
渡口
渡江
渡河
渡海
渡船
渡轮
渡边
渡过
渣土
渤海
温和
温婉
温室
温州
温差
温带
温度
温情
温控
温暖
温柔
温水
温江
温泉
温润
温热
温顺
温饱
温馨
渭南
渭水
渭河
港元
港区
港口
港台
港岛
港币
港湾
港澳
港股
港航
渲染
渴望
渴求
游乐
游人
游侠
游击
游动
游历
游园
游子
游学
游客
游憩
游戏
游泳
游牧
游玩
游离
游船
游艇
游艺
游荡
游行
游览
游记
游说
游资
游走
游轮
渺小
渺茫
湍急
湍流
湖上
湖中
湖北
湖区
湖南
湖州
湖广
湖水
湖泊
湖湘
湖滨
湖畔
湖西
湖边
湖里
湖面
湘军
湘南
湘江
湘潭
湘菜
湘西
湛江
湛蓝
湮没
湮灭
湾仔
湿地
湿度
湿气
湿法
湿润
湿热
湿疹
湿透
溃烂
溃疡
溃败
源于
源头
源泉
源流
源源
源码
源自
溜走
溜达
溢价
溢出
溥仪
溧水
溧阳
溪口
溪水
溪河
溪流
溪谷
溪边
溯源
溶于
溶剂
溶化
溶性
溶洞
溶液
溶血
溶解
溶质
溺水
溺爱
滁州
滇池
滋养
滋味
滋润
滋生
滋补
滋阴
滑冰
滑动
滑坡
滑板
滑梯
滑石
滑稽
滑翔
滑落
滑行
滑道
滑雪
滔天
滔滔
滕州
滚刀
滚动
滚子
滚水
滚滚
滚烫
滚石
滚筒
滚轮
滞后
滞留
满仓
满分
满口
满嘴
满园
满地
满城
满天
满山
满心
满怀
满意
满族
满月
满洲
满清
满满
满目
满眼
满脸
满腔
满语
满足
满身
满载
满面
滤波
滤液
滤网
滥用
滨州
滨江
滨河
滨海
滨湖
滩涂
滴入
滴定
滴水
滴灌
漂亮
漂泊
漂洗
漂流
漂浮
漂白
漂移
漆器
漆膜
漆黑
漏斗
漏气
漏水
漏油
漏洞
漏电
漓江
演义
演习
演出
演化
演变
演员
演唱
演奏
演戏
演技
演示
演练
演绎
演艺
演讲
演说
演进
漕运
漠视
漩涡
漫天
漫步
漫游
漫漫
漫画
漫长
漯河
漱口
漳州
潇洒
潇湘
潇潇
潍坊
潜伏
潜入
潜力
潜在
潜心
潜水
潜能
潜艇
潜藏
潜行
潜质
潜逃
潮州
潮水
潮汐
潮汕
潮流
潮湿
潮红
潮阳
潺潺
潼关
澄清
澎湃
澎湖
澳元
澳洲
澳门
激光
激动
激励
激化
激发
激增
激怒
激情
激战
激昂
激活
激流
激烈
激素
激荡
激起
激进
濒临
濒危
濮阳
瀑布
灌丛
灌区
灌木
灌水
灌注
灌浆
灌溉
灌肠
灌装
灌输
火候
火光
火力
火势
火化
火器
火场
火山
火影
火把
火星
火枪
火柴
火气
火海
火源
火灾
火炉
火炬
火炮
火烧
火热
火焰
火爆
火球
火电
火神
火种
火箭
火红
火线
火腿
火花
火苗
火药
火车
火辣
火速
火锅
火鸡
火龙
灭亡
灭失
灭火
灭绝
灭菌
灭门
灯会
灯光
灯具
灯塔
灯泡
灯火
灯笼
灯管
灯箱
灯谜
灯饰
灰分
灰尘
灰岩
灰度
灰心
灰暗
灰烬
灰白
灰色
灵光
灵兽
灵动
灵宝
灵山
灵巧
灵异
灵性
灵感
灵敏
灵柩
灵气
灵活
灵石
灵芝
灵验
灵魂
灼伤
灼热
灾区
灾害
灾情
灾民
灾祸
灾难
灿烂
炉子
炉火
炉灶
炊烟
炎帝
炎热
炎症
炎黄
炒作
炒制
炒股
炒菜
炒锅
炒饭
炖煮
炙热
炫目
炫耀
炭火
炮兵
炮击
炮制
炮台
炮塔
炮弹
炮火
炮灰
炮轰
炸开
炸弹
炸死
炸毁
炸药
炸鸡
点亮
点位
点儿
点击
点卡
点名
点头
点子
点心
点拨
点播
点数
点明
点滴
点火
点点
点燃
点状
点球
点穴
点缀
点菜
点评
点金
点钟
点阵
炼丹
炼制
炼化
炼油
炼狱
炼钢
炼铁
炽热
烂漫
烂片
烈士
烈日
烈火
烈焰
烈酒
烘干
烘托
烘烤
烘焙
烙印
烛光
烟云
烟台
烟叶
烟囱
烟尘
烟气
烟火
烟熏
烟花
烟草
烟道
烟酒
烟酸
烟雨
烟雾
烤制
烤烟
烤箱
烤肉
烤鱼
烤鸭
烦人
烦恼
烦请
烦躁
烧伤
烧制
烧开
烧成
烧掉
烧死
烧毁
烧水
烧沸
烧烤
烧热
烧焦
烧纸
烧结
烧造
烧钱
烧饼
烧香
烫伤
烫发
热切
热力
热卖
热土
热工
热带
热度
热心
热忱
热恋
热情
热播
热敷
热气
热水
热河
热泵
热源
热潮
热火
热点
热烈
热爱
热电
热病
热管
热线
热能
热血
热衷
热诚
热身
热轧
热量
热销
热门
热闹
热风
烯烃
烷基
烹制
烹调
烹饪
烽火
焊接
焊机
焊条
焊缝
焕发
焚毁
焚烧
焚香
焦作
焦化
焦急
焦炭
焦点
焦煤
焦糖
焦虑
焦距
焦躁
焰火
然则
然后
然而
煎炸
煎煮
煎熬
煎饼
煤业
煤价
煤层
煤气
煤油
煤炭
煤田
煤电
煤矿
照亮
照例
照壁
照射
照常
照应
照度
照搬
照料
照明
照样
照片
照相
照看
照着
照耀
照顾
煮沸
煮饭
煲汤
煽动
煽情
熄火
熄灭
熊市
熊熊
熊猫
熏蒸
熏陶
熔体
熔化
熔岩
熔炉
熔点
熔炼
熔融
熙宁
熟人
熟地
熟悉
熟睡
熟知
熟练
熟识
熟读
熟透
熟食
熨斗
熨烫
熬夜
燃放
燃料
燃气
燃油
燃烧
燃煤
燃起
燎原
燕京
燕国
燕子
燕山
燕窝
燕赵
燕郊
燕麦
燥湿
燥热
爆出
爆发
爆料
爆棚
爆满
爆炒
爆炸
爆破
爆竹
爆笑
爆裂
爪哇
爪子
爬升
爬坡
爬山
爬虫
爬行
爱乐
爱人
爱国
爱好
爱妻
爱子
爱家
爱心
爱恋
爱情
爱惜
爱意
爱慕
爱戴
爱护
爱民
爱河
爱看
爱神
爱美
爱车
爵位
爵士
父亲
父女
父子
父本
父母
父爱
父王
父老
父辈
爷们
爷爷
爸爸
爹妈
爹娘
爹爹
爽口
爽快
爽朗
片中
片刻
片剂
片区
片名
片场
片头
片子
片断
片段
片片
片状
片长
片面
版主
版图
版块
版型
版式
版本
版权
版画
版面
牌匾
牌号
牌坊
牌子
牌楼
牌照
牙刷
牙医
牙痛
牙科
牙签
牙膏
牙齿
牙龈
牛仔
牛头
牛奶
牛市
牛排
牛油
牛津
牛皮
牛羊
牛肉
牛股
牛膝
牛蒡
牛蛙
牛角
牛郎
牛顿
牛黄
牟利
牡丹
牡蛎
牢固
牢度
牢牢
牢笼
牢记
牦牛
牧业
牧区
牧场
牧师
牧民
牧羊
牧草
物业
物产
物件
物价
物体
物力
物化
物品
物性
物探
物料
物权
物流
物理
物种
物美
物色
物证
物语
物象
物质
物资
牲畜
牵制
牵动
牵头
牵引
牵扯
牵拉
牵挂
牵涉
牵绊
牵连
特产
特价
特使
特例
特写
特刊
特别
特制
特务
特区
特困
特地
特大
特委
特定
特尔
特工
特异
特征
特快
特性
特惠
特意
特技
特拉
特指
特效
特斯
特有
特权
特此
特殊
特点
特种
特等
特约
特级
特纳
特罗
特聘
特色
特警
特许
特设
特质
特辑
特邀
特里
特钢
特长
特高
牺牲
犀利
犀牛
犯下
犯人
犯法
犯罪
犯规
犯错
状元
状况
状态
状物
状语
犹太
犹如
犹存
犹豫
狂人
狂奔
狂妄
狂暴
狂欢
狂潮
狂热
狂野
狂风
狂飙
狐仙
狐狸
狗狗
狗肉
狙击
狠心
狠抓
狠毒
狠狠
狡猾
狡诈
狩猎
独享
独具
独创
独到
独占
独唱
独处
独奏
独子
独孤
独家
独尊
独居
独山
独有
独栋
独特
独白
独立
独自
独行
独裁
独资
独门
狭义
狭小
狭窄
狭长
狭隘
狮子
狰狞
狱中
狼狈
猎人
猎头
猎奇
猎手
猎捕
猎杀
猎物
猎犬
猎豹
猎鹰
猕猴
猖狂
猖獗
猛兽
猛地
猛增
猛将
猛攻
猛烈
猛然
猛禽
猛虎
猛龙
猜忌
猜想
猜测
猜猜
猜疑
猝死
猥亵
猥琐
猩猩
猪场
猪头
猪油
猪皮
猪肉
猪肚
猪肝
猪脚
猪血
猪蹄
猫猫
猫眼
猫腻
献上
献出
献礼
献祭
献给
献血
献身
猴子
玄关
玄奘
玄妙
玄学
玄机
玄武
率众
率先
率兵
率性
率真
率部
率队
率领
玉佩
玉兔
玉兰
玉器
玉女
玉山
玉帝
玉带
玉林
玉树
玉泉
玉溪
玉环
玉玺
玉石
玉竹
玉米
玉雕
玉龙
王位
王储
王公
王冠
王后
王国
王妃
王子
王孙
王室
王宫
王家
王平
王府
王座
王族
王明
王朝
王权
王母
王爷
王牌
王维
王者
王莽
王菲
王道
玛丽
玛瑙
玛雅
玩乐
玩伴
玩偶
玩儿
玩具
玩吧
玩味
玩命
玩家
玩弄
玩意
玩法
玩玩
玩笑
玩耍
玫瑰
环保
环卫
环城
环境
环山
环岛
环形
环抱
环比
环氧
环流
环湖
环状
环球
环礁
环线
环绕
环节
环评
环路
现世
现今
现代
现价
现任
现值
现出
现名
现在
现场
现址
现存
现实
现已
现年
现役
现成
现时
现有
现款
现状
现职
现行
现象
现货
现身
现金
玲玲
玲珑
玻璃
珊瑚
珍品
珍妮
珍宝
珍惜
珍爱
珍珠
珍稀
珍藏
珍视
珍贵
珍重
珐琅
珠光
珠子
珠宝
珠峰
珠江
珠海
班上
班固
班子
班底
班机
班次
班禅
班级
班组
班车
班里
班长
球体
球员
球场
球形
球手
球技
球拍
球星
球果
球状
球菌
球衣
球赛
球迷
球门
球阀
球队
球面
球鞋
球馆
理事
理会
理化
理发
理学
理工
理应
理念
理性
理想
理智
理查
理气
理清
理由
理疗
理睬
理科
理解
理论
理财
理赔
理顺
琉球
琉璃
琐事
琐碎
琢磨
琥珀
琳娜
琴声
琴弦
琵琶
琼崖
琼斯
琼瑶
琼脂
瑕疵
瑜伽
瑞丽
瑞典
瑞士
瑞安
瑞尔
瑞德
瑞斯
瑞星
瑞金
瑞银
瑟瑟
瑰丽
瑰宝
瑶族
瑶池
璀璨
瓜分
瓜子
瓜果
瓢虫
瓣膜
瓦尔
瓦房
瓦拉
瓦斯
瓦片
瓦特
瓦解
瓶子
瓶盖
瓶装
瓶颈
瓷器
瓷砖
甄别
甄选
甘于
甘地
甘心
甘愿
甘油
甘泉
甘甜
甘肃
甘草
甘蓝
甘蔗
甘薯
甘露
甚为
甚么
甚广
甚至
甜味
甜品
甜头
甜度
甜心
甜椒
甜点
甜瓜
甜甜
甜美
甜菜
甜蜜
甜食
生于
生产
生人
生冷
生出
生前
生动
生化
生发
生命
生地
生境
生姜
生子
生存
生平
生态
生怕
生性
生息
生意
生成
生抽
生效
生日
生机
生来
生根
生死
生殖
生母
生气
生活
生涯
生源
生火
生灵
生父
生物
生猪
生理
生病
生硬
生粉
生肖
生育
生菜
生计
生词
生辉
生辰
生还
生铁
生锈
生长
生鲜
用书
用于
用人
用以
用作
用做
用光
用兵
用具
用到
用力
用功
用友
用品
用地
用处
用字
用尽
用工
用布
用心
用意
用户
用房
用料
用材
用来
用水
用油
用法
用电
用笔
用纸
用药
用血
用词
用语
用车
用途
用量
用钱
用餐
甩开
甩掉
甬道
田中
田园
田地
田家
田径
田螺
田里
田野
田间
由于
由此
由衷
甲亢
甲午
甲型
甲基
甲子
甲戌
甲方
甲板
甲烷
甲申
甲第
甲等
甲级
甲组
甲苯
甲虫
甲辰
甲酯
甲酸
甲醇
甲醛
甲骨
甲鱼
申办
申报
申明
申花
申论
申诉
申请
申购
申辩
申遗
申领
电价
电位
电信
电光
电击
电力
电动
电厂
电压
电台
电商
电器
电场
电子
电学
电容
电工
电平
电弧
电影
电感
电报
电控
电教
电机
电杆
电极
电梯
电气
电池
电波
电泳
电流
电源
电灯
电炉
电热
电玩
电瓶
电磁
电离
电站
电线
电缆
电网
电能
电脑
电荷
电表
电视
电解
电讯
电话
电费
电路
电车
电量
电镀
电阻
男人
男儿
男单
男友
男双
男团
男士
男声
男女
男婴
男子
男孩
男性
男方
男星
男权
男爵
男生
男科
男童
男篮
男装
画作
画像
画册
画卷
画图
画坛
画室
画家
画展
画布
画师
画幅
画廊
画报
画法
画派
画画
画眉
画笔
画质
画院
画集
画面
画风
畅快
畅想
畅游
畅谈
畅通
畅销
界定
界线
界限
界面
畏惧
留下
留人
留住
留出
留在
留存
留学
留守
留心
留念
留恋
留意
留有
留校
留用
留给
留美
留言
留香
畜牧
畜生
畜禽
略为
略带
略微
略显
略有
番号
番禺
番茄
番薯
畲族
畸变
畸形
疆域
疏密
疏导
疏忽
疏散
疏松
疏浚
疏漏
疏离
疏解
疏远
疏通
疑似
疑惑
疑点
疑虑
疑问
疑难
疗伤
疗养
疗效
疗法
疗程
疙瘩
疟疾
疤痕
疫区
疫情
疫病
疫苗
疯子
疯狂
疱疹
疲乏
疲倦
疲劳
疲弱
疲惫
疲软
疼爱
疼痛
疾患
疾病
疾苦
疾风
病人
病例
病区
病危
病历
病原
病友
病变
病史
病因
病害
病床
病态
病患
病情
病房
病故
病死
病残
病毒
病灶
病理
病症
病痛
病种
病程
病菌
病虫
病逝
病重
病魔
症状
症结
痉挛
痊愈
痔疮
痕迹
痛哭
痛心
痛快
痛恨
痛感
痛楚
痛点
痛经
痛苦
痛风
痞子
痢疾
痤疮
痴呆
痴心
痴情
痴迷
瘙痒
瘟疫
瘠薄
瘢痕
瘦子
瘦小
瘦弱
瘦果
瘦肉
瘫痪
癌变
癌症
癫狂
癫痫
癸卯
登上
登临
登台
登场
登基
登封
登山
登录
登月
登机
登记
登载
登门
登陆
登顶
登高
白云
白人
白光
白发
白城
白塔
白天
白头
白嫩
白宫
白家
白山
白带
白度
白描
白文
白斑
白族
白旗
白日
白昼
白术
白条
白杨
白板
白果
白水
白沙
白河
白点
白玉
白瓷
白痴
白白
白皙
白皮
白眼
白石
白米
白粉
白糖
白纸
白羊
白色
白芍
白花
白芷
白莲
白菜
白虎
白蚁
白衣
白话
白费
白酒
白醋
白金
白银
白雪
白面
白领
白马
白骨
白鹤
白鹭
百万
百丈
百世
百个
百事
百亩
百亿
百代
百位
百余
百佳
百倍
百元
百利
百叶
百合
百名
百味
百大
百姓
百官
百家
百岁
百年
百度
百强
百态
百户
百日
百济
百灵
百盛
百种
百科
百篇
百米
百般
百色
百花
百草
百货
百部
百里
的哥
的士
的确
的话
皆宜
皆知
皇上
皇位
皇冠
皇后
皇城
皇妃
皇子
皇室
皇宫
皇家
皇帝
皇族
皇朝
皇权
皇甫
皇马
皈依
皖北
皖南
皮下
皮具
皮包
皮孔
皮层
皮带
皮影
皮损
皮棉
皮毛
皮炎
皮球
皮瓣
皮疹
皮皮
皮肤
皮脂
皮蛋
皮衣
皮质
皮革
皮鞋
皱眉
皱纹
皱褶
盆中
盆地
盆底
盆景
盆栽
盆腔
盈亏
盈余
盈利
盈盈
益处
益州
益智
益民
益气
益精
益阳
盎司
盎然
盐业
盐分
盐务
盐场
盐城
盐度
盐政
盐水
盐湖
盐田
盐类
盐酸
监事
监制
监听
监委
监察
监护
监控
监测
监狱
监理
监督
监禁
监管
监考
监视
盒子
盒饭
盔甲
盖世
盖子
盖尔
盖帽
盖板
盖章
盖茨
盗取
盗墓
盗汗
盗版
盗用
盗窃
盗贼
盘中
盘内
盘古
盘子
盘式
盘整
盘旋
盘活
盘点
盘踞
盘锦
盘面
盘龙
盛世
盛事
盛产
盛京
盛会
盛传
盛典
盛况
盛名
盛唐
盛夏
盛大
盛宴
盛开
盛放
盛期
盛行
盛衰
盛装
盛赞
盟主
盟军
盟友
盟员
盟国
目光
目击
目前
目录
目标
目测
目的
目睹
目视
盯上
盯人
盲人
盲区
盲点
盲目
直列
直到
直喷
直奔
直射
直属
直径
直抵
直拨
直指
直接
直播
直流
直率
直白
直立
直管
直系
直线
直肠
直至
直营
直行
直观
直视
直觉
直角
直言
直译
直辖
直达
直通
直链
直销
直隶
直面
相与
相互
相交
相亲
相仿
相会
相传
相伴
相似
相位
相依
相信
相像
相克
相公
相关
相册
相加
相助
相反
相变
相合
相同
相向
相国
相声
相处
相守
相宜
相容
相对
相差
相应
相当
相待
相思
相恋
相悖
相拥
相接
相撞
相救
相映
相望
相机
相框
相比
相爱
相片
相知
相称
相符
相等
相约
相继
相聚
相融
相见
相识
相貌
相距
相近
相连
相通
相逢
相遇
相邻
相配
相间
相随
相隔
盼望
盾构
盾牌
省事
省份
省会
省内
省力
省区
省去
省城
省外
省委
省属
省市
省心
省略
省直
省立
省级
省里
省钱
省长
省际
眉头
眉山
眉毛
眉眼
看中
看书
看似
看作
看做
看准
看出
看到
看台
看吧
看好
看守
看官
看客
看待
看成
看护
看望
看来
看法
看涨
看清
看点
看病
看看
看着
看破
看穿
看管
看见
看跌
看过
看透
看重
看齐
真丝
真主
真人
真传
真伪
真假
真切
真名
真品
真实
真心
真情
真挚
真是
真正
真理
真的
真皮
真相
真空
真经
真菌
真言
真诚
真话
真谛
真身
真迹
眨眼
眩晕
眷属
眷恋
眷顾
眸子
眺望
眼下
眼中
眼光
眼前
眼力
眼帘
眼底
眼影
眼泪
眼珠
眼球
眼界
眼病
眼皮
眼看
眼眶
眼眸
眼睑
眼睛
眼神
眼科
眼线
眼袋
眼见
眼角
眼部
眼里
眼镜
眼霜
着凉
着力
着实
着急
着想
着手
着火
着眼
着色
着装
着迷
着重
着陆
睡床
睡眠
睡着
睡莲
睡衣
睡觉
睡醒
督促
督军
督办
督学
督察
督导
督查
睫毛
睾丸
睿智
瞄准
瞎子
瞒报
瞧瞧
瞩目
瞬时
瞬间
瞭望
瞳孔
瞻仰
矗立
矛头
矛盾
矜持
矢志
矢量
知县
知名
知己
知府
知心
知性
知悉
知情
知晓
知觉
知识
知足
知道
知青
知音
矩形
矩阵
矫健
矫情
矫正
矫治
短促
短信
短剧
短发
短命
短小
短文
短时
短暂
短期
短板
短柄
短波
短片
短短
短篇
短线
短缺
短袖
短裙
短裤
短语
短路
短途
矮小
石人
石像
石刻
石化
石器
石块
石城
石塔
石塘
石墙
石墨
石壁
石头
石子
石室
石山
石川
石料
石斛
石材
石板
石林
石柱
石桥
石棉
石榴
石油
石洞
石灰
石狮
石砌
石碑
石窟
石笋
石膏
石英
石质
石门
石阶
石雕
石首
石鼓
石龙
矿业
矿井
矿产
矿体
矿区
矿山
矿工
矿床
矿物
矿用
矿石
矿藏
码头
码字
砂仁
砂土
砂岩
砂浆
砂石
砂砾
砂糖
砂质
砂轮
砂锅
砌体
砌块
砌筑
砍价
砍伐
砍掉
研习
研修
研判
研制
研发
研磨
研究
研讨
研读
砖厂
砖块
砖墙
砖头
砖混
砖瓦
砖石
砖雕
砝码
砥砺
砧木
破产
破坏
破损
破旧
破晓
破格
破案
破灭
破烂
破碎
破绽
破获
破裂
破解
破译
破财
破败
破门
破除
砾石
硅油
硅胶
硅藻
硅谷
硕士
硕大
硕果
硝基
硝烟
硝酸
硫化
硫磺
硫酸
硬件
硬伤
硬化
硬币
硬度
硬性
硬是
硬朗
硬汉
硬盘
硬笔
硬质
确保
确信
确切
确定
确实
确有
确立
确认
确诊
确需
硼酸
碉堡
碎屑
碎片
碎石
碎裂
碑刻
碑帖
碑文
碑林
碑记
碧云
碧水
碧波
碧海
碧玉
碧玺
碧绿
碰上
碰到
碰壁
碰巧
碰撞
碰见
碱性
碳化
碳素
碳酸
碳钢
碾压
磁力
磁化
磁场
磁带
磁性
磁盘
磁铁
磅礴
磋商
磐石
磨削
磨合
磨床
磨成
磨损
磨擦
磨料
磨灭
磨炼
磨牙
磨砂
磨砺
磨练
磨难
磷肥
磷脂
磷酸
磺胺
礁石
示人
示例
示威
示意
示范
礼乐
礼仪
礼品
礼器
礼堂
礼拜
礼服
礼物
礼盒
礼节
礼让
礼记
礼貌
礼遇
礼部
礼金
社交
社会
社保
社区
社员
社团
社工
社科
社稷
社群
社联
社论
社长
祈愿
祈求
祈祷
祈福
祖上
祖传
祖先
祖国
祖宗
祖师
祖庙
祖母
祖父
祖籍
祖辈
祛斑
祛痰
祛除
祛风
祝寿
祝您
祝愿
祝福
祝贺
神人
神仙
神似
神佛
神像
神兵
神农
神剑
神力
神功
神化
神医
神器
神圣
神坛
神奇
神女
神威
神学
神宗
神山
神州
神庙
神志
神态
神情
神户
神明
神曲
神木
神武
神殿
神气
神游
神灵
神父
神界
神社
神祇
神秘
神童
神经
神舟
神色
神话
神迹
神通
神速
神道
神采
神韵
神马
神鬼
神魔
神龙
祠堂
祥云
祥和
祥瑞
票价
票务
票房
票据
票数
票证
票选
票面
祭典
祭司
祭品
祭坛
祭天
祭奠
祭扫
祭拜
祭祀
祭祖
祭酒
祷告
祸害
禀赋
禁令
禁区
禁地
禁忌
禁欲
禁止
禁毒
禁烟
禁用
禁赛
禁锢
禁食
禅宗
禅定
禅寺
禅师
禅意
禅院
福冈
福利
福地
福安
福寿
福尔
福山
福岛
福州
福建
福报
福斯
福星
福气
福清
福特
福田
福祉
福音
离世
离任
离休
离别
离去
离合
离场
离奇
离婚
离子
离家
离岸
离开
离异
离心
离散
离校
离线
离职
离谱
离队
离骚
禽兽
禽类
秀丽
秀发
秀山
秀才
秀水
秀美
秀英
私下
私人
私企
私信
私分
私利
私募
私塾
私奔
私家
私密
私心
私房
私有
私立
私自
私营
私藏
秉承
秉持
秋冬
秋千
秋叶
秋天
秋季
秋收
秋日
秋月
秋水
秋色
秋雨
秋风
种业
种养
种地
种子
种族
种植
种田
种皮
种种
种类
种粮
种群
种苗
种草
种菜
种质
科举
科协
科员
科大
科夫
科委
科学
科室
科尔
科工
科幻
科恩
科技
科拉
科教
科斯
科普
科林
科比
科特
科班
科目
科研
科级
科考
科长
科隆
秒杀
秒表
秒钟
秘书
秘史
秘密
秘方
秘笈
秘籍
秘诀
秘鲁
租住
租借
租售
租户
租房
租用
租界
租赁
租车
租金
秦代
秦军
秦国
秦岭
秦州
秦朝
秦桧
秦汉
秦淮
秦王
秦腔
秧歌
秩序
积分
积压
积存
积攒
积木
积极
积水
积淀
积温
积累
积聚
积蓄
积雪
称为
称作
称做
称号
称呼
称帝
称王
称职
称谓
称赞
称道
称重
称量
称霸
称颂
秸秆
移交
移位
移入
移动
移居
移栽
移植
移步
移民
移至
移送
移除
稀土
稀奇
稀少
稀有
稀疏
稀缺
稀罕
稀薄
稀释
稀饭
程序
程度
程式
程控
稍加
稍后
稍微
稍稍
税制
税前
税务
税后
税控
税收
税政
税款
税法
税源
税率
税种
税负
税费
税金
税额
稚嫩
稠密
稠度
稳产
稳住
稳健
稳压
稳固
稳妥
稳定
稳居
稳态
稳步
稳重
稻城
稻田
稻米
稻草
稻谷
稽察
稽查
稽核
稿件
稿子
稿费
稿酬
穆勒
穴位
究竟
穷人
穷困
穷尽
穷苦
穹顶
空中
空位
空余
空军
空前
空地
空域
空头
空姐
空客
空巢
空心
空想
空战
空旷
空格
空气
空洞
空港
空灵
空白
空空
空管
空缺
空置
空腹
空虚
空袭
空调
空谈
空载
空运
空闲
空间
空降
空隙
空难
穿刺
穿孔
穿戴
穿插
穿梭
穿着
穿行
穿衣
穿越
穿过
穿透
突兀
突入
突出
突击
突厥
突发
突变
突围
突显
突然
突破
突袭
突触
突起
窃取
窃听
窄幅
窈窕
窍门
窑址
窑洞
窑炉
窒息
窗前
窗口
窗台
窗外
窗子
窗帘
窗户
窘境
窘迫
窝点
窥探
窥见
窥视
立下
立业
立于
立交
立体
立刻
立功
立即
立国
立地
立场
立委
立式
立德
立志
立意
立新
立方
立柱
立案
立法
立论
立足
立身
立面
立项
立马
竖向
竖立
竖起
站上
站位
站台
站场
站房
站点
站稳
站立
站长
竞买
竞争
竞价
竞技
竞拍
竞标
竞猜
竞相
竞赛
竞选
竞速
竟是
竟然
章丘
章法
章程
章节
章鱼
竣工
童子
童年
童心
童星
童真
童装
童话
童谣
童趣
竭力
竭诚
端倪
端午
端口
端坐
端子
端庄
端木
端正
端点
端的
端面
竹叶
竹园
竹子
竹山
竹木
竹林
竹海
竹竿
竹笋
竹简
竹马
笃信
笑傲
笑声
笑容
笑意
笑料
笑笑
笑脸
笑话
笑谈
笑颜
笔下
笔会
笔划
笔力
笔名
笔墨
笔尖
笔录
笔法
笔画
笔直
笔者
笔触
笔记
笔译
笔试
笔调
笔迹
笔锋
笛子
符号
符合
符咒
笨拙
笨蛋
笨重
第一
第七
第三
第九
第二
第五
第八
第六
第十
第四
笼子
笼统
笼罩
等于
等价
等候
等值
等到
等同
等待
等效
等等
等级
等量
等额
筋膜
筋骨
筑城
筑巢
筒状
答卷
答复
答对
答应
答案
答疑
答谢
答辩
答道
答题
策划
策动
策略
筛分
筛查
筛选
筷子
筹划
筹办
筹备
筹建
筹措
筹款
筹码
筹资
筹集
签下
签到
签发
签名
签字
签定
签收
签注
签章
签约
签署
签订
签证
简介
简体
简便
简写
简化
简单
简历
简史
简报
简捷
简明
简易
简朴
简洁
简略
简直
简短
简称
简约
简练
简要
简述
简陋
算了
算作
算命
算子
算是
算术
算法
算盘
算算
算计
管乐
管仲
管件
管住
管内
管制
管区
管壁
管好
管委
管子
管家
管式
管径
管护
管控
管教
管材
管状
管理
管用
管线
管网
管路
管辖
管道
箭头
箱体
箱内
箱包
箱子
箴言
篆书
篆刻
篇幅
篇目
篇章
篝火
篡位
篡改
篮子
篮板
篮球
篮网
篱笆
簇拥
簇生
籍贯
米兰
米勒
米处
米奇
米尔
米拉
米斯
米格
米汤
米特
米粉
米粒
米线
米色
米芾
米质
米酒
米醋
米饭
类人
类似
类别
类型
类推
类比
类群
籽粒
粉丝
粉体
粉刷
粉刺
粉剂
粉嫩
粉尘
粉底
粉彩
粉末
粉条
粉状
粉碎
粉笔
粉红
粉色
粒子
粒度
粒径
粒状
粗俗
粗壮
粗大
粗心
粗放
粗暴
粗犷
粗略
粗粮
粗糙
粗细
粗鲁
粘合
粘土
粘度
粘性
粘接
粘液
粘着
粘稠
粘结
粘膜
粘贴
粘连
粘附
粤东
粤剧
粤菜
粤西
粤语
粥样
粪便
粮仓
粮油
粮草
粮食
粳米
粽子
精于
精兵
精准
精制
精力
精华
精品
精妙
精子
精密
精工
精巧
精干
精度
精彩
精微
精心
精明
精气
精油
精液
精深
精湛
精灵
精炼
精益
精盐
精矿
精研
精确
精神
精简
精算
精米
精粹
精练
精细
精编
精美
精致
精舍
精良
精英
精装
精要
精讲
精诚
精读
精辟
精进
精选
精通
精锐
精髓
糅合
糊涂
糊状
糕点
糖分
糖果
糖水
糖浆
糖类
糖粉
糖醋
糙米
糜烂
糟粕
糟糕
糟蹋
糯米
系列
系数
系统
系谱
紊乱
素以
素养
素描
素数
素有
素材
素来
素菜
素质
素问
素雅
素食
索取
索尔
索尼
索引
索性
索要
索赔
索道
紧凑
紧固
紧密
紧张
紧急
紧扣
紧握
紧紧
紧绷
紧缩
紧缺
紧贴
紧跟
紧身
紧迫
紧邻
紧闭
紧随
紧靠
紫云
紫光
紫外
紫檀
紫癜
紫砂
紫红
紫色
紫苏
紫荆
紫菜
紫薇
紫金
紫阳
累加
累及
累死
累积
累累
累计
累赘
繁体
繁华
繁复
繁多
繁忙
繁星
繁杂
繁殖
繁琐
繁盛
繁育
繁花
繁茂
繁荣
繁衍
繁重
纂修
纠正
纠纷
纠结
纠缠
纠葛
纠错
红光
红军
红利
红包
红叶
红唇
红土
红壤
红外
红妆
红娘
红尘
红山
红心
红斑
红旗
红日
红星
红木
红杉
红枣
红梅
红椒
红楼
红河
红油
红海
红润
红火
红灯
红烧
红牌
红牛
红球
红白
红眼
红砖
红糖
红线
红绿
红肿
红色
红艳
红花
红茶
红莲
红薯
红衣
红豆
红遍
红酒
红霞
红颜
纣王
纤毛
纤细
纤维
约会
约克
约合
约定
约旦
约束
约翰
级别
级数
纪事
纪元
纪委
纪实
纪年
纪录
纪律
纪念
纪检
纪要
纬度
纯净
纯化
纯属
纯度
纯情
纯朴
纯棉
纯正
纯水
纯洁
纯熟
纯白
纯真
纯种
纯粹
纯美
纯色
纱布
纱线
纲目
纲要
纲领
纳什
纳入
纳税
纳米
纳粹
纳西
纳闷
纵使
纵向
纵容
纵情
纵横
纵深
纵火
纵然
纵纹
纵观
纵贯
纵身
纵队
纵隔
纷乱
纷争
纷扰
纷繁
纷纷
纷飞
纸业
纸巾
纸币
纸张
纸本
纸条
纸杯
纸板
纸浆
纸片
纸牌
纸盒
纸箱
纸质
纸面
纹样
纹理
纹章
纹路
纹身
纹饰
纺纱
纺织
纽带
纽扣
纽曼
纽约
线下
线图
线圈
线形
线性
线材
线条
线段
线状
线索
线缆
线虫
线路
练习
练兵
练出
练功
练字
练就
练武
练级
组件
组分
组别
组合
组员
组团
组建
组成
组织
组网
组胺
组装
组长
组队
绅士
细丝
细分
细则
细化
细嫩
细密
细小
细弱
细微
细心
细看
细碎
细细
细胞
细腻
细致
细节
细菌
细说
细辛
细部
细长
细雨
织女
织布
织物
织田
织造
终了
终于
终审
终将
终年
终归
终成
终日
终极
终止
终点
终生
终究
终端
终结
终老
终身
绍兴
绍酒
经久
经书
经典
经办
经卷
经历
经受
经商
经堂
经委
经学
经常
经文
经期
经查
经济
经理
经由
经略
经管
经籍
经纪
经纬
经络
经脉
经营
经血
经贸
经费
经过
经销
经验
绑定
绑架
绒毛
结下
结业
结为
结交
结伴
结余
结冰
结出
结合
结婚
结实
结对
结尾
结局
结成
结扎
结晶
结束
结构
结果
结核
结案
结汇
结清
结点
结盟
结石
结算
结缘
结肠
结膜
结节
结论
结识
结语
结账
结转
结集
结题
绕城
绕组
绕行
绕过
绕道
绘制
绘图
绘画
给与
给予
给付
给出
给定
给水
给钱
绚丽
绚烂
绝不
绝世
绝代
绝伦
绝佳
绝句
绝命
绝唱
绝地
绝境
绝壁
绝妙
绝学
绝密
绝对
绝情
绝技
绝招
绝无
绝望
绝杀
绝活
绝热
绝版
绝症
绝经
绝缘
绝色
绝迹
绝非
绝顶
统一
统制
统合
统帅
统战
统招
统治
统率
统称
统筹
统统
统编
统考
统计
统领
绣球
绣花
继之
继任
继位
继发
继承
继母
继父
继续
继而
绩效
绪论
续写
续建
续约
续编
续航
续集
绮丽
绯闻
绰号
绳子
绳索
维亚
维京
维修
维克
维利
维和
维奇
维尔
维度
维德
维护
维拉
维持
维斯
维新
维权
维特
维系
维维
绵延
绵绵
绵羊
绵长
绵阳
绷带
综合
综治
综艺
综述
绽放
绿化
绿卡
绿叶
绿地
绿城
绿树
绿水
绿洲
绿灯
绿色
绿茶
绿草
绿荫
绿豆
缅怀
缅甸
缆车
缉毒
缓冲
缓刑
缓和
缓存
缓慢
缓缓
缓解
缓释
缔约
缔结
缔造
编修
编入
编写
编制
编剧
编印
编发
编号
编委
编审
编导
编成
编报
编排
编撰
编曲
编目
编码
编程
编纂
编组
编织
编者
编著
编译
编辑
编选
编造
编队
缘于
缘份
缘分
缘故
缘由
缘起
缜密
缝制
缝合
缝纫
缝线
缝隙
缠绕
缠绵
缠身
缤纷
缥缈
缩写
缩减
缩小
缩影
缩放
缩水
缩短
缩量
缭绕
缴存
缴款
缴税
缴纳
缴获
缴费
缸体
缸内
缸盖
缺乏
缺位
缺刻
缺口
缺失
缺少
缺席
缺憾
缺损
缺氧
缺水
缺点
缺血
缺钙
缺钱
缺陷
罂粟
罐头
罐子
罐装
网上
网关
网卡
网友
网名
网吧
网址
网恋
网易
网校
网格
网民
网游
网点
网状
网球
网瘾
网站
网管
网箱
网纹
网线
网络
网罗
网路
网通
网速
网页
罕有
罕见
罗什
罗兰
罗列
罗刹
罗家
罗宾
罗山
罗布
罗拉
罗文
罗斯
罗杰
罗氏
罗汉
罗湖
罗盘
罗素
罗马
罚单
罚款
罚没
罚球
罚金
罢了
罢免
罢工
罩杯
罪人
罪名
罪恶
罪犯
罪行
罪过
置业
置于
置入
置换
置身
置顶
署名
署长
罹患
罹难
羁押
羁绊
羊城
羊毛
羊水
羊皮
羊绒
羊群
羊肉
羊角
羌族
美丽
美亚
美体
美元
美军
美分
美化
美协
美发
美名
美味
美国
美声
美女
美好
美妙
美孚
美学
美容
美展
美工
美式
美德
美感
美文
美方
美景
美术
美林
美梦
美洲
美满
美版
美玉
美甲
美的
美眉
美称
美籍
美美
美育
美腿
美色
美艳
美英
美观
美誉
美貌
美酒
美金
美院
美颜
美食
羔羊
羚羊
羞愧
羞涩
羞耻
羞辱
羟基
羡慕
群主
群众
群体
群发
群团
群居
群山
群岛
群峰
群星
群组
群臣
群英
群落
群雄
羧酸
羽化
羽毛
羽绒
羽翼
翅膀
翌年
翌日
翔实
翘楚
翠微
翠竹
翠绿
翡翠
翩翩
翰墨
翰林
翱翔
翻修
翻动
翻开
翻拍
翻新
翻滚
翻炒
翻版
翻番
翻盘
翻看
翻翻
翻脸
翻腾
翻译
翻越
翻身
翻车
翻转
翻过
翻阅
翼展
耀华
耀眼
老三
老乡
老二
老人
老伴
老公
老兵
老化
老区
老友
老君
老城
老外
老大
老天
老太
老夫
老头
老套
老妈
老娘
老婆
老子
老实
老家
老将
老少
老屋
老山
老师
老年
老庄
老店
老式
老张
老总
老手
老挝
老李
老板
老母
老汉
老爷
老爸
老爹
老牌
老牛
老王
老生
老祖
老窖
老翁
老者
老舍
老虎
老街
老话
老道
老马
老鹰
老鼠
老龄
考上
考入
考前
考务
考勤
考卷
考取
考古
考场
考官
考察
考拉
考据
考查
考核
考点
考生
考研
考究
考级
考虑
考证
考评
考试
考量
考题
考验
而且
而今
而后
而已
而是
而立
而言
而论
耐久
耐克
耐力
耐压
耐受
耐寒
耐心
耐性
耐旱
耐火
耐热
耐用
耐看
耐磨
耐药
耐酸
耒阳
耕作
耕地
耕种
耕耘
耗尽
耗时
耗材
耗电
耗能
耗费
耗资
耦合
耳光
耳塞
耳朵
耳机
耳环
耳目
耳聋
耳边
耳闻
耳鸣
耶稣
耶鲁
耸立
耻辱
耽误
耿直
聆听
聊城
聊天
聊斋
聊聊
职业
职位
职务
职员
职官
职工
职教
职数
职权
职校
职称
职级
职能
职责
职高
联产
联会
联保
联储
联军
联创
联办
联动
联华
联合
联名
联姻
联展
联想
联手
联接
联机
联用
联盟
联社
联系
联结
联络
联网
联考
联营
联袂
联谊
联赛
联运
联通
联邦
联队
联防
聘为
聘任
聘用
聘请
聚众
聚会
聚合
聚居
聚拢
聚散
聚焦
聚落
聚酯
聚集
聚餐
聪慧
聪明
聪颖
肃清
肃穆
肄业
肆意
肆虐
肇事
肇庆
肉丝
肉丸
肉体
肉末
肉松
肉桂
肉汤
肉片
肉牛
肉猪
肉瘤
肉眼
肉类
肉质
肉身
肉食
肉馅
肉鸡
肋骨
肌体
肌力
肌理
肌瘤
肌肉
肌肤
肌腱
肌酐
肖像
肖恩
肖邦
肚子
肚皮
肚脐
肛肠
肛门
肝气
肝火
肝炎
肝病
肝癌
肝素
肝肾
肝胆
肝脏
肠子
肠炎
肠胃
肠道
股东
股价
股份
股利
股市
股息
股指
股改
股数
股本
股权
股民
股灾
股票
股级
股长
股骨
肢体
肤浅
肤色
肥力
肥厚
肥大
肥料
肥水
肥沃
肥牛
肥瘦
肥皂
肥肉
肥肠
肥胖
肩上
肩带
肩膀
肩负
肩部
肮脏
肯定
育人
育儿
育成
育才
育种
育肥
育苗
育英
育龄
肺泡
肺炎
肺病
肺癌
肺部
肾气
肾炎
肾病
肾脏
肾虚
肿块
肿大
肿痛
肿瘤
肿胀
胁迫
胃口
胃液
胃炎
胃病
胃癌
胃肠
胃部
胃酸
胃镜
胆囊
胆大
胆子
胆小
胆怯
胆汁
胆碱
胆管
胆识
胆道
胆量
背上
背书
背光
背包
背叛
背后
背带
背影
背心
背景
背板
背着
背离
背诵
背负
背部
背靠
背面
背鳍
胎儿
胎动
胎教
胎盘
胎记
胖子
胚珠
胚胎
胜任
胜出
胜利
胜地
胜景
胜率
胜算
胜者
胜诉
胜负
胜过
胡乱
胡人
胡同
胡子
胡家
胡桃
胡椒
胡适
胡须
胫骨
胭脂
胰腺
胳膊
胶东
胶体
胶卷
胶原
胶囊
胶州
胶带
胶水
胶片
胶质
胸中
胸前
胸口
胸围
胸径
胸怀
胸痛
胸罩
胸肌
胸脯
胸腔
胸腹
胸膛
胸膜
胸襟
胸部
胸骨
胸鳍
能力
能动
能否
能够
能带
能干
能手
能效
能比
能源
能级
能耐
能耗
能量
脂类
脂肪
脆弱
脆性
脆皮
脉冲
脉动
脉搏
脉络
脊柱
脊梁
脊椎
脊髓
脏器
脏腑
脏话
脐带
脐橙
脑力
脑子
脑干
脑海
脑炎
脑病
脑瘫
脑筋
脑膜
脑袋
脑部
脓肿
脖子
脚下
脚印
脚垫
脚尖
脚底
脚掌
脚本
脚步
脚气
脚趾
脚跟
脚踏
脚踝
脚部
脱产
脱位
脱俗
脱出
脱发
脱垂
脱掉
脱模
脱毛
脱水
脱皮
脱硫
脱离
脱胎
脱脂
脱色
脱节
脱落
脱贫
脱身
脱钩
脱险
脸上
脸型
脸庞
脸红
脸色
脸蛋
脸谱
脸部
脸颊
脾气
脾胃
脾脏
脾虚
腊月
腊肉
腊肠
腋下
腋生
腌制
腌渍
腐乳
腐朽
腐烂
腐熟
腐竹
腐蚀
腐败
腔调
腕表
腥味
腮红
腰围
腰带
腰果
腰椎
腰部
腰酸
腰间
腹中
腹内
腹地
腹壁
腹水
腹泻
腹痛
腹肌
腹胀
腹腔
腹膜
腹足
腹部
腹面
腹鳍
腺体
腺毛
腺瘤
腻子
腼腆
腾冲
腾出
腾空
腾讯
腾飞
腾龙
腿脚
腿部
膀胱
膏药
膜拜
膜片
膝盖
膝部
膨大
膨胀
膳食
臀部
臀鳍
臃肿
臣子
臣服
臣民
自主
自习
自从
自传
自体
自保
自信
自修
自创
自制
自办
自动
自助
自卑
自卫
自发
自古
自嘲
自备
自大
自如
自学
自家
自导
自尊
自小
自尽
自居
自己
自已
自带
自幼
自序
自强
自律
自得
自性
自恋
自愈
自愿
自慰
自成
自我
自持
自控
自救
自旋
自有
自杀
自来
自查
自检
自此
自残
自治
自测
自然
自燃
自爆
自爱
自理
自用
自由
自白
自省
自知
自私
自称
自立
自筹
自给
自编
自考
自荐
自营
自行
自觉
自认
自诩
自豪
自负
自贡
自责
自费
自身
自转
自述
自选
自重
自闭
自首
自驾
臭味
臭氧
至上
至于
至亲
至今
至多
至宝
至尊
至少
至德
至极
至正
至此
至死
至爱
至诚
致仕
致以
致使
致力
致命
致密
致富
致敬
致歉
致死
致残
致电
致病
致癌
致谢
致辞
致远
舅舅
舆情
舆论
舌头
舌尖
舌苔
舍人
舍利
舍友
舍弃
舍得
舍身
舒展
舒张
舒心
舒服
舒淇
舒畅
舒缓
舒适
舞会
舞剧
舞动
舞厅
舞台
舞姿
舞弊
舞曲
舞步
舞狮
舞美
舞者
舞蹈
舟山
航向
航天
航展
航拍
航母
航海
航班
航程
航空
航线
航行
航路
航运
航速
航道
般地
般的
般若
舰只
舰炮
舰船
舰艇
舰载
舰长
舰队
舱内
舱门
船上
船体
船厂
船只
船员
船坞
船头
船用
船舶
船长
船闸
船队
良久
良乡
良人
良多
良好
良心
良性
良方
良机
良渚
良田
良知
良种
良药
艰巨
艰苦
艰辛
艰险
艰难
色块
色差
色带
色彩
色情
色散
色斑
色泽
色温
色狼
色相
色系
色素
色调
色谱
艳丽
艳遇
艺人
艺体
艺名
艺文
艺术
艺苑
艾伦
艾叶
艾灸
艾迪
节俭
节制
节前
节后
节奏
节庆
节度
节律
节拍
节操
节日
节气
节水
节油
节流
节点
节电
节目
节省
节约
节育
节能
节选
节间
节食
芋头
芍药
芒果
芙蓉
芜湖
芝麻
芡实
芥末
芥菜
芦笋
芦笙
芦花
芦苇
芦荟
芬兰
芬芳
芭蕉
芭蕾
芯片
花丛
花丝
花儿
花冠
花卉
花叶
花哨
花园
花坛
花型
花城
花季
花山
花序
花店
花式
花心
花掉
花旦
花期
花木
花朵
花果
花枝
花柱
花样
花梗
花椒
花海
花溪
花灯
花瓣
花瓶
花生
花痴
花盆
花盘
花篮
花粉
花絮
花纹
花色
花艺
花花
花茶
花草
花药
花莲
花萼
花蕊
花蕾
花被
花费
花边
花都
花钱
花销
花香
花鸟
花鼓
芳华
芳心
芳烃
芳草
芳香
芸豆
芹菜
芽孢
苋菜
苍凉
苍劲
苍天
苍山
苍术
苍生
苍白
苍穹
苍翠
苍老
苍苍
苍茫
苍蝇
苍龙
苏中
苏丹
苏军
苏北
苏区
苏南
苏宁
苏州
苏打
苏木
苏珊
苏秦
苏联
苏菲
苏轼
苏辙
苏醒
苔藓
苗圃
苗头
苗族
苗期
苗木
苗条
苗种
苛刻
苛求
苜蓿
苞片
苟且
若干
若想
若虫
若非
苦于
苦味
苦心
苦恼
苦战
苦涩
苦瓜
苦痛
苦笑
苦练
苦苦
苦读
苦闷
苦难
苯基
苯胺
苯酚
英亩
英伦
英俊
英军
英冠
英勇
英华
英国
英姿
英宗
英寸
英尺
英式
英德
英才
英文
英明
英杰
英汉
英法
英灵
英烈
英皇
英美
英语
英豪
英超
英里
英镑
英雄
苹果
茂名
茂密
茂盛
范例
范围
范式
范文
范本
范畴
范蠡
茄子
茅台
茅山
茅盾
茅草
茉莉
茎秆
茫然
茫茫
茭白
茯苓
茴香
茶业
茶具
茶农
茶几
茶匙
茶厂
茶叶
茶园
茶壶
茶室
茶山
茶杯
茶树
茶楼
茶水
茶汤
茶油
茶碗
茶艺
茶花
茶道
茶馆
茶香
茸毛
荀子
荆州
荆棘
荆芥
荆轲
荆门
草丛
草书
草原
草图
草地
草场
草坪
草堂
草帽
草拟
草木
草本
草果
草根
草案
草率
草甸
草皮
草稿
草草
草药
草莓
草菇
草酸
草鱼
荒凉
荒原
荒唐
荒地
荒山
荒岛
荒废
荒漠
荒芜
荒诞
荒谬
荒野
荔枝
荚果
荞麦
荟萃
荠菜
荡漾
荣光
荣华
荣幸
荣昌
荣登
荣立
荣耀
荣膺
荣获
荣誉
荣辱
荥阳
荧光
荧屏
荧幕
药业
药丸
药具
药典
药剂
药厂
药品
药学
药师
药店
药性
药房
药效
药方
药材
药水
药液
药片
药物
药王
药理
药用
药膏
药膳
药酒
药量
荷兰
荷包
荷叶
荷塘
荷花
荷载
荸荠
莅临
莆田
莉娅
莎拉
莒县
莫不
莫名
莫大
莫拉
莫测
莫言
莫非
莱克
莱卡
莱州
莱德
莱恩
莱斯
莱昂
莱特
莱纳
莱芜
莱茵
莱阳
莲塘
莲子
莲花
莲藕
莴笋
莴苣
获准
获利
获取
获奖
获得
获悉
获救
获益
获知
获胜
获评
获赠
获释
获颁
菊科
菊花
菌丝
菌株
菌种
菌类
菌落
菏泽
菖蒲
菜刀
菜单
菜叶
菜品
菜园
菜地
菜场
菜心
菜油
菜系
菜肴
菜花
菜谱
菜馆
菜鸟
菠菜
菠萝
菩提
菩萨
菱形
菱角
菲尔
萃取
萌动
萌发
萌生
萌芽
萍乡
萎缩
萎靡
萝卜
营业
营养
营利
营口
营地
营建
营房
营救
营盘
营运
营造
营销
营长
萦绕
萧县
萧山
萧条
萧瑟
萧红
萧萧
萨克
萨尔
萨拉
萨斯
萨特
萼片
落下
落伍
落入
落到
落叶
落后
落地
落实
落寞
落差
落幕
落得
落成
落户
落日
落款
落水
落泪
落空
落笔
落网
落脚
落花
落败
落选
落马
落魄
著书
著作
著名
著录
著称
著者
著述
葛优
葛根
葡萄
董事
董卓
董家
葫芦
葬礼
葱丝
葱头
葱白
葱花
葱茏
葱郁
葵花
蒂姆
蒂娜
蒂尔
蒂斯
蒙受
蒙古
蒙山
蒙牛
蒙特
蒙自
蒙蔽
蒙面
蒜头
蒜末
蒜泥
蒜瓣
蒜苗
蒴果
蒸发
蒸气
蒸汽
蒸煮
蒸笼
蒸锅
蒸馏
蓄力
蓄意
蓄水
蓄积
蓝光
蓝图
蓝天
蓝字
蓝本
蓝海
蓝牙
蓝田
蓝筹
蓝色
蓝莓
蓝调
蓝领
蓟县
蓬勃
蓬松
蓬莱
蔑视
蔓延
蔗糖
蔚蓝
蔬果
蔬菜
蔷薇
蕃茄
蕴含
蕴涵
蕴藏
薄壁
薄层
薄弱
薄板
薄片
薄膜
薄荷
薏仁
薏米
薪水
薪资
薪酬
薪金
薯条
薯片
薯类
藏书
藏区
藏匿
藏品
藏家
藏文
藏族
藏有
藏语
藏身
藤原
藤本
藤蔓
藻类
藿香
蘑菇
虎口
虎头
虎山
虎皮
虎门
虐待
虔诚
虚伪
虚假
虚劳
虚妄
虚实
虚寒
虚幻
虚弱
虚心
虚报
虚拟
虚无
虚构
虚空
虚荣
虫卵
虫子
虫害
虫草
虹桥
虹膜
虽然
虽说
虾仁
虾皮
虾米
蚂蚁
蚊子
蚊帐
蚊虫
蚌埠
蚕丝
蚕桑
蚕豆
蚕食
蚜虫
蚝油
蚩尤
蚯蚓
蛀牙
蛇口
蛊惑
蛋壳
蛋液
蛋清
蛋白
蛋类
蛋糕
蛋蛋
蛋鸡
蛋黄
蛔虫
蛟龙
蛤蜊
蛤蟆
蛮荒
蛰伏
蜀国
蜀山
蜀汉
蜂巢
蜂窝
蜂胶
蜂蜜
蜈蚣
蜕变
蜗牛
蜘蛛
蜚声
蜜月
蜜枣
蜜汁
蜜糖
蜜蜂
蜜饯
蜡烛
蜥蜴
蜻蜓
蜿蜒
蝉联
蝌蚪
蝎子
蝗虫
蝙蝠
蝴蝶
蝶阀
螃蟹
融于
融入
融化
融合
融汇
融洽
融资
融通
螳螂
螺丝
螺旋
螺杆
螺栓
螺母
螺纹
螺蛳
螺钉
蟋蟀
蟑螂
蟒蛇
蟠龙
蟹肉
蟹黄
蟾蜍
蠕动
蠕虫
血压
血型
血尿
血性
血战
血族
血栓
血案
血气
血水
血泪
血流
血浆
血液
血清
血症
血瘀
血站
血管
血糖
血红
血统
血缘
血肉
血肿
血脂
血脉
血腥
血色
血虚
血迹
行业
行为
行书
行事
行人
行会
行使
行内
行军
行凶
行列
行动
行医
行善
行囊
行宫
行家
行当
行径
行情
行政
行文
行星
行李
行款
行气
行省
行礼
行程
行经
行署
行者
行至
行草
行营
行规
行货
行贿
行走
行距
行路
行踪
行车
行进
行销
行长
行风
行驶
衍射
衍生
衔接
街上
街区
街口
街坊
街头
街巷
街市
街景
街机
街舞
街边
街道
衙门
衡山
衡水
衡量
衡阳
衢州
衣冠
衣服
衣架
衣柜
衣橱
衣物
衣着
衣衫
衣袖
衣裳
衣领
衣食
补丁
补习
补交
补偿
补充
补办
补助
补发
补品
补强
补救
补正
补气
补水
补益
补给
补缴
补缺
补肾
补血
补课
补贴
补足
补选
补钙
补齐
表决
表单
表哥
表壳
表妹
表姐
表层
表带
表弟
表彰
表征
表态
表情
表扬
表明
表格
表演
表率
表现
表白
表皮
表盘
表示
表象
表达
表述
表里
表露
表面
衬托
衬衣
衬衫
衰减
衰变
衰弱
衰竭
衰老
衰落
衰败
衰退
衷心
袁绍
袅袅
袈裟
袋子
袋装
袋鼠
袖口
袖子
袖珍
袜子
被俘
被判
被动
被叫
被告
被困
被套
被子
被害
被扣
被捕
被控
被盗
被窝
被褥
被评
被贬
被迫
袭击
裁决
裁判
裁剪
裁员
裁定
裁缝
裂变
裂开
裂片
裂痕
裂纹
裂缝
裂解
裂隙
装作
装修
装入
装卸
装填
装备
装帧
装扮
装有
装机
装束
装满
装潢
装点
装甲
装盘
装箱
装置
装药
装裱
装订
装设
装车
装载
装运
装配
装饰
裙子
裙摆
裤子
裨益
裸体
裸露
褐色
褒奖
褒扬
褪去
褪色
褶皱
襄樊
襄阳
西临
西乡
西亚
西京
西侧
西关
西北
西区
西医
西华
西单
西南
西口
西周
西园
西城
西域
西塘
西夏
西天
西奥
西宁
西安
西尔
西山
西岸
西川
西平
西式
西征
西德
西拉
西斯
西方
西施
西昌
西晋
西服
西村
西林
西欧
西段
西汉
西江
西沙
西河
西洋
西海
西游
西湖
西溪
西点
西瓜
西甲
西站
西端
西线
西苑
西药
西藏
西行
西街
西装
西贡
西路
西边
西郊
西部
西里
西门
西非
西面
西风
西餐
西魏
要么
要义
要件
要冲
要务
要命
要塞
要害
要强
要挟
要数
要是
要死
要求
要点
要素
要紧
要约
要职
要诀
要说
要钱
要闻
要领
覆灭
覆盖
见习
见于
见到
见效
见方
见状
见解
见证
见识
见谅
见长
见闻
见面
观众
观光
观察
观影
观念
观感
观摩
观景
观望
观测
观澜
观点
观照
观看
观者
观赏
观音
规划
规则
规定
规律
规整
规格
规模
规矩
规程
规章
规约
规范
规费
规避
觅食
视为
视作
视力
视同
视听
视图
视域
视察
视点
视界
视窗
视线
视网
视觉
视角
视讯
视野
视频
觉察
觉得
觉悟
觉着
觉醒
觊觎
角化
角度
角球
角膜
角色
角落
角质
角逐
解体
解决
解冻
解剖
解压
解困
解围
解套
解密
解开
解惑
解放
解救
解散
解构
解析
解毒
解法
解渴
解热
解码
解禁
解答
解约
解聘
解脱
解药
解说
解读
解释
解除
解雇
解题
触动
触及
触发
触手
触摸
触点
触犯
触电
触觉
触角
言情
言行
言论
言语
言说
言谈
言辞
誉为
誓死
誓言
警力
警务
警卫
警句
警告
警员
警备
警官
警察
警惕
警戒
警报
警方
警用
警示
警觉
警车
警醒
警长
譬如
计价
计入
计分
计划
计委
计征
计息
计提
计数
计时
计生
计票
计税
计算
计谋
计费
计较
计量
订做
订制
订单
订婚
订座
订票
订立
订货
订购
订阅
订餐
认为
认准
认出
认可
认同
认定
认得
认清
认真
认知
认罪
认证
认识
认购
认输
认错
认领
讥讽
讨伐
讨厌
讨好
讨论
让利
让座
让步
让给
训导
训斥
训练
议事
议价
议会
议员
议和
议定
议席
议案
议程
议论
议长
议题
讯号
讯息
讯问
记下
记事
记住
记入
记分
记叙
记号
记名
记录
记得
记忆
记者
记账
记载
记述
记错
讲义
讲台
讲坛
讲堂
讲学
讲师
讲座
讲授
讲求
讲演
讲究
讲经
讲解
讲讲
讲话
讲课
讲述
讴歌
许下
许久
许可
许多
许家
许愿
许昌
许诺
论丛
论及
论坛
论战
论据
论文
论断
论点
论者
论著
论证
论语
论调
论述
论集
论题
讽刺
设区
设在
设备
设定
设想
设施
设有
设法
设立
设置
设色
设计
设防
访华
访客
访谈
访问
诀窍
证书
证人
证件
证券
证实
证据
证明
证照
证监
证言
评为
评书
评介
评价
评优
评传
评估
评出
评分
评判
评剧
评奖
评委
评定
评审
评析
评比
评测
评点
评级
评聘
评议
评论
评语
评说
评述
评选
诅咒
识别
识字
识破
识读
诈骗
诉求
诉苦
诉讼
诉说
诉诸
诊所
诊断
诊治
诊疗
诋毁
词义
词人
词典
词句
词性
词曲
词条
词根
词汇
词源
词目
词组
词话
词语
诏书
诏令
译丛
译作
译名
译成
译文
译本
译者
译著
试制
试剂
试卷
试听
试图
试想
试探
试样
试点
试炼
试用
试管
试纸
试行
试论
试试
试车
试问
试题
试飞
试验
诗书
诗云
诗人
诗作
诗刊
诗句
诗坛
诗学
诗意
诗文
诗歌
诗社
诗篇
诗经
诗词
诗话
诗选
诗集
诙谐
诚信
诚实
诚心
诚恳
诚意
诚挚
诚然
诚邀
诛杀
话剧
话机
话筒
话语
话费
话音
话题
诞生
诞辰
诟病
诠释
诡异
诡计
询价
询问
该书
该会
该党
该刊
该剧
该区
该厂
该县
该品
该团
该国
该地
该城
该处
该寺
该局
该州
该市
该店
该所
该报
该文
该是
该机
该村
该条
该校
该案
该款
该死
该片
该病
该省
该社
该种
该站
该类
该药
该行
该车
该部
该镇
该队
该院
该项
该馆
详实
详尽
详情
详细
详见
详解
详述
诧异
诬陷
语义
语句
语境
语录
语感
语文
语族
语气
语法
语用
语种
语系
语言
语调
语速
语音
误会
误伤
误入
误区
误导
误差
误解
误诊
误读
误食
诱人
诱发
诱因
诱导
诱惑
诱饵
诱骗
说书
说出
说唱
说好
说完
说教
说明
说服
说来
说法
说理
说话
说谎
说起
说辞
说道
说错
诵经
诵读
请假
请勿
请客
请愿
请教
请来
请求
请示
请问
诸位
诸侯
诸君
诸国
诸城
诸多
诸天
诸如
诸子
诸暨
诸法
诸生
诸葛
诺亚
诺夫
诺尔
诺德
诺斯
诺曼
诺言
读书
读写
读出
读取
读后
读完
读数
读本
读物
读研
读经
读者
读读
读音
诽谤
课件
课余
课后
课堂
课外
课文
课时
课本
课程
课间
课题
谁家
谁知
调价
调任
调低
调侃
调入
调养
调出
调制
调剂
调动
调匀
调压
调取
调味
调和
调回
调处
调子
调度
调式
调性
调戏
调拨
调换
调控
调教
调整
调料
调查
调水
调理
调用
调皮
调研
调离
调经
调色
调节
调解
调试
调运
调适
调速
调配
调集
调频
谅解
谈判
谈到
谈及
谈吐
谈心
谈笑
谈论
谈话
谈谈
谈起
谋划
谋反
谋取
谋士
谋杀
谋求
谋生
谋略
谎称
谎言
谐振
谐波
谐音
谓语
谚语
谜团
谜底
谜语
谜题
谢家
谢意
谢绝
谢谢
谣言
谥号
谦卑
谦和
谦虚
谦让
谦逊
谨慎
谨防
谩骂
谬误
谱写
谱曲
谱系
谴责
谷地
谷子
谷底
谷物
谷类
豁免
豁达
豆子
豆沙
豆油
豆浆
豆瓣
豆科
豆类
豆粕
豆腐
豆花
豆芽
豆角
豆豆
豆豉
豇豆
豌豆
象山
象形
象征
象是
象棋
象牙
象限
豪华
豪宅
豪强
豪情
豪放
豪斯
豪杰
豪气
豪爽
豪迈
豪门
豫剧
豫州
豫章
豹子
貂蝉
貌似
貔貅
贝克
贝勒
贝壳
贝宁
贝尔
贝拉
贝斯
贝格
贝母
贝特
贝类
贝里
贞元
贞观
负于
负伤
负债
负值
负压
负担
负数
负有
负极
负荷
负责
负载
负重
负面
贡品
贡献
贡生
财主
财产
财会
财力
财务
财团
财宝
财富
财年
财政
财源
财物
财神
财税
财经
财贸
财运
财险
责令
责任
责备
责怪
责成
责编
责骂
贤人
贤惠
贤者
贤良
败北
败坏
败给
账务
账单
账号
账户
账款
账目
账簿
账面
货主
货品
货币
货架
货款
货源
货物
货船
货车
货运
质优
质保
质变
质地
质子
质感
质押
质朴
质检
质点
质疑
质监
质素
质询
质谱
质量
质问
贩卖
贩子
贩毒
贪吃
贪图
贪婪
贪官
贪心
贪欲
贪污
贪玩
贫乏
贫困
贫富
贫寒
贫民
贫瘠
贫穷
贫苦
贫血
贬义
贬低
贬值
购买
购入
购得
购房
购机
购物
购票
购置
购车
购进
购销
贮存
贮藏
贮运
贯彻
贯穿
贯通
贱人
贴切
贴合
贴图
贴子
贴心
贴息
贴片
贴现
贴着
贴身
贴近
贴面
贵人
贵在
贵妃
贵宾
贵州
贵族
贵贱
贵重
贵阳
贷款
贸易
贸然
费力
费劲
费城
费心
费时
费率
费用
贺卡
贺岁
贺龙
贿赂
赃款
资产
资信
资助
资历
资政
资料
资本
资格
资深
资源
资讯
资质
资费
资金
资阳
赈灾
赋予
赋税
赋诗
赌博
赌场
赌徒
赌气
赌注
赎回
赎罪
赏析
赏花
赏识
赏赐
赏金
赐予
赐教
赐给
赔付
赔偿
赔款
赔率
赔钱
赖以
赘肉
赘述
赚取
赚钱
赛事
赛会
赛制
赛前
赛区
赛后
赛场
赛季
赛尔
赛扬
赛段
赛特
赛程
赛艇
赛跑
赛车
赛道
赛马
赞助
赞叹
赞同
赞成
赞扬
赞歌
赞美
赞誉
赞许
赞赏
赞颂
赠与
赠予
赠品
赠送
赡养
赢利
赢取
赢家
赢得
赢球
赣南
赣州
赣江
赤壁
赤字
赤峰
赤水
赤脚
赤色
赤裸
赤道
赦免
赫兹
赫尔
赫拉
赫本
赫然
走上
走低
走入
走出
走动
走势
走向
走失
走廊
走开
走强
走时
走来
走神
走私
走红
走访
走走
走路
走过
走近
走进
走遍
走马
走高
赴任
赵云
赵国
赵家
赶上
赶到
赶回
赶往
赶忙
赶快
赶来
赶着
赶紧
赶走
赶赴
赶超
赶路
赶集
起义
起亚
起价
起伏
起兵
起初
起到
起动
起名
起因
起始
起家
起居
起床
起来
起止
起步
起泡
起源
起火
起点
起用
起病
起码
起立
起舞
起航
起色
起草
起落
起诉
起跑
起跳
起身
起重
起降
起飞
趁早
趁机
趁热
趁着
超乎
超人
超低
超值
超凡
超出
超前
超声
超大
超导
超市
超常
超强
超时
超标
超模
超然
超生
超级
超细
超群
超脱
超薄
超越
超车
超载
超过
超速
超重
超长
超限
超频
超额
超高
越位
越冬
越剧
越南
越发
越国
越战
越是
越狱
越界
越秀
越级
越过
越野
趋于
趋势
趋向
趣事
趣味
趣闻
足下
足以
足协
足坛
足够
足底
足球
足见
足足
足迹
足额
趴在
跃升
跃居
跃迁
跃进
跋涉
跌倒
跌入
跌势
跌宕
跌幅
跌破
跌落
跑动
跑步
跑车
跑道
跑鞋
跑题
跑马
距离
跟上
跟前
跟班
跟着
跟踪
跟进
跟随
跟风
跨入
跨区
跨国
跨境
跨度
跨越
跨过
跪下
跪拜
跪求
路上
路况
路北
路南
路口
路基
路子
路径
路德
路政
路旁
路易
路标
路桥
路段
路演
路灯
路由
路程
路线
路网
路西
路费
路边
路过
路透
路途
路面
跳伞
跳入
跳出
跳动
跳板
跳楼
跳槽
跳水
跳空
跳绳
跳舞
跳蚤
跳跃
跳转
跳进
跳远
跳高
践行
践踏
跻身
踊跃
踏上
踏入
踏出
踏实
踏板
踏进
踏遍
踏青
踢球
踩踏
踪影
踪迹
蹂躏
蹊跷
蹲下
躁动
身上
身下
身世
身为
身亡
身价
身份
身体
身兼
身分
身受
身后
身处
身姿
身子
身家
身形
身影
身心
身怀
身患
身手
身披
身故
身旁
身材
身段
身法
身着
身穿
身负
身躯
身边
身长
身陷
身高
躯体
躯干
躲开
躲藏
躲过
躲避
车上
车主
车位
车体
车况
车厂
车厢
车型
车头
车子
车尾
车展
车市
车床
车库
车手
车架
车次
车款
车流
车灯
车牌
车用
车票
车祸
车程
车窗
车站
车系
车船
车行
车费
车身
车轮
车载
车辆
车迷
车速
车道
车里
车长
车门
车间
车队
车顶
车马
车骑
轧制
轧机
轧辊
轨迹
轨道
轩辕
转世
转业
转为
转乘
转交
转任
转会
转入
转制
转动
转包
转化
转发
转变
转向
转回
转型
转增
转头
转子
转学
转弯
转录
转战
转手
转折
转换
转接
转播
转机
转正
转生
转用
转盘
转眼
转矩
转移
转给
转而
转职
转行
转角
转让
转诊
转账
转身
转轨
转转
转轮
转载
转过
转运
转送
转速
轮作
轮回
轮圈
轮子
轮廓
轮式
轮换
轮椅
轮毂
轮流
轮渡
轮滑
轮番
轮胎
轮船
轮距
轮转
软件
软体
软化
软弱
软性
软文
软盘
软硬
软禁
软管
软肋
软膏
软软
软银
软驱
软骨
轰击
轰动
轰炸
轰鸣
轴心
轴承
轴线
轴距
轶事
轻伤
轻便
轻信
轻型
轻声
轻工
轻巧
轻度
轻微
轻快
轻易
轻松
轻柔
轻浮
轻狂
轻生
轻盈
轻纺
轻薄
轻视
轻质
轻轨
轻轻
轻重
载人
载体
载入
载客
载明
载有
载波
载荷
载货
载重
轿车
较为
较之
较大
较差
较慢
较真
较量
辅以
辅佐
辅助
辅导
辅料
辅酶
辅音
辆车
辈出
辉映
辉煌
辍学
辐射
辐照
辑录
输入
输出
输水
输注
输液
输球
输电
输给
输血
输赢
输送
辖下
辖区
辗转
辛丑
辛亥
辛劳
辛勤
辛卯
辛未
辛格
辛苦
辛辣
辛酸
辜负
辞世
辞书
辞典
辞去
辞官
辞海
辞职
辞赋
辞退
辟谣
辟谷
辟邪
辣味
辣椒
辣酱
辨别
辨析
辨认
辨证
辨识
辩护
辩解
辩论
辩证
辫子
辱骂
边上
边区
边坡
边城
边塞
边境
边框
边沿
边界
边疆
边缘
边角
边路
边远
边锋
边长
边防
边际
边陲
辽东
辽代
辽宁
辽河
辽西
辽阔
辽阳
达产
达克
达利
达到
达姆
达尔
达州
达成
达拉
达摩
达斯
达标
迁入
迁出
迁回
迁址
迁就
迁居
迁建
迁往
迁徙
迁移
迁至
迁都
迂回
迄今
迅捷
迅猛
迅速
迅雷
过世
过于
过关
过冬
过分
过剩
过半
过去
过后
过境
过夜
过失
过头
过客
过年
过度
过往
过户
过敏
过早
过时
过期
过来
过桥
过河
过渡
过滤
过激
过火
过热
过瘾
过硬
过程
过筛
过节
过路
过载
过重
过量
过错
过长
过问
迈克
迈入
迈出
迈向
迈尔
迈进
迎合
迎娶
迎宾
迎战
迎接
迎春
迎来
迎面
迎风
运价
运作
运到
运力
运动
运势
运回
运城
运往
运气
运河
运球
运用
运程
运笔
运筹
运算
运营
运行
运费
运转
运载
运输
运送
运通
运量
运销
近世
近乎
近于
近亲
近代
近似
近况
近卫
近处
近年
近战
近日
近期
近来
近海
近视
近郊
返乡
返利
返回
返程
返还
还乡
还债
还击
还原
还好
还手
还是
还有
还款
还清
还给
还要
还贷
这个
这么
这些
这件
这份
这位
这儿
这回
这场
这块
这天
这家
这帮
这时
这本
这栋
这样
这根
这次
这点
这种
这笔
这般
这话
这辆
这边
这部
这里
这项
进京
进修
进入
进军
进出
进击
进化
进去
进发
进取
进口
进场
进城
进境
进士
进宫
进屋
进展
进山
进度
进攻
进料
进村
进来
进步
进气
进水
进深
进犯
进球
进程
进站
进而
进行
进补
进贡
进货
进退
进门
进食
进餐
进驻
远东
远去
远古
远处
远大
远射
远山
远征
远志
远方
远景
远望
远期
远洋
远眺
远离
远程
远航
远行
远见
远走
远近
远远
远销
违反
违法
违章
违约
违纪
违者
违背
违规
连任
连体
连击
连发
连同
连城
连夜
连天
连带
连年
连忙
连成
连接
连日
连杆
连江
连片
连环
连珠
连用
连累
连线
连结
连续
连绵
连翘
连胜
连读
连败
连贯
连载
连连
连通
连锁
连长
连队
连阳
迟到
迟早
迟疑
迟缓
迟迟
迟钝
迥异
迪伦
迪克
迪奥
迪拜
迫于
迫使
迫切
迫害
迭代
述职
述评
述说
迷人
迷你
迷信
迷失
迷宫
迷幻
迷彩
迷恋
迷惑
迷惘
迷离
迷糊
迷茫
迷路
迷途
迷雾
迸发
迹象
追偿
追击
追加
追回
追寻
追尾
追忆
追捕
追捧
追施
追星
追杀
追查
追求
追溯
追究
追索
追缴
追肥
追认
追赠
追赶
追踪
追逐
追问
追随
追风
退伍
退休
退位
退出
退化
退却
退去
退回
退场
退学
退守
退居
退市
退役
退房
退款
退步
退火
退热
退票
退税
退缩
退职
退让
退货
退路
退还
退隐
送交
送入
送别
送到
送回
送往
送来
送检
送礼
送给
送行
送货
送走
送达
送风
适中
适于
适口
适合
适宜
适应
适度
适当
适时
适用
适逢
适配
适量
适龄
逃亡
逃出
逃命
逃往
逃犯
逃生
逃离
逃窜
逃脱
逃课
逃走
逃跑
逃逸
逃避
逃难
逆势
逆向
逆境
逆流
逆行
逆转
逆风
选中
选举
选人
选任
选修
选入
选出
选刊
选区
选取
选址
选型
选定
选录
选手
选拔
选择
选料
选本
选材
选民
选派
选用
选矿
选票
选秀
选编
选美
选聘
选育
选装
选读
选课
选调
选购
选送
选配
选集
选项
选题
逊色
逍遥
透亮
透光
透出
透射
透彻
透支
透明
透析
透气
透视
透过
透镜
透露
逐一
逐个
逐出
逐层
逐年
逐日
逐条
逐步
逐渐
逐级
逐项
递交
递减
递增
递延
递给
递补
递进
途中
途径
途经
逗留
通体
通便
通俗
通信
通关
通则
通判
通化
通史
通向
通告
通商
通天
通婚
通宝
通宵
通州
通常
通往
通志
通报
通晓
通气
通水
通用
通电
通畅
通病
通直
通知
通称
通篇
通红
通络
通缉
通缩
通胀
通航
通行
通讯
通论
通话
通读
通路
通车
通辽
通达
通过
通透
通通
通道
通风
通高
逛街
逛逛
逝世
逝去
逝者
速写
速冻
速度
速成
速效
速查
速滑
速率
速生
速记
速递
造价
造作
造假
造像
造势
造化
造反
造句
造型
造就
造影
造成
造景
造林
造物
造福
造纸
造船
造血
造访
造诣
造谣
逮捕
逶迤
逻辑
逼人
逼婚
逼真
逼近
逼迫
逾期
逾越
遂宁
遇上
遇事
遇到
遇害
遇见
遇险
遇难
遍及
遍地
遍布
遏制
遐想
遒劲
道义
道人
道光
道具
道口
道场
道士
道奇
道家
道德
道教
道旁
道术
道歉
道理
道菜
道行
道观
道路
道长
遗书
遗产
遗传
遗体
遗嘱
遗址
遗失
遗存
遗弃
遗忘
遗愿
遗憾
遗漏
遗物
遗留
遗精
遗落
遗言
遗迹
遗风
遗骸
遣使
遣返
遥感
遥控
遥望
遥测
遥远
遨游
遭到
遭受
遭遇
遮住
遮光
遮挡
遮掩
遮盖
遮荫
遮蔽
遮阳
遴选
遵义
遵从
遵守
遵循
遵照
避光
避免
避孕
避开
避暑
避税
避让
避讳
避险
避难
避风
邀约
邀请
邂逅
邋遢
邓肯
邢台
那个
那么
那些
那位
那儿
那双
那场
那天
那年
那时
那晚
那条
那样
那次
那段
那种
那般
那边
那里
邦德
邪恶
邪教
邪气
邪神
邮件
邮寄
邮局
邮报
邮政
邮电
邮票
邮箱
邮编
邮轮
邮递
邯郸
邵阳
邻国
邻家
邻居
邻村
邻近
邻里
郁郁
郁闷
郊区
郊外
郊游
郊野
郎中
郑和
郑家
郑州
郑重
郡主
郡县
郡守
郡王
部下
部件
部份
部位
部分
部副
部委
部将
部属
部族
部级
部署
部落
部长
部门
部队
部首
郫县
郴州
都城
都尉
都市
都灵
都督
都统
都行
鄂州
鄙人
鄙夷
鄙视
鄞县
酉阳
酋长
酌情
配乐
配件
配伍
配位
配偶
配制
配发
配合
配售
配图
配备
配套
配对
配属
配戴
配料
配方
配有
配比
配用
配电
配种
配置
配股
配色
配菜
配角
配送
配音
配额
配饰
酒业
酒会
酒厂
酒后
酒吧
酒家
酒席
酒店
酒杯
酒楼
酒水
酒泉
酒瓶
酒窖
酒类
酒精
酒醉
酒量
酒馆
酒香
酒鬼
酗酒
酝酿
酥脆
酰胺
酱料
酱汁
酱油
酱香
酵母
酵素
酷似
酷刑
酷暑
酷热
酷爱
酸化
酸味
酸奶
酸度
酸性
酸洗
酸甜
酸痛
酸碱
酸菜
酸软
酸钠
酿制
酿成
酿造
酿酒
醇厚
醇香
醉人
醉酒
醋酸
醒悟
醒来
醒目
醒酒
醴陵
采伐
采光
采写
采取
采掘
采摘
采收
采暖
采样
采油
采煤
采用
采石
采矿
采纳
采编
采茶
采药
采血
采访
采购
采集
采风
采食
釉色
釉面
释义
释怀
释放
释文
释然
释迦
里克
里加
里头
里奇
里奥
里尔
里尼
里德
里拉
里斯
里昂
里根
里程
里脊
里边
里面
重于
重仓
重任
重伤
重修
重兵
重写
重击
重创
重力
重压
重叠
重合
重启
重回
重型
重塑
重复
重大
重工
重庆
重度
重建
重开
重心
重担
重拳
重拾
重振
重播
重整
重新
重构
重檐
重温
重演
重点
重物
重现
重生
重用
重申
重病
重症
重磅
重组
重置
重者
重臣
重获
重装
重要
重视
重读
重载
重返
重逢
重重
重量
重金
重镇
重阳
野人
野兔
野兽
野史
野外
野心
野性
野战
野牛
野猪
野猫
野生
野花
野草
野菜
野蛮
野餐
野马
野鸡
野鸭
量刑
量化
量变
量子
量度
量程
量级
金丝
金丹
金主
金代
金价
金元
金光
金兵
金刚
金华
金发
金国
金城
金奖
金子
金字
金家
金属
金山
金川
金州
金币
金库
金庸
金文
金星
金曲
金条
金杯
金榜
金毛
金水
金沙
金泰
金海
金源
金牌
金牛
金玉
金盾
金石
金矿
金砖
金秋
金科
金箔
金线
金色
金花
金莲
金蝶
金融
金边
金钟
金钱
金银
金门
金陵
金顶
金额
金马
金鱼
金鸡
金黄
釜山
鉴于
鉴别
鉴定
鉴证
鉴赏
鎏金
鏖战
针刺
针叶
针头
针对
针法
针灸
针状
针织
钉子
钓鱼
钙化
钙质
钝化
钞票
钟声
钟山
钟情
钟楼
钟爱
钟离
钟表
钟馗
钠盐
钢丝
钢制
钢厂
钢材
钢板
钢琴
钢笔
钢筋
钢管
钢轨
钢铁
钥匙
钦佩
钦定
钦州
钱包
钱塘
钱币
钱庄
钱财
钳工
钻井
钻头
钻孔
钻戒
钻探
钻机
钻石
钻研
钻进
钾肥
铁丝
铁人
铁军
铁匠
铁器
铁塔
铁岭
铁杆
铁板
铁甲
铁皮
铁矿
铁线
铁血
铁质
铁路
铁轨
铁道
铁链
铁锅
铁锈
铁门
铁骑
铂金
铃声
铃木
铃铛
铅笔
铆钉
铜仁
铜像
铜器
铜奖
铜板
铜牌
铜矿
铜管
铜质
铜钱
铜镜
铜陵
铜鼓
铝业
铝制
铝材
铝板
铝箔
铠甲
铣床
铭刻
铭文
铭记
铰链
铲子
铲除
银两
银元
银发
银奖
银子
银川
银币
银幕
银座
银杏
银河
银牌
银耳
银联
银色
银行
银鱼
铸件
铸就
铸币
铸成
铸造
铸铁
铺上
铺垫
铺子
铺开
铺设
铺路
铺陈
链子
链接
链条
链路
铿锵
销售
销往
销毁
销路
销量
销魂
锁住
锁孔
锁定
锁紧
锁链
锁骨
锂电
锅底
锅炉
锅盖
锈蚀
锋利
锋芒
锐减
锐利
锐意
错乱
错位
错失
错落
错觉
错误
错过
错题
锡纸
锡金
锣鼓
锤子
锤炼
锥形
锦囊
锦屏
锦州
锦旗
锦标
锦江
锦绣
键盘
锯齿
锻件
锻压
锻炼
锻造
镀层
镀膜
镀金
镀铬
镀锌
镂空
镇上
镇内
镇区
镇南
镇压
镇守
镇定
镇江
镇海
镇痛
镇级
镇西
镇长
镇静
镌刻
镖局
镜像
镜头
镜子
镜片
镜面
镭射
镰刀
镶嵌
长久
长乐
长于
长信
长假
长兴
长剑
长势
长卷
长发
长史
长城
长处
长夜
长大
长女
长子
长孙
长宁
长安
长官
长宽
长寿
长尾
长山
长岛
长崎
长年
长庆
长度
长廊
长征
长成
长效
长文
长春
长期
长条
长枪
长毛
长汀
长江
长沙
长河
长治
长流
长满
长生
长白
长相
长眠
长矛
长短
长石
长空
长笛
长篇
长线
长老
长者
长虹
长袍
长袖
长裙
长裤
长诗
长足
长跑
长轴
长辈
长远
长途
长长
长门
长阳
长青
长风
长龙
门上
门下
门人
门内
门前
门卫
门厅
门口
门外
门将
门市
门店
门徒
门户
门板
门框
门楼
门槛
门洞
门派
门神
门票
门禁
门窗
门类
门诊
门路
门道
门锁
门面
闪亮
闪光
闪存
闪点
闪烁
闪现
闪电
闪耀
闪过
闪避
闪闪
闭会
闭关
闭口
闭合
闭嘴
闭塞
闭幕
闭环
闭眼
闭经
闭锁
闭门
问世
问候
问卷
问及
问号
问答
问诊
问询
问起
问道
问问
问题
问鼎
闯入
闯关
闯荡
闯进
闲居
闲散
闲暇
闲着
闲置
闲聊
闲话
闲适
闲逛
间或
间接
间断
间歇
间谍
间距
间隔
间隙
闷热
闸门
闸阀
闹事
闹剧
闹市
闹钟
闺女
闻到
闻名
闻讯
闽东
闽侯
闽北
闽南
闽江
闽西
阀体
阀门
阁下
阁楼
阅兵
阅卷
阅历
阅览
阅读
阆中
阈值
阉割
阎王
阐发
阐明
阐述
阐释
阔叶
阜新
阜阳
队伍
队内
队列
队友
队员
队形
队里
队长
阡陌
防伪
防务
防卫
防备
防守
防寒
防尘
防弹
防御
防护
防控
防撞
防晒
防止
防水
防汛
防治
防洪
防渗
防滑
防潮
防火
防灾
防爆
防疫
防病
防癌
防盗
防空
防线
防腐
防范
防虫
防身
防锈
防雷
防震
防霉
防风
阳光
阳关
阳刚
阳历
阳台
阳城
阳山
阳性
阳新
阳明
阳春
阳朔
阳极
阳气
阳江
阳泉
阳痿
阳线
阳虚
阴冷
阴凉
阴刻
阴历
阴囊
阴天
阴影
阴性
阴暗
阴极
阴气
阴沉
阴湿
阴线
阴茎
阴虚
阴谋
阴道
阴部
阴间
阴阳
阴险
阴雨
阴霾
阵亡
阵列
阵地
阵型
阵子
阵容
阵法
阵痛
阵线
阵营
阵阵
阵雨
阵风
阶层
阶梯
阶段
阶级
阻击
阻力
阻塞
阻尼
阻截
阻抗
阻拦
阻挠
阻挡
阻断
阻止
阻滞
阻燃
阻碍
阻隔
阿什
阿伦
阿克
阿兰
阿卡
阿哥
阿姨
阿巴
阿德
阿拉
阿斯
阿曼
阿特
阿瑟
阿瓦
阿米
阿胶
阿訇
阿里
陀螺
附上
附中
附件
附体
附则
附加
附和
附图
附子
附小
附属
附带
附录
附有
附注
附着
附表
附设
附赠
附身
附近
附送
附院
际遇
陆上
陆军
陆地
陆川
陆游
陆生
陆续
陆羽
陆路
陇南
陇西
陈云
陈列
陈家
陈年
陈旧
陈毅
陈设
陈述
陋习
陌上
陌生
陌路
降下
降临
降价
降低
降到
降压
降噪
降幅
降息
降服
降水
降温
降生
降级
降落
降解
降雨
降雪
限于
限价
限值
限制
限定
限度
限时
限期
限速
限量
限额
陕北
陕南
陕甘
陕西
陛下
陡坡
陡峭
院中
院内
院士
院子
院校
院系
院级
院落
院里
院长
除了
除以
除去
除名
除夕
除外
除尘
除掉
除湿
除臭
除草
除非
陨石
陨落
险些
险境
险峻
险恶
险情
险种
险要
陪伴
陪同
陪葬
陵园
陵墓
陶冶
陶器
陶片
陶瓷
陶艺
陶醉
陷于
陷入
陷害
陷落
陷阱
隆庆
隆胸
隆起
隆重
隋书
隋代
隋唐
隋朝
随之
随书
随从
随便
随军
随即
随口
随同
随后
随和
随地
随处
随州
随心
随意
随手
随时
随机
随着
随笔
随行
随访
随身
随风
隐匿
隐含
隐喻
隐士
隐居
隐形
隐忍
隐性
隐患
隐晦
隐瞒
隐私
隐秘
隐约
隐蔽
隐藏
隐身
隐隐
隔墙
隔壁
隔夜
隔天
隔开
隔断
隔日
隔板
隔热
隔离
隔绝
隔膜
隔阂
隔音
障碍
隧洞
隧道
隶书
隶属
隽永
难事
难于
难产
难以
难免
难关
难受
难吃
难听
难堪
难处
难度
难得
难忍
难忘
难怪
难懂
难易
难民
难点
难熬
难看
难耐
难解
难过
难逃
难道
难题
雀斑
雄伟
雄厚
雄壮
雄奇
雄心
雄性
雄浑
雄狮
雄花
雄蕊
雄踞
雄风
雄鱼
雄鸟
雄鹰
雅克
雅典
雅各
雅安
雅思
雅致
雅虎
雅阁
集中
集会
集体
集合
集团
集市
集成
集散
集权
集约
集结
集美
集群
集聚
集训
集贤
集资
集邮
集锦
集镇
集韵
雇主
雇佣
雇员
雇用
雌性
雌花
雌蕊
雌雄
雍州
雍正
雏形
雏鸟
雕像
雕刻
雕塑
雕琢
雕花
雕饰
雨伞
雨夜
雨天
雨季
雨林
雨果
雨水
雨润
雨淋
雨滴
雨花
雨衣
雨量
雨雪
雨露
雪人
雪儿
雪地
雪域
雪山
雪峰
雪崩
雪景
雪松
雪梨
雪球
雪白
雪糕
雪花
雪茄
雪莲
零下
零件
零售
零散
零时
零星
零点
零碎
零落
零钱
零陵
零零
零食
雷公
雷击
雷区
雷同
雷声
雷州
雷德
雷恩
雷曼
雷电
雷诺
雷达
雷锋
雷雨
雷霆
雷鸣
雾化
雾气
雾灯
需求
需用
需要
震中
震动
震惊
震慑
震撼
震源
震荡
震颤
霉变
霉素
霉菌
霍乱
霍克
霍尔
霍山
霍金
霓虹
霓裳
霜冻
霜降
霞光
露出
露台
露地
露天
露水
露营
露西
露露
露面
霸业
霸主
霸占
霸权
霸气
霸王
霸道
霹雳
青丝
青云
青城
青天
青山
青岛
青峰
青州
青年
青春
青木
青松
青梅
青椒
青楼
青浦
青海
青涩
青瓷
青睐
青石
青砖
青稞
青绿
青翠
青联
青色
青花
青苔
青草
青莲
青菜
青葱
青蒜
青蛙
青衣
青豆
青铜
青阳
青青
青鸟
青龙
靓丽
靖江
静坐
静安
静心
静态
静止
静物
静电
静脉
静谧
静静
静音
静默
非人
非但
非典
非农
非凡
非常
非得
非法
非洲
非议
靠山
靠拢
靠着
靠背
靠近
面上
面世
面临
面值
面具
面前
面包
面向
面团
面子
面孔
面容
面对
面层
面授
面料
面朝
面条
面板
面点
面片
面瘫
面皮
面目
面相
面积
面筋
面粉
面糊
面纱
面罩
面膜
面色
面试
面谈
面貌
面部
面霜
面颊
面额
面食
面饼
面馆
革命
革新
靴子
靶向
鞋业
鞋子
鞋帽
鞋底
鞋类
鞋面
鞍山
鞍钢
鞠躬
鞣酸
鞭子
鞭炮
鞭策
韦伯
韦德
韧带
韧性
韩信
韩国
韩城
韩家
韩愈
韩文
韩语
韭菜
音乐
音像
音响
音域
音律
音效
音标
音符
音箱
音色
音节
音讯
音译
音调
音质
音量
音阶
音韵
音频
音高
韵味
韵律
韵母
韶关
韶山
页岩
页数
页码
页面
顶上
顶住
顶多
顶尖
顶层
顶峰
顶替
顶板
顶棚
顶楼
顶点
顶端
顶级
顶部
项目
项羽
项链
顺义
顺产
顺从
顺位
顺便
顺利
顺势
顺带
顺序
顺应
顺延
顺德
顺手
顺水
顺治
顺畅
顺眼
顺着
顺风
须根
须知
须臾
顽固
顽强
顽疾
顽皮
顾及
顾客
顾家
顾忌
顾虑
顾问
顿悟
顿时
颁发
颁奖
颁布
颂扬
颂歌
预习
预付
预估
预兆
预先
预制
预后
预告
预售
预备
预定
预审
预想
预感
预报
预料
预期
预案
预测
预热
预留
预知
预研
预示
预科
预算
预约
预置
预装
预见
预览
预言
预警
预计
预订
预设
预谋
预购
预赛
预选
预防
颅内
颅脑
颅骨
领主
领事
领会
领先
领兵
领养
领军
领到
领取
领口
领土
领地
领域
领头
领奖
领导
领带
领悟
领海
领略
领航
领衔
领袖
领证
领跑
领队
颇丰
颇为
颇具
颈椎
颈部
颌面
频出
频发
频次
频段
频率
频繁
频谱
频道
频频
颓废
颗粒
题为
题写
题名
题型
题字
题库
题材
题目
题解
题记
题词
题诗
题跋
颛顼
颜料
颜色
颜面
额外
额头
额定
额度
颠倒
颠簸
颠覆
颤动
颤抖
颧骨
风云
风俗
风光
风冷
风力
风化
风华
风口
风向
风吹
风味
风土
风声
风头
风姿
风寒
风尘
风尚
风帆
风干
风度
风情
风扇
风挡
风景
风暴
风月
风机
风格
风气
风水
风沙
风波
风洞
风流
风浪
风湿
风潮
风物
风电
风神
风筝
风管
风能
风范
风行
风衣
风貌
风趣
风车
风速
风采
风量
风铃
风险
风雅
风雨
风雪
风雷
风霜
风靡
风韵
风骚
风骨
飓风
飘扬
飘浮
飘渺
飘然
飘荡
飘落
飘逸
飘零
飘飘
飘香
飙升
飙车
飞云
飞刀
飞升
飞去
飞天
飞奔
飞弹
飞往
飞快
飞扬
飞机
飞来
飞檐
飞溅
飞瀑
飞碟
飞翔
飞舞
飞船
飞艇
飞花
飞行
飞越
飞跃
飞车
飞轮
飞过
飞速
飞镖
飞雪
飞马
飞驰
飞鱼
飞鸟
飞龙
食品
食堂
食客
食宿
食性
食指
食欲
食物
食用
食疗
食盐
食管
食者
食肉
食补
食谱
食道
食醋
食量
餐具
餐厅
餐桌
餐饮
餐馆
饕餮
饥渴
饥荒
饥饿
饭前
饭后
饭团
饭局
饭店
饭桌
饭碗
饭菜
饭馆
饮品
饮料
饮水
饮用
饮茶
饮酒
饮食
饰品
饰演
饰物
饰面
饱受
饱含
饱和
饱满
饱腹
饱览
饲养
饲喂
饲料
饵料
饺子
饼干
饿死
馄饨
馅饼
馆内
馆员
馆舍
馆藏
馆长
馈赠
馒头
首个
首付
首任
首位
首例
首先
首创
首发
首台
首场
首套
首家
首富
首尾
首届
首席
首府
首度
首座
首开
首张
首战
首批
首播
首支
首日
首映
首期
首条
首次
首款
首歌
首演
首相
首级
首脑
首要
首轮
首选
首部
首都
首钢
首长
首页
首领
首饰
香叶
香味
香型
香客
香山
香料
香椿
香槟
香樟
香气
香水
香江
香油
香浓
香港
香火
香炉
香烟
香甜
香皂
香精
香肠
香脆
香草
香菇
香菜
香葱
香蕉
香薰
香辣
香醇
香醋
马丁
马上
马克
马兰
马列
马刺
马力
马匹
马场
马头
马尾
马山
马拉
马术
马来
马桶
马甲
马祖
马苏
马虎
马赛
马赫
马超
马路
马蹄
马车
马达
马里
马鞍
马龙
驯养
驯化
驯服
驰名
驰骋
驱使
驱动
驱散
驱虫
驱赶
驱车
驱逐
驱除
驳回
驳斥
驴肉
驶入
驶向
驸马
驻军
驻华
驻地
驻外
驻守
驻扎
驻留
驻足
驻防
驼峰
驼背
驾乘
驾到
驾崩
驾校
驾照
驾车
驾驭
驾驶
驿站
驿道
骂人
骄人
骄傲
骆驼
骇客
验光
验收
验方
验证
验资
骏马
骑乘
骑兵
骑士
骑手
骑行
骑车
骑马
骗人
骗取
骗子
骗局
骗术
骚乱
骚动
骚扰
骠骑
骤然
骤降
骨伤
骨头
骨干
骨折
骨架
骨灰
骨盆
骨科
骨肉
骨质
骨骼
骨髓
骰子
骷髅
高一
高三
高下
高中
高丽
高举
高于
高亢
高产
高价
高估
高位
高低
高傲
高僧
高兴
高出
高分
高升
高压
高原
高发
高台
高呼
高喊
高地
高塔
高墙
高士
高声
高处
高大
高宗
高官
高家
高密
高寒
高尚
高层
高居
高山
高峰
高州
高工
高差
高平
高度
高强
高悬
高手
高抗
高招
高挑
高效
高教
高斯
高新
高昂
高明
高架
高校
高档
高楼
高歌
高汤
高洁
高涨
高深
高淳
高清
高温
高潮
高炉
高炮
高点
高烧
高热
高盛
高祖
高程
高空
高端
高等
高粱
高级
高考
高者
高耸
高职
高能
高薪
高调
高质
高贵
高超
高远
高通
高速
高邮
高铁
高阳
高阶
高院
高雅
高音
高领
高频
高额
高高
高龄
鬼子
鬼屋
鬼怪
鬼才
鬼神
鬼魂
鬼魅
魂魄
魄力
魅力
魏书
魏国
魏征
魏晋
魔兽
魔力
魔幻
魔教
魔方
魔术
魔杖
魔法
魔王
魔芋
魔镜
魔鬼
鱼丸
鱼体
鱼儿
鱼塘
鱼头
鱼尾
鱼池
鱼汤
鱼片
鱼种
鱼科
鱼类
鱼缸
鱼翅
鱼肉
鱼苗
鱼虾
鱼雷
鱼骨
鱼鳞
鱿鱼
鲁南
鲁国
鲁班
鲁莽
鲁菜
鲁迅
鲈鱼
鲍鱼
鲑鱼
鲜亮
鲜卑
鲜叶
鲜味
鲜奶
鲜嫩
鲜明
鲜有
鲜果
鲜汤
鲜活
鲜红
鲜美
鲜肉
鲜艳
鲜花
鲜血
鲜食
鲜鱼
鲤科
鲤鱼
鲨鱼
鲫鱼
鲶鱼
鲸鱼
鳄鱼
鳕鱼
鳗鱼
鳝鱼
鳞片
鳞茎
鸟儿
鸟兽
鸟巢
鸟类
鸟鸣
鸡冠
鸡块
鸡汤
鸡爪
鸡精
鸡翅
鸡肉
鸡肋
鸡腿
鸡蛋
鸡血
鸡鸣
鸡鸭
鸣叫
鸦片
鸭子
鸭肉
鸭蛋
鸳鸯
鸵鸟
鸽子
鸿沟
鸿蒙
鸿雁
鹈鹕
鹌鹑
鹏程
鹤壁
鹦鹉
鹧鸪
鹿茸
鹿角
麋鹿
麒麟
麝香
麦克
麦冬
麦加
麦子
麦片
麦田
麦芽
麻城
麻将
麻木
麻油
麻烦
麻疹
麻痹
麻花
麻辣
麻醉
麻雀
麻麻
麻黄
麾下
黄体
黄兴
黄冈
黄叶
黄土
黄埔
黄壤
黄安
黄家
黄山
黄岩
黄州
黄巢
黄帝
黄斑
黄昏
黄柏
黄梅
黄沙
黄河
黄油
黄泉
黄泥
黄海
黄淮
黄牌
黄牛
黄玉
黄瓜
黄疸
黄石
黄绿
黄色
黄芩
黄芪
黄花
黄蜂
黄豆
黄连
黄道
黄酒
黄金
黄铜
黄门
黄陂
黄页
黄鳝
黄龙
黎平
黎族
黎明
黏土
黏度
黏性
黏液
黏膜
黑人
黑体
黑发
黑夜
黑头
黑子
黑客
黑山
黑帮
黑幕
黑影
黑心
黑手
黑斑
黑暗
黑板
黑水
黑河
黑洞
黑海
黑点
黑熊
黑猫
黑白
黑皮
黑石
黑米
黑线
黑色
黑莓
黑衣
黑豆
黑豹
黑车
黑道
黑马
默契
默念
默认
默许
默默
黝黑
黯淡
黯然
鼎力
鼎盛
鼎立
鼓动
鼓励
鼓吹
鼓声
鼓手
鼓掌
鼓楼
鼓膜
鼓舞
鼠标
鼠疫
鼻塞
鼻头
鼻子
鼻孔
鼻尖
鼻梁
鼻涕
鼻炎
鼻祖
鼻翼
鼻腔
齐全
齐名
齐国
齐备
齐家
齐鲁
齿轮
龋齿
龙井
龙凤
龙华
龙口
龙城
龙头
龙宫
龙山
龙岗
龙岩
龙川
龙江
龙池
龙泉
龙洞
龙海
龙游
龙湖
龙湾
龙潭
龙王
龙眼
龙科
龙纹
龙胆
龙脉
龙舟
龙虎
龙虾
龙镇
龙门
龙马
龙骨
龟头
龟山
龟裂
000
001
002
003
004
005
006
007
008
009
010
011
012
013
015
019
020
021
022
023
024
025
027
028
029
050
055
061
073
074
075
080
0mm
100
101
102
103
104
105
106
107
108
109
10g
110
111
112
113
114
115
116
117
118
119
120
121
122
123
124
125
126
127
128
129
130
131
132
133
134
135
136
137
138
139
140
141
142
143
144
145
146
147
148
149
14k
150
151
152
153
154
155
156
157
158
159
15g
160
161
162
163
164
165
166
167
168
169
16g
170
171
172
173
174
175
176
177
178
179
180
181
182
183
184
185
186
187
188
189
18k
190
191
192
193
194
195
196
197
198
199
1gb
1tb
200
201
202
203
204
205
206
207
208
209
20g
210
211
212
213
214
215
216
217
218
219
220
221
222
223
224
225
226
227
228
229
230
231
232
233
234
235
236
237
238
239
240
241
242
243
244
245
246
247
248
249
24h
250
251
252
253
254
255
256
257
258
259
260
261
262
263
264
265
266
267
268
269
270
271
272
273
274
275
276
277
278
279
280
281
282
283
284
285
286
287
288
289
290
291
292
293
294
295
296
297
298
299
2cm
2gb
2mm
300
301
302
303
304
305
306
307
308
309
30g
310
311
312
313
314
315
316
317
318
319
320
321
322
323
324
325
326
327
328
329
32g
330
331
332
333
334
335
336
337
338
339
340
341
342
343
344
345
346
347
348
349
350
351
352
353
354
355
356
357
358
359
360
361
362
363
364
365
366
367
368
369
370
371
372
373
374
375
376
377
378
379
380
381
382
383
384
385
386
387
388
389
390
391
392
393
394
395
396
397
398
399
3ds
3kg
3mm
400
401
402
403
404
405
406
407
408
409
410
411
412
413
414
415
416
417
418
419
420
421
422
425
426
427
428
429
430
432
433
435
438
440
441
442
444
445
448
450
451
453
455
456
457
458
460
465
468
470
475
480
485
486
488
490
495
498
499
4gb
4s店
500
501
502
503
504
505
506
508
50g
510
511
512
513
515
516
518
520
521
522
525
530
536
539
540
543
550
555
560
570
580
588
590
591
595
599
5cm
5kg
5mm
600
601
603
610
611
616
618
620
625
626
630
640
650
660
661
666
670
680
688
690
699
6gb
700
701
705
709
710
711
720
730
737
740
747
750
760
768
770
777
780
787
790
798
799
800
801
802
810
814
816
818
820
828
830
835
838
840
850
852
855
860
863
866
867
870
880
886
888
890
897
899
8cm
8gb
8mm
900
911
920
921
925
930
950
960
970
978
980
985
990
998
999
aaa
abc
abs
ace
acg
act
adc
add
adi
ads
age
ago
air
all
alt
amd
amg
amp
amy
and
ann
api
apk
app
apr
apt
are
arm
art
asp
asr
atm
atp
aug
avi
aws
b12
b2b
b2c
bad
bag
bar
bas
bat
bay
bbc
bbe
bbq
bbs
ben
big
bim
bin
bit
bmw
bob
bot
box
boy
bug
bus
but
buy
bye
cad
cam
can
car
cat
cba
cbc
cbd
cbs
ccd
cdn
ceo
ces
cfa
chi
cho
cia
cio
cma
cms
cnc
cnn
co2
coc
com
con
cos
cpa
cpi
cpu
crm
cry
css
cst
cto
cup
cut
dac
dan
day
dcs
ddd
dec
del
der
des
dha
dhl
die
dit
div
diy
dji
dlc
dll
dna
dnf
dns
doc
dog
doi
dom
don
dos
dsp
dvd
eba
ebd
eco
ecu
edm
eds
edu
eia
emc
emi
ems
end
eos
eps
erp
esc
esp
etc
etf
eur
eva
exe
exo
eye
f16
fan
faq
fbi
fda
feb
fed
fgo
fit
fly
for
fox
fps
fri
frm
ftp
fun
g20
gap
gay
gdp
get
gif
gis
git
gmp
gmt
gnu
god
goo
gov
gpa
gps
gpu
gre
gsm
gtx
gui
han
has
hdr
her
hey
hip
his
hit
hiv
hop
hot
how
hpv
hsu
htc
htm
ian
ibm
ice
icp
ict
idc
ide
ie6
iii
iis
imf
img
inc
ing
inn
ins
int
ios
iot
ipo
ips
iso
isp
its
ivy
jan
jay
jcb
jim
job
joe
joy
jpg
jul
jun
kai
kbs
kde
ken
key
kic
kim
kit
kpi
ktv
lab
lan
law
lcd
led
lee
leo
les
let
lim
lin
liu
llc
log
lol
low
ltd
lte
mac
man
map
mar
max
may
mba
mbc
mcu
men
mhz
min
mit
mix
mkv
mlb
mod
mon
mp3
mp4
mpv
msg
msi
msn
mtv
mvp
mwc
nas
nba
nbc
ncc
neo
net
new
nfc
ngo
nhk
no1
non
not
nov
now
npc
o2o
oct
oem
off
ofo
oil
old
one
org
orz
ott
our
out
p10
p2p
pad
pan
pay
pcb
pci
pdf
pen
pet
php
pin
plc
pm1
pm2
pmi
png
pop
pos
ppi
ppp
ppt
pre
pro
ps3
ps4
psp
ptt
pvc
pvp
pwm
q10
ram
rar
raw
ray
red
rgb
rmb
rna
rom
rpg
rss
run
sam
san
sao
sap
sas
sat
say
sbl
sbs
sci
scp
sdk
sea
see
seo
sep
set
sex
sgs
she
shi
sim
sir
sky
sms
sns
soc
spa
spf
sql
ssd
ssh
ssl
sso
sui
sun
suv
tab
tag
tai
tan
tbs
tcl
tcp
tcs
tea
ted
tee
tel
tft
the
thu
tim
tmt
tom
too
top
tpp
trc
tvb
two
txt
ufo
unt
ups
url
usa
usb
usd
use
utc
van
var
vcd
ver
vga
via
vim
vip
vol
von
vpn
vps
vsa
vsc
wan
wap
war
was
way
web
wed
wei
who
why
wii
win
wma
wow
wps
wto
www
x86
xml
xxx
xyz
yam
yes
yin
you
zen
zip
zol
一万个
一万元
一万多
一万年
一下子
一两个
一两天
一两年
一两次
一个个
一个半
一个多
一个月
一个点
一个班
一个集
一二三
一代人
一代代
一会儿
一体化
一体式
一体机
一刀切
一分钟
一刹那
一刻起
一千万
一千个
一千元
一千多
一千年
一卡通
一口气
一号线
一周年
一场场
一块儿
一大半
一大堆
一大批
一大早
一大步
一大群
一天天
一季度
一定量
一家人
一对一
一层层
一巴掌
一幅幅
一幕幕
一年期
一年生
一座座
一批批
一把手
一揽子
一整天
一整套
一方面
一日游
一时期
一时间
一朵花
一条条
一条线
一条街
一条龙
一棵树
一次性
一次次
一步步
一点儿
一点点
一片片
一班人
一百万
一百个
一百元
一百多
一百年
一瞬间
一秒钟
一站式
一等功
一等奖
一系列
一致性
一般性
一览表
一贯制
一路上
一辈子
一边倒
一连串
一道道
一部分
一阵子
一阵阵
一顿饭
一颗颗
一首歌
丁俊晖
七十二
万人次
万亿元
万余元
万余册
万公斤
万公里
万公顷
万千瓦
万吨级
万圣节
万多元
万多名
万左右
万年前
万日元
万港元
万用表
万美元
万美金
万英镑
万里行
丈母娘
三万元
三亚市
三人行
三人间
三分球
三分钟
三十一
三十七
三十万
三十三
三十二
三十五
三十余
三十八
三十六
三十四
三十岁
三十年
三十日
三千年
三合一
三四个
三四年
三国志
三字经
三季度
三年级
三文鱼
三明市
三明治
三星级
三月初
三极管
三百年
三等功
三等奖
三脚架
三角形
三角洲
三角状
三轮车
三部曲
三里屯
三门峡
上一年
上下册
上下文
上下游
上下班
上个月
上交所
上千年
上半场
上半年
上半身
上周五
上周末
上档次
上海市
上海滩
上海站
上班族
上百万
上规模
上课时
上赛季
上辈子
上进心
上饶市
下一代
下丘脑
下决心
下功夫
下午茶
下半场
下半年
下半身
下周一
下意识
下水道
下辈子
下雨天
下颌骨
不为过
不久前
不亚于
不仅仅
不列颠
不利于
不动产
不可不
不合理
不同于
不同点
不在乎
不外乎
不太好
不失为
不好过
不如意
不如说
不孕症
不定期
不得不
不得了
不得已
不得志
不必要
不怎么
不景气
不服气
不服输
不来梅
不用说
不由得
不相干
不等式
不经意
不耐烦
不能不
不至于
不要紧
不要脸
不见得
不规则
不论是
不起眼
不足以
不远处
不适感
不道德
不锈钢
不间断
不饱和
与会者
与其说
丑小鸭
专业化
专业性
专业户
专业村
专业版
专业级
专业组
专业课
专利权
专利法
专卖店
专家组
专案组
专用线
专用车
专科生
专营店
专题片
且不说
世博会
世界史
世界性
世界杯
世界级
世界观
世界语
世纪末
世锦赛
丘吉尔
丙烯酸
业务员
业务部
业务量
东三省
东京都
东北亚
东北角
东北部
东南亚
东南方
东南角
东南部
东南面
东城区
东大街
东方人
东方红
东正教
东海岸
东直门
东莞市
东营市
东西向
东西方
东西长
东道主
两三个
两三天
两三年
两件事
两分钟
两千年
两句话
两条线
严重性
严重者
个体化
个体户
个性化
中下旬
中下游
中世纪
中东部
中书令
中书省
中位数
中低端
中关村
中北部
中医学
中医师
中医科
中医药
中医院
中南海
中南部
中后期
中国化
中国区
中国史
中国式
中国画
中国籍
中国队
中学生
中宣部
中小型
中小学
中山市
中山路
中年人
中心区
中心校
中心点
中心站
中心线
中心镇
中成药
中控台
中控锁
中文名
中文版
中文系
中新社
中新网
中晚期
中海油
中生代
中石化
中秋节
中科院
中纪委
中组部
中美洲
中老年
中耳炎
中英文
中草药
中药学
中药材
中西医
中西部
中转站
中轴线
中郎将
中长期
中长线
中间价
中间体
中间商
中队长
中青年
中餐厅
中餐馆
中高层
中高档
中高级
丰台区
临时工
临时性
临汾市
临沂市
临沧市
临界点
临终前
丹东市
丹尼尔
丹尼斯
为什么
为的是
主义者
主产区
主人公
主人翁
主会场
主体性
主力军
主办方
主动式
主动性
主动权
主动脉
主城区
主席团
主干道
主战场
主持人
主教练
主旋律
主角奖
主讲人
主题曲
主题歌
主题词
丽水市
丽江市
举报人
义乌市
义务人
义务兵
义勇军
义和团
之所以
乌克兰
乌干达
乌托邦
乌拉圭
乌龙茶
乐山市
乐清市
乒乓球
乔布斯
乔纳森
乘务员
九一八
九十九
九华山
九寨沟
九江市
习惯于
习惯性
习近平
习题集
乡党委
乡政府
书法家
书法展
书画家
书画展
书记员
书记处
书面语
买不到
买不起
买受人
买回来
买得起
买房子
乳制品
乳化剂
乳头状
乳白色
乳腺癌
乳酸菌
了不起
争夺战
争霸赛
事业心
事业性
事业费
事业部
事务局
事务所
事务部
事实上
二三十
二人转
二十一
二十七
二十万
二十三
二十个
二十九
二十二
二十五
二十余
二十八
二十六
二十四
二十多
二十岁
二十年
二十日
二千元
二号线
二手房
二手车
二极管
二次元
二环路
二甲基
二等功
二等奖
二维码
二进制
于是乎
云南省
互动式
互动性
互感器
互联网
五万元
五保户
五六年
五分钟
五十万
五十年
五千元
五千年
五台山
五味子
五大洲
五年制
五指山
五星级
五月天
五百元
五百年
五百强
五粮液
五花肉
井冈山
亚健康
亚克力
亚太区
亚当斯
亚油酸
亚洲区
亚洲杯
亚热带
亚硝胺
亚运会
亚马逊
亚龙湾
交互式
交叉口
交响乐
交响曲
交换机
交易会
交易员
交易商
交易所
交易日
交易者
交易量
交易额
交朋友
交汇处
交流会
交流电
交界处
交通厅
交通局
交通费
交通部
产业化
产业园
产业带
产业链
产品线
产学研
产油国
产销量
京津冀
亲和力
亲戚家
亳州市
人世间
人事厅
人事处
人事局
人事科
人事部
人口数
人工湖
人性化
人情味
人才库
人才网
人武部
人民币
人民网
人流量
人物画
人生观
人类学
人行道
人财物
亿多元
亿日元
亿港元
亿美元
亿美金
亿英镑
什么样
什叶派
仅次于
仅限于
今年初
介绍信
从业者
从来不
他妈的
仙人掌
代名词
代理人
代理商
代表人
代表作
代表团
代表处
代表性
代表队
代言人
代谢物
令狐冲
以上者
以利于
以太网
以至于
以致于
以色列
仪表盘
仲裁员
仲裁庭
价值观
价值链
价格低
价格战
价格比
任何人
任务栏
任天堂
任意球
任正非
任组长
企业主
企业债
企业化
企业家
企业界
企业级
企事业
伊拉克
伊斯兰
伊甸园
伊能静
伍子胥
休息室
休息日
休斯敦
休斯顿
众议员
众议院
优先权
优先级
优先股
优惠券
优秀奖
优缺点
优胜奖
优越性
优越感
会员制
会员卡
会员国
会员证
会展业
会计学
会计师
会议厅
会议室
传感器
传播学
传播者
传教士
传染性
传染病
传真机
传输率
伤寒论
伦理学
伪科学
伪装成
伯明翰
伽利略
低保户
低功耗
低年级
低成本
低收入
低气压
低水平
低血压
低血糖
住宅区
住宅楼
住宿费
体细胞
体育场
体育局
体育课
体育部
体育馆
体验式
何首乌
余万元
余人次
余公里
余姚市
余杭区
佛学院
佛山市
佛教徒
作品展
作品选
作品集
作曲家
作用力
佳木斯
佼佼者
使命感
使用权
使用率
使用税
使用者
使用证
使用费
使用量
侍御史
侏罗纪
供参考
供应商
供应量
供应链
供电局
供货商
供选择
供销社
依赖性
侦察机
侧重点
侵略军
侵略者
便利化
便利店
便利性
便携式
促发展
促进会
俄亥俄
俄罗斯
俗话说
保修期
保健品
保卫战
保守党
保守派
保定市
保护区
保护器
保护地
保护层
保护性
保护法
保护膜
保时捷
保有量
保监会
保税区
保证书
保证金
保质期
保险业
保险人
保险单
保险杠
保险柜
保险法
保险箱
保险费
保险金
保障局
保障性
保障金
保鲜膜
保龄球
信不信
信号灯
信号线
信噪比
信得过
信息化
信息员
信息学
信息库
信息流
信息港
信息网
信息量
信用卡
信用社
信用证
信阳市
修改稿
修正案
修理厂
修订版
修道院
俯卧撑
俱乐部
倒卵形
倒计时
候选人
借助于
借款人
借记卡
倡导者
债务人
债权人
债转股
值班室
倾向性
偏头痛
做不了
做好事
做市商
做文章
做生意
停下来
停车位
停车场
停车费
健康人
健美操
健身房
健身操
偷偷地
傈僳族
储备粮
催化剂
傻傻的
儿媳妇
儿童节
元器件
元宵节
兄弟俩
充电器
充足率
先天性
先行者
先进县
先进性
先驱者
光泽度
光电子
光谱仪
光通信
克劳斯
克拉克
克林顿
克莱尔
克里斯
免不了
免疫力
免疫学
免疫性
免税店
免费送
党中央
党代会
党代表
党小组
党工委
党总支
党支部
党组织
入侵者
入口处
入学率
全世界
全人类
全唐诗
全国性
全天候
全家人
全家福
全封闭
全局性
全市性
全攻略
全方位
全日制
全景式
全村人
全球化
全球性
全系列
全自动
全身心
全身性
全过程
全运会
全金属
全面性
全高清
八路军
八达岭
公交车
公信力
公元前
公务员
公司债
公司法
公告日
公安厅
公安局
公安部
公寓楼
公平性
公开信
公开课
公开赛
公有制
公正性
公益性
公益金
公积金
公证处
公诉人
公路局
六个月
六十四
六十年
六安市
六年级
六盘水
六边形
兰州市
共产党
共同体
共同点
共和党
共和国
共聚物
共青团
关东军
关工委
关帝庙
关注度
关注点
关系人
关联性
关联方
关节炎
关节痛
关键字
关键性
关键期
关键点
关键词
兴奋剂
兵工厂
兵马俑
其他人
具体化
典型性
养殖业
养殖场
养殖户
养老金
养老院
养路费
兼容性
兽医学
内分泌
内外部
内政部
内江市
内燃机
内窥镜
内蒙古
再就是
再生产
再融资
写作文
写字台
写字楼
写日记
军事化
军事家
军分区
军政府
农业局
农业部
农产品
农作物
农学院
农家乐
农家肥
农工党
农民工
农牧业
农牧民
农用地
农科院
农艺师
冠军杯
冠军赛
冠心病
冥王星
冬奥会
冯小刚
冯梦龙
冯玉祥
冰淇淋
冰激凌
冲击力
冲击波
冲锋枪
决不能
决定书
决定性
决定权
决明子
决策层
决策者
冷兵器
冷冰冰
冷冷的
冷凝器
冷却塔
冷却水
冷空气
净利润
净化器
净收入
净水器
净资产
准决赛
准备金
准确度
准确性
准确率
准考证
凉山州
凉开水
减免税
减肥法
减速器
减速机
凑热闹
凝聚力
几代人
几何学
几分钟
几十万
几十个
几十块
几十家
几十年
几十种
几千万
几千块
几千年
几句话
几百万
几百个
几百元
几百块
几百年
几秒钟
凤凰山
凭借着
凯恩斯
凯旋门
凯瑟琳
凯美瑞
凸轮轴
出入口
出入境
出去玩
出发点
出口商
出口处
出口量
出口额
出境游
出版业
出版商
出版物
出版社
出版者
出生地
出生率
出租人
出租屋
出租车
出血性
出让金
出货量
出资人
出风口
分不开
分中心
分会场
分公司
分子式
分子量
分布区
分布式
分数线
分析仪
分析师
分析法
分水岭
分泌物
分理处
分界线
分离器
分类学
分类法
分辨率
分销商
分阶段
切入点
切割机
切尔西
切除术
刑法学
划时代
刘亦菲
刘伯承
刘先生
刘嘉玲
刘少奇
刘德华
刘易斯
刘禹锡
刚出生
创业园
创业板
创业者
创作奖
创作者
创办人
创始人
创建者
创新力
创新型
创新性
创立者
创纪录
创造力
创造性
创造者
初中生
初中部
初始化
初学者
初高中
判决书
判断力
利比亚
利润率
利润表
利物浦
利用率
别墅区
到头来
到时候
到期日
制作者
制冷剂
制动器
制定者
制度化
制片人
制片厂
制药厂
制造业
制造厂
制造商
制造者
制高点
刹那间
刺激性
刻录机
剃须刀
前一天
前三名
前不久
前些年
前列腺
前半部
前男友
前瞻性
剖宫产
剖腹产
剧作家
剧情片
剪力墙
副乡长
副产品
副作用
副厅级
副厅长
副县级
副县长
副司令
副司长
副处级
副局级
副局长
副教授
副标题
副校长
副省长
副科级
副组长
副食品
副驾驶
办事员
办事处
办公会
办公区
办公厅
办公室
办公桌
办公楼
功能区
功能性
加勒比
加工业
加工区
加工厂
加拿大
加油站
加湿器
加热器
加盟店
加西亚
加速器
加速度
动不动
动作片
动力学
动植物
动物园
动物学
动物性
动物界
动画片
动脉瘤
动车组
助听器
助学金
助推器
助消化
助理员
努比亚
劳伦斯
劳动力
劳动局
劳动法
劳动者
勃艮第
勇士队
勒布朗
包头市
包容性
包装机
包装物
包装盒
包装袋
匈牙利
化合物
化妆品
化妆师
化妆水
化学品
化学家
化学式
化学系
化工厂
化脓性
北京城
北京市
北京站
北京路
北京队
北半球
北向南
北大荒
北大街
北师大
北戴河
北极星
北极熊
北海市
北海道
北美洲
北部湾
匹兹堡
区党委
区公所
区域性
区政府
区议会
医务室
医学会
医学家
医学生
医学界
医学系
医学部
医学院
医疗系
医疗费
医药学
医药费
十一个
十一五
十一号
十一届
十一年
十一日
十一月
十一章
十七届
十七岁
十七年
十七日
十万个
十万元
十三个
十三届
十三岁
十三年
十三日
十个月
十九岁
十九年
十九日
十二个
十二五
十二届
十二岁
十二年
十二日
十二月
十二点
十二章
十五届
十五岁
十五年
十五日
十余个
十余年
十余种
十八岁
十八年
十八日
十六大
十六届
十六岁
十六年
十六日
十几万
十几个
十几天
十几岁
十几年
十几种
十分钟
十周年
十四届
十四岁
十四年
十四日
十堰市
十多个
十多年
十字军
十字星
十字架
十年间
千万元
千万别
千万年
千字文
千岛湖
千百年
千粒重
升学率
升降机
半决赛
半圆形
半导体
半山区
半山腰
半年前
半年报
半成品
半自动
半衰期
半透明
华侨城
华商报
华宁县
华尔街
华盛顿
华莱士
协奏曲
协议书
协调性
单人床
单人间
单方面
单曲榜
单片机
单眼皮
单纯性
单细胞
单行本
南京市
南京路
南充市
南加州
南北向
南北宽
南北朝
南半球
南大街
南大门
南宁市
南山区
南岸区
南平市
南开区
南方人
南昌市
南朝梁
南极洲
南海区
南美洲
南通市
南阳市
博士后
博士点
博士生
博尔顿
博弈论
博物院
博物馆
博览会
占优势
占有欲
占有率
卡内基
卡塔尔
卡夫卡
卡斯特
卡洛斯
卡耐基
卡路里
卢卡斯
卢森堡
卢浮宫
卫斯理
卫生厅
卫生学
卫生室
卫生局
卫生巾
卫生所
卫生纸
卫生部
卫生间
卫生院
印刷厂
印刷品
印刷机
印度人
印度教
印度洋
印第安
印花税
印象派
危害性
危机感
危险品
危险性
即墨市
卵巢癌
卵磷脂
卷心菜
厅局级
历史剧
历史学
历史性
历史系
历年来
历险记
压倒性
压力表
压缩机
压缩比
厚厚的
原产地
原以为
原住民
原作者
原则上
原则性
原创性
原动力
原发性
原型机
原子弹
原子核
原子能
原料药
原材料
原生态
厦门市
去年底
县市区
县政协
县政府
县级市
参与度
参与性
参与者
参加者
参展商
参考书
参考值
参观者
参议员
参议院
参谋长
参赛者
又会有
及时性
友谊赛
双人床
双人间
双休日
双刃剑
双声道
双子叶
双子座
双学位
双月刊
双核心
双眼皮
双胞胎
双色球
双通道
双鱼座
反义词
反倾销
反击战
反动派
反坦克
反对党
反对派
反对者
反应器
反应堆
反渗透
反过来
反革命
发动机
发大财
发射器
发射机
发展史
发展局
发展期
发展观
发展部
发工资
发布会
发改委
发明人
发明家
发明者
发源地
发烧友
发现者
发生器
发生地
发生率
发电厂
发电机
发电量
发病率
发短信
发祥地
发育期
发脾气
发行人
发行价
发行商
发行者
发行量
发言人
发言权
发起人
发送给
发送至
取决于
取名为
取景器
受不了
受制于
受害人
受害者
受欢迎
受益人
受益者
受精卵
受让人
受让方
受访者
受试者
受贿罪
变压器
变电所
变电站
变速器
变速箱
变频器
叙利亚
口头禅
口服液
口腔科
口香糖
古人类
古代史
古兰经
古埃及
古希腊
古建筑
古文化
古时候
古村落
古树名
古生物
古罗马
古装剧
古诗文
古诗词
只不过
只能靠
召唤师
召集人
可不是
可信度
可塑性
可拆卸
可比性
可溶性
可玩性
可用性
可编程
可能性
可行性
可见光
可视化
可说是
可读性
可转债
可靠性
可食用
台中市
台儿庄
台北县
台北市
台南市
台州市
台式机
台湾人
台湾省
史学会
史学家
史密斯
史蒂夫
史蒂芬
右上方
右上角
右下角
右侍郎
叶剑英
叶圣陶
叶对生
叶斑病
叶绿素
号召力
司令员
司令官
司令部
司法厅
司法局
司法部
司马光
司马懿
司马迁
吃不饱
吃晚饭
吃火锅
各乡镇
各省市
合伙人
合作方
合作社
合作者
合同法
合唱团
合格率
合格者
合格证
合法化
合法性
合理化
合理性
合肥市
合规性
合金钢
吉他手
吉安市
吉尼斯
吉林市
吉林省
吉祥物
吉隆坡
同一个
同一天
同义词
同乡会
同仁堂
同位素
同学会
同性恋
同情心
同时代
同盟会
同行业
同质化
同龄人
名人堂
名人录
名古屋
名胜区
后勤部
后处理
后备箱
后来者
后汉书
后现代
后花园
后视镜
后遗症
吐鲁番
向心力
向日葵
吕梁市
吕洞宾
君不见
吞吐量
含水率
含水量
含糖量
含金量
听证会
启发性
启示录
吴三桂
吴中区
吴先生
吴奇隆
吴昌硕
吸尘器
吸引力
吸收率
吸水性
吸烟者
吸血鬼
吹风机
呈现出
员外郎
周先生
周口市
周总理
周恩来
周星驰
周期性
周期短
周期长
周杰伦
周武王
周润发
周立波
呼吸器
呼吸机
呼吸道
命中率
命令行
和平区
咖啡厅
咖啡因
咖啡店
咖啡色
咖啡豆
咖啡馆
咸宁市
咸阳市
品牌化
哈利波
哈哈哈
哈尔滨
哈尼族
哈工大
哈萨克
哈里斯
哥们儿
哥伦布
哥德堡
哥特式
哲学史
哲学家
哲学系
哺乳期
唐人街
唐太宗
唐山市
唐玄宗
唐纳德
唐高宗
售楼处
唯一性
啄木鸟
商丘市
商业化
商业区
商业性
商业街
商务区
商务局
商务部
商品化
商品房
商学院
商标局
商标权
商标法
商用车
商贸城
喀斯特
喀麦隆
喜剧片
喜来登
喷气式
嘉兴市
嘉定区
嘉年华
嘉陵江
器质性
四五个
四人帮
四六级
四十五
四十八
四十岁
四十年
四合院
四季度
四季豆
四川人
四川省
四星级
四等奖
回合制
回忆录
回忆起
回报率
回答者
回老家
因涉嫌
因特网
团中央
团体赛
团市委
团总支
团支部
团组织
团购网
园林式
固化剂
固定式
固形物
国产化
国内外
国办发
国务卿
国务院
国土局
国子监
国家级
国家队
国庆节
国民党
国画家
国税局
国资委
国防军
国防部
国际化
国际性
国际法
国际级
国际部
图书奖
图书室
图书馆
圆圆的
圆明园
圆柱形
圆柱状
圆筒形
圆锥形
土家族
土特产
土石方
土耳其
圣保罗
圣约翰
圣诞节
在城镇
在校生
圭亚那
地下党
地下城
地下室
地下水
地中海
地区性
地域性
地市级
地平线
地形图
地方官
地方志
地方性
地理学
地税局
地级市
地表水
地质学
地铁站
地震局
坏习惯
坐地铁
坐月子
坐标系
坐飞机
垂直于
垃圾堆
垃圾桶
垃圾箱
型基金
埃弗顿
埃里克
城关区
城关镇
城市化
城市群
城里人
城镇化
城隍庙
培养基
培训班
培训部
基准日
基因组
基本上
基本功
基本法
基本面
基督徒
基督教
基础性
基础课
基金业
基金会
基金委
塑料瓶
塑料袋
塔利班
塞纳河
填埋场
境内外
墓志铭
增值税
增加值
增压器
增强型
增长极
增长点
增长率
墨尔本
墨西哥
士大夫
处女作
处女座
处女膜
处方药
处理厂
处理器
处罚法
备忘录
复仇者
复制品
复印件
复印机
复合体
复合型
复合物
复合肥
复杂化
复杂度
复杂性
复活节
夏令营
夏威夷
夏洛克
夏洛特
外三元
外交官
外交部
外包装
外向型
外周血
外国人
外国语
外地人
外星人
外祖父
外科学
外立面
外经贸
外联部
外语系
多一些
多一份
多一点
多万元
多人次
多亿元
多伦多
多元化
多公里
多分钟
多功能
多动症
多发性
多发病
多媒体
多层次
多巴胺
多年生
多彩的
多得多
多方位
多方面
多普勒
多晶硅
多样化
多样性
多渠道
多瑙河
多用户
多用途
多线程
多菌灵
多见于
多角度
多边形
多项式
夜总会
大丈夫
大不了
大专班
大中专
大中华
大中型
大乐透
大事记
大亚湾
大人物
大众化
大体上
大使馆
大儿子
大元帅
大公报
大兴区
大出血
大分子
大别山
大功率
大动脉
大半个
大半年
大司马
大同市
大城市
大多数
大大的
大奖赛
大姨妈
大学城
大学士
大学生
大家庭
大家族
大容量
大将军
大小便
大屏幕
大屠杀
大峡谷
大巴车
大师级
大师赛
大幅度
大庆市
大张伟
大总统
大手笔
大批量
大拇指
大排档
大提琴
大方向
大暴雨
大本营
大气压
大气层
大法官
大洋洲
大渡河
大满贯
大熊猫
大猩猩
大理石
大白菜
大礼包
大礼堂
大程度
大红袍
大肠癌
大自然
大西洋
大观园
大规模
大讲堂
大跃进
大运河
大连市
大通道
大道理
大部份
大部分
大都会
大都市
大酒店
大门口
大闸蟹
大队长
大陆性
大面积
大革命
天下人
天主教
天台山
天后宫
天安门
天文台
天文学
天水市
天河区
天津人
天津市
天津港
天然林
天然气
天王殿
天目山
天秤座
天花板
天蝎座
天鹅湖
太原市
太子妃
太平军
太平洋
太极拳
太行山
太阳光
太阳神
太阳穴
太阳系
太阳能
太阳镜
夫斯基
央视网
失业率
失败者
夹杂着
奇侠传
奉献给
奉贤区
奏鸣曲
奔小康
奖学金
奠基人
奢侈品
奥克兰
奥兰多
奥利弗
奥地利
奥尼尔
奥巴马
奥斯卡
奥斯曼
奥斯汀
奥氏体
奥特曼
奥组委
奥运会
女一号
女主人
女人味
女作家
女孩儿
女孩子
女强人
女朋友
女艺人
女配角
女高音
奴隶制
奶制品
好不好
好几个
好几年
好去处
好多年
好奇心
好孩子
好心人
好意思
好感度
好日子
好消息
好莱坞
好身材
如是说
如果说
妇产科
妊娠期
委员会
委员长
委托书
委托人
姜切片
姜子牙
威士忌
威尔士
威尔斯
威尔逊
威尼斯
威廉斯
威海市
娃哈哈
娄底市
娱乐业
娱乐圈
娱乐性
婆罗门
婚外情
婚姻法
婚纱照
婴幼儿
媳妇儿
嫌疑人
子公司
子宫颈
子系统
子课题
子项目
孕产妇
孕激素
字符串
存储卡
存储器
孙中山
孙悟空
孝感市
孟加拉
孟浩然
孢子囊
季前赛
季后赛
季羡林
季节性
孤儿院
孤独症
学习型
学习班
学习者
学前班
学术性
学术界
学生会
学生证
学院奖
学院派
学雷锋
学龄前
孵化器
宁德市
宁波市
宅基地
宇航员
守信用
守护神
守护者
守望者
守门员
安东尼
安全套
安全局
安全带
安全性
安全感
安全期
安全法
安全阀
安哥拉
安庆市
安康市
安徒生
安德森
安德烈
安德鲁
安徽省
安慰剂
安溪县
安理会
安眠药
安禄山
安阳市
安顺市
宋仁宗
宋太祖
宋庆龄
宋徽宗
宋美龄
宋高宗
完整性
宗教学
宗教界
定时器
宜兴市
宜宾市
宜昌市
宜春市
宝安区
宝山区
宝鸡市
实业家
实习生
实力派
实名制
实效性
实用型
实用性
实质性
实践性
实践者
实际上
实验区
实验室
实验性
实验楼
实验班
宠物店
审判员
审判庭
审稿人
审美观
审计局
审计师
审计署
客家人
客家话
客户端
客户群
客流量
客观性
客运站
宣传单
宣传品
宣传栏
宣传片
宣传部
宣传队
室主任
室内乐
室内外
室外机
宫外孕
宫颈癌
宴会厅
家乐福
家协会
家常菜
家族史
家族式
家里人
家长会
家门口
容积率
宿州市
宿舍楼
宿迁市
寄存器
寄宿制
寄生虫
密封件
密封圈
密封性
密歇根
密集型
富勒姆
富士康
寒暑假
察哈尔
察觉到
对不起
对得起
对抗赛
对比度
对照组
对称性
对立面
对系统
对角线
对讲机
对话框
导演奖
导火索
导电性
封闭式
射击类
小东西
小丫头
小丸子
小乔木
小人物
小企业
小伙伴
小伙子
小作坊
小儿子
小册子
小分队
小剧场
小动作
小卖部
小厨房
小商品
小型化
小型车
小城镇
小天使
小女儿
小女子
小女孩
小妹妹
小姑娘
小学校
小学生
小学部
小孩子
小宝宝
小家伙
小家电
小小的
小小说
小山村
小常识
小提琴
小数点
小时候
小朋友
小汽车
小王子
小男孩
小白兔
小白菜
小白鼠
小精灵
小红帽
小组赛
小聪明
小苏打
小行星
小规模
小说吧
小说家
小说网
小说集
小贴士
小轿车
小辣椒
少不了
少先队
少年宫
少林寺
少部分
尖沙咀
就业率
就是说
尼克斯
尼克松
尼克酸
尼古丁
尼古拉
尼尔森
尼泊尔
尼罗河
尽可能
尽量少
尿毒症
局域网
局局长
局机关
局限性
层次感
居住区
居住地
居住证
居委会
居民区
居民楼
居民点
屈臣氏
屋子里
展示区
展览会
展览馆
展销会
山东人
山东省
山水画
山海关
山海经
山脚下
山西省
岳阳市
峨眉山
崔永元
嵌入式
川家康
州政府
巡回赛
巡洋舰
巡视员
巡视组
工业化
工业区
工业品
工业园
工业局
工业用
工业部
工作台
工作坊
工作室
工作日
工作服
工作站
工作组
工作者
工作部
工作量
工作队
工作面
工具书
工具箱
工农业
工厂化
工商业
工商局
工商户
工商所
工商联
工学院
工本费
工程图
工程学
工程局
工程师
工程款
工程系
工程部
工程量
工笔画
工艺品
工艺学
左上角
左下角
左右手
左宗棠
巧克力
巨无霸
巨蟹座
差一点
差不多
差别化
差异化
差异性
差旅费
差速器
巴中市
巴勒莫
巴厘岛
巴塞尔
巴拉圭
巴拿马
巴格达
巴比伦
巴洛克
巴菲特
巴西队
市中区
市中心
市人大
市北区
市南区
市场价
市场化
市场部
市政协
市政厅
市政府
市盈率
市辖区
布伦特
布依族
布拉德
布拉格
布政使
布莱克
布莱恩
布鲁克
布鲁斯
布鲁诺
师范生
师范类
希尔顿
希拉里
希特勒
希腊人
希腊语
帕尔马
帕萨特
带头人
帮帮忙
帮帮我
常委会
常州市
常德市
常春藤
常温下
常熟市
常见于
常见病
常规赛
干什么
干扰素
干燥机
干细胞
干辣椒
平凡人
平均值
平均分
平均数
平均线
平常心
平底锅
平方米
平滑肌
平行线
平衡点
平阳县
平面图
平顶山
年产值
年产量
年少时
年收入
年月日
年终奖
年轻人
年轻化
年青人
年龄段
并不多
并不大
并不比
并发症
幸存者
幸福感
幻灯片
幼儿园
幼稚园
幽默感
广东省
广交会
广元市
广告业
广告主
广告学
广告片
广告牌
广告语
广告费
广安市
广州市
广播剧
广播站
广泛性
广电局
广西区
广西省
序列号
库存量
应予以
应收款
应用型
应用性
应用文
应聘者
应试者
应适当
底特律
店老板
废弃物
度假区
度假村
座位数
座右铭
座谈会
康师傅
康有为
廉租房
廊坊市
延安市
延庆县
延长线
建制镇
建成区
建筑业
建筑史
建筑学
建筑师
建筑物
建筑用
建筑系
建筑群
建议书
建议您
建议权
建设厅
建设局
建设性
建设者
建设路
建设部
开创性
开创者
开发区
开发商
开发新
开发者
开发部
开封市
开幕式
开拓者
开放型
开放式
开放性
开放日
开玩笑
异位症
异性恋
弓箭手
弗兰克
弗雷德
张之洞
张作霖
张唱片
张国荣
张大千
张学良
张家口
张家港
张家界
张居正
张惠妹
张无忌
张爱玲
张献忠
张艺谋
张靓颖
弥漫性
弹钢琴
强制性
强台风
强有力
强直性
强迫症
归功于
归属于
归属感
归结为
当事人
当地人
录像带
录像机
录取率
录音机
录音棚
形容词
形态学
彭德怀
影像学
影剧院
影响力
影视剧
影视城
影评人
彼此间
径流量
很久没
很多年
很难说
徐家汇
徐州市
徐志摩
徐悲鸿
徐汇区
徐霞客
得不到
得益于
微循环
微机室
微波炉
微生物
微电子
微电脑
微积分
德国人
德国队
德州市
德意志
德里克
德阳市
德鲁克
心上人
心内科
心功能
心理学
心电图
心绞痛
心肌炎
心脏病
心血管
心里话
必修课
必然性
必胜客
必要性
必需品
忍不住
志愿军
志愿者
忘不了
忠诚度
快捷键
快车道
快餐店
念珠菌
忻州市
忽必烈
怀化市
怎么办
怎么样
思想史
思想家
思想性
思考题
急慢性
急诊科
急转弯
性价比
性关系
性别比
性功能
性取向
性成熟
性激素
性生活
性疾病
性行为
性骚扰
怪不得
怪怪的
总书记
总产值
总产量
总人口
总代理
总价值
总公司
总决赛
总务处
总动员
总医院
总司令
总商会
总导演
总工会
总干事
总成绩
总户数
总指挥
总收入
总督府
总经理
总统府
总编辑
总资产
总金额
总长度
总队长
总需求
总面积
总领事
恐怖片
恐惧症
恢复期
恨不得
恩施州
恩格斯
恶作剧
悄悄地
悄悄的
患病率
情人节
情报局
情绪化
惠州市
想不到
想像力
想当然
想得到
想象力
愈来愈
意味着
意大利
意志力
意见书
愚人节
感光度
感兴趣
感冒药
感应器
感染力
感染性
感染者
慈善家
慈溪市
慕尼黑
慢性病
慢慢来
戏剧家
戏剧性
戏剧节
成交价
成交量
成交额
成份股
成功率
成功者
成员国
成品油
成型机
成就奖
成就感
成年人
成本价
成果奖
成活率
成熟度
成熟期
成细丝
成绩单
成都市
成长型
成长性
成长期
或者说
战列舰
战利品
战国策
战斗力
战斗机
战斗部
战略性
戚继光
截止日
戴姆勒
戴眼镜
戴维斯
户口本
户口簿
房产证
房地产
房山区
房管局
房间内
所在国
所在地
所得税
所得额
所有人
所有制
所有权
所有者
所罗门
扁平化
扁桃体
手工业
手工艺
手把手
手拉手
手指头
手术室
手机号
手榴弹
手电筒
手续费
手风琴
扑克牌
打不开
打交道
打击乐
打印机
打喷嚏
打基础
打官司
打招呼
打游戏
打火机
打电话
打造出
托儿所
托勒密
托管人
托马斯
执委会
执政党
执行力
执行官
执行局
执行者
扫描仪
扬声器
扬子江
扬州市
扮演者
扶贫办
批判性
批发商
批评家
承包人
承包商
承德市
承租人
承诺书
承载力
承运人
承销商
技术员
技术型
技术性
技术类
技术部
技能型
抑制剂
抑郁症
抒情诗
投保人
投影仪
投影机
投机者
投标人
投票权
投融资
投资人
投资商
投资方
投资者
投资额
抗干扰
抗氧化
抗生素
抗病性
抗病毒
抗老化
抗肿瘤
折射率
抚养费
抚州市
抚恤金
抚顺市
抛物线
护卫舰
护城河
护士长
护肤品
护身符
报名表
报名费
报告书
报告会
报告厅
报告期
报考者
报警器
抵抗力
抵押权
抵押物
担保人
担负起
拆迁人
拉丁文
拉丁语
拉力赛
拉塞尔
拉斐尔
拉祜族
拉肚子
拉萨市
拉齐奥
拍卖会
拍卖行
拖拉机
拘泥于
招商局
招待所
招投标
招标人
招聘会
拜占庭
拥有者
括约肌
拿破仑
持久性
持卡人
持有人
持有者
持续性
指令集
指南针
指导书
指导价
指导员
指导性
指战员
指挥员
指挥官
指挥家
指挥所
指挥部
指甲油
指示灯
指示牌
按察使
按理说
按程序
按规定
按计划
挑战性
挑战杯
挑战者
挑战赛
挑选出
挖掘机
挥发性
挥发油
振荡器
挺不错
捉迷藏
捐赠人
换手率
换热器
换言之
据介绍
授予权
授权点
掉下来
掌门人
排卵期
排头兵
排放量
排气管
排水沟
排水管
排水量
排污口
排污费
排泄物
排球场
排行榜
探测器
探险家
探险队
接下来
接收器
接收机
接班人
接电话
接触器
接触式
控制力
控制区
控制台
控制器
控制性
控制权
控制点
控制阀
控系统
推介会
推动力
推动者
推土机
推荐信
推进剂
推进器
推销员
描绘出
提供商
提供者
提取物
提名奖
提炼出
提问者
揭阳市
搅拌器
搅拌机
搞不懂
搬运工
携带者
摄像头
摄像机
摄入量
摄影家
摄影展
摄影师
摄影机
摄氏度
摆放着
摇摇头
摇滚乐
摩天轮
摩托车
摩擦力
摩洛哥
摩纳哥
摩羯座
播放器
播放机
播音员
撰稿人
操作员
操作性
操作者
操控性
攀枝花
支原体
支持率
支持者
支撑点
支气管
支队长
收件人
收割机
收录于
收益率
收盘价
收藏品
收藏家
收藏者
收视率
收费站
收音机
改扩建
改进型
攻击力
攻击性
攻击机
攻击者
攻坚战
放大器
放大镜
放射性
放射状
政工师
政府军
政治处
政治学
政治家
政治局
政治系
政治部
政法委
政策性
故事会
故事性
故事片
故事集
故障率
效果图
效率高
敏感度
敏感性
救世主
救护车
救援队
教务处
教学区
教学楼
教学法
教学点
教学班
教导员
教师节
教研员
教研室
教研组
教科书
教科研
教练员
教练机
教职工
教育厅
教育史
教育处
教育学
教育家
教育局
教育法
教育界
教育科
教育系
教育网
教育者
教育费
教育部
敢死队
散文家
散文诗
散文集
散热器
散热片
散见于
敬老院
数不清
数分钟
数十万
数十个
数十位
数十名
数十家
数十年
数十种
数十篇
数千万
数千名
数千年
数字化
数字式
数字键
数学家
数学系
数据包
数据库
数据流
数据线
数最多
数理化
数百万
数百个
数百名
数百家
数百年
数量级
整体性
文件名
文件夹
文化厅
文化史
文化圈
文化宫
文化局
文化界
文化站
文化节
文化课
文化路
文化部
文化馆
文天祥
文字学
文学史
文学奖
文学家
文学性
文学界
文学社
文学类
文学系
文学院
文山州
文工团
文明办
文明史
文明村
文汇报
文物局
文献学
文科生
文艺学
文艺家
文艺界
文言文
斗兽场
斜对面
断路器
斯坦福
斯大林
斯巴达
斯托克
斯拉夫
斯柯达
斯特拉
斯科特
斯蒂芬
斯诺克
新一代
新一轮
新世界
新世纪
新东方
新乡市
新人奖
新余市
新加坡
新动力
新华社
新华网
新华路
新台币
新台阶
新品种
新四军
新城区
新大陆
新天地
新干线
新德里
新思维
新思路
新技能
新政府
新教材
新文化
新文学
新机制
新机遇
新浪网
新生代
新生儿
新石器
新篇章
新纪元
新街口
新西兰
新课标
新课程
新进展
新途径
新闻奖
新闻学
新闻界
新闻稿
新闻系
新闻网
新闻部
新鲜事
新鲜感
方便面
方向性
方向盘
方法论
方程式
方程组
方面军
施工图
旁观者
旅游业
旅游区
旅游局
旅游者
旅游节
旅行团
旅行社
旅行者
旅行车
旗舰店
无人机
无休止
无党派
无公害
无名指
无名氏
无害化
无异于
无异议
无形中
无性系
无意识
无意间
无所谓
无数个
无数次
无机盐
无条件
无止境
无污染
无症状
无神论
无穷的
无纸化
无纺布
无线电
无花果
无论是
无锡市
无障碍
无霜期
日光灯
日内瓦
日报社
日本国
日本语
日本队
日照市
日用品
日程表
日线图
日耳曼
旧唐书
旧社会
旧金山
早产儿
时不时
时代性
时代感
时尚界
时报讯
时效性
时间段
时间表
昆仑山
昆士兰
昆山市
昆明市
昌平区
明信片
明嘉靖
明太祖
明崇祯
明成祖
明永乐
明洪武
明王朝
易建联
易方达
易消化
星巴克
星期一
星期三
星期二
星期五
星期六
星期四
星期天
星期日
昭通市
是不是
是否是
是因为
显微镜
显示器
显示屏
晋升为
晋城市
晋江市
晒太阳
晚自习
普及率
普吉岛
普外科
普希金
普拉多
普洱茶
普通人
普通股
普通话
普遍性
普陀区
普陀山
普鲁士
景德镇
晶体管
晶状体
智能化
智能卡
智能型
智能机
暂住证
暂时性
暖暖的
暖气片
暗地里
暗物质
暗红色
暴风雨
暴风雪
曲棍球
曲靖市
更何况
更年期
更衣室
更让人
曹雪芹
曼哈顿
曾一度
曾国藩
曾用名
曾祖父
替代品
最优化
最低价
最低点
最出色
最前沿
最大值
最大化
最小化
最底层
最起码
最高价
最高分
最高处
最高峰
最高点
最高级
月工资
有利于
有别于
有助于
有心人
有志于
有情人
有意思
有意识
有感于
有把握
有效性
有效期
有效率
有效票
有时候
有机体
有机物
有机肥
有机质
有机酸
有林地
有没有
有点儿
有的是
有益于
有赖于
有钱人
有限元
朋友圈
朋友家
服务业
服务区
服务员
服务商
服务器
服务型
服务性
服务生
服务站
服务费
服务部
服务队
服装店
望远镜
朝阳区
朝阳市
朝鲜族
朝鲜语
期望值
木乃伊
木制品
木地板
木结构
未婚夫
未婚妻
未成年
未成熟
未知数
未确定
末班车
本世纪
本土化
本地人
本地化
本学科
本手册
本杰明
本溪市
本科生
本行业
朱丽叶
朱元璋
朱自清
机关报
机动性
机动车
机器人
机械化
机械厂
机械式
机械系
机顶盒
杀人案
杀人犯
杀伤力
杀手锏
杀菌剂
杀虫剂
杂交种
杂志社
杂货店
权威性
李世民
李先生
李光耀
李克强
李冰冰
李商隐
李嘉诚
李大钊
李宇春
李宗仁
李小璐
李小龙
李彦宏
李斯特
李时珍
李清照
李自成
李连杰
李鸿章
村主任
村委会
村干部
村支书
村支部
村里人
杜兰特
杜鹃花
条形码
来不及
来得及
来来来
来源于
来访者
杨万里
杨先生
杨浦区
杨贵妃
杭州人
杭州市
杭州湾
杰克逊
杰拉德
松江区
松花江
极少数
构筑物
林业局
林业部
林书豪
林俊杰
林先生
林则徐
林学院
林徽因
林志玲
林志颖
林科院
林语堂
林黛玉
枢密院
枢纽站
枣庄市
架构师
架飞机
枸杞子
柏拉图
柏油路
染色体
柔韧性
柠檬汁
柠檬酸
查尔斯
柬埔寨
柳宗元
柳州市
柴油机
标准件
标准化
标准型
标准版
标准间
标志性
标志牌
标志物
标的物
标识符
栖息地
校党委
校内外
校友会
校园网
校领导
株洲市
样板房
核动力
核工业
核心区
核桃仁
核武器
核潜艇
核燃料
核电厂
核电站
核聚变
核苷酸
核试验
核黄素
根据地
根本性
根状茎
格兰特
格式化
格拉斯
格拉纳
桂林市
桃花源
桃花运
案发后
桑塔纳
桑德兰
桑拿浴
档案室
档案局
档案馆
桥头堡
梁启超
梁朝伟
梁武帝
梅兰芳
梅州市
梅艳芳
梅花鹿
梦工厂
梧州市
梵蒂冈
检察员
检察官
检察长
检察院
检查和
检查站
检查组
检测仪
检测器
检疫局
检验科
棋牌室
棒棒糖
棕黄色
棚户区
植物园
植物学
植物性
植物油
椎间盘
椭圆形
椭圆状
概念股
概念车
概率论
榆林市
榴弹炮
模块化
模拟器
模拟题
模特儿
橄榄油
橄榄球
橙黄色
次新股
欢乐谷
欢乐颂
欧佩克
欧元区
欧洲人
欧洲杯
欧莱雅
欧阳修
歌剧院
歌唱家
歌舞剧
歌舞团
止回阀
正义感
正厅级
正回购
正处级
正常人
正常值
正常化
正方形
正确性
正规化
此基础
步兵师
步步高
步行者
步行街
武侯区
武则天
武夷山
武当山
武昌区
武汉市
武装部
死亡率
殊不知
残奥会
残疾人
殖民地
殖民者
殡仪馆
段时间
毁灭性
母亲河
母亲节
母公司
每分钟
每周五
每周六
毒理学
比不上
比亚迪
比例尺
比利时
比基尼
比如说
比较慢
比较法
毕业班
毕业生
毕业证
毕加索
毛主席
毛利率
毛泽东
毛细管
氏族谱
氏硬度
民主党
民主化
民俗学
民商法
民政厅
民政局
民政部
民族乡
民族学
民法典
民航局
民进党
气候带
气管炎
气象厅
气象台
气象学
气象局
氧化剂
氧化物
氧化酶
氧化铝
氧化锌
氨基酸
氯化钠
水产品
水分子
水利厅
水利局
水利部
水务局
水墨画
水彩画
水族箱
水族馆
水晶宫
水杨酸
水污染
水泥厂
水泥路
水浒传
水源地
水溶性
水溶液
水电站
水经注
水蒸气
水资源
水轮机
水龙头
永久性
永嘉县
永州市
求知欲
求职者
汇总表
汉中市
汉武帝
汉白玉
汉语言
汉诺威
汉高祖
汕头市
汕尾市
江北区
江宁区
江泽民
江苏省
江西省
江门市
江阴市
污染源
污染物
汤普森
汪精卫
汽油机
汽车城
汽车站
汽轮机
沃尔夫
沃尔沃
沃尔特
沃尔玛
沈从文
沈阳市
沉积物
沙尔克
沙尘暴
没事儿
没什么
没关系
没想到
没意思
沧州市
河东区
河北省
河南人
河南省
河源市
油气田
油画展
油菜花
治愈率
治疗仪
治疗学
治疗师
沼气池
沼泽地
泉州市
泌尿系
法兰克
法兰西
法制办
法制化
法国人
法学会
法学家
法学院
法律系
法拉利
法治化
法理学
法西斯
泡打粉
波动性
波士顿
波尔图
波尔多
波特兰
波罗蜜
泥石流
注册号
注册地
注册表
注射剂
注射器
注射液
注意力
泰安市
泰州市
泰戈尔
泸州市
泸沽湖
洗发水
洗手间
洗涤剂
洗碗机
洗衣房
洗衣服
洗衣机
洗衣粉
洗面奶
洛杉矶
洛阳市
洞察力
洞庭湖
活动区
活动室
活动家
活动性
活化石
活性剂
活性炭
活生生
洽谈会
派出所
流动性
流动站
流化床
流口水
流媒体
流星雨
流水线
流浪汉
流浪狗
流浪者
流程图
流线型
流行性
流行语
流通股
流量计
浅绿色
浅褐色
浅黄色
测定仪
测试仪
测试题
测量仪
济南市
济宁市
济州岛
浏览器
浏览量
浏阳市
浓浓的
浙江省
海事局
海产品
海内外
海南岛
海南省
海口市
海外版
海岸线
海平面
海德堡
海明威
海洛因
海淀区
海王星
海珠区
消化性
消化道
消毒剂
消毒柜
消耗量
消费品
消费税
消费类
消费者
消费量
消防员
消防车
消防队
涉及面
润滑剂
润滑油
润滑脂
涨停板
涨跌幅
液化气
液压油
淄博市
淋巴瘤
淋巴结
淘宝网
淘汰赛
淡水鱼
淡淡的
淡紫色
淡红色
淡绿色
淡褐色
淡黄色
淮北市
淮南子
淮南市
淮安市
深交所
深加工
深呼吸
深圳市
深层次
深成指
深深地
深绿色
深蓝色
深褐色
混交林
混凝土
混合型
混合液
混合物
混日子
混血儿
添加剂
清一色
清光绪
清同治
清政府
清明节
清晰度
清洁剂
清洁工
清洗剂
清洗机
清真寺
清远市
清除率
渗透到
渗透压
渗透性
渗透率
渝中区
渝北区
温哥华
温家宝
温州市
温度计
温开水
温湿度
渭南市
港交所
港澳台
游乐园
游乐场
游击战
游击队
游戏性
游戏机
游泳池
游泳馆
游览区
游览车
湄公河
湖北省
湖南人
湖南省
湖州市
湘潭市
湛江市
湿淀粉
源代码
溶解度
溶解性
滁州市
滑铁卢
滑雪场
滞纳金
满天飞
满意度
满满的
满足感
滤波器
滤清器
滨州市
演唱会
演唱者
演奏家
演播室
演艺圈
漫画家
漯河市
漳州市
潍坊市
潘多拉
潘金莲
潜伏期
潜意识
潜规则
潮州市
潮间带
澜沧江
激光器
濮阳市
灌木丛
火山口
火山岩
火箭弹
火箭炮
火箭队
火腿肠
火花塞
火车头
火车票
火车站
火锅店
火龙果
灭火剂
灭火器
灰姑娘
灰白色
灰绿色
灰褐色
灰黄色
灰黑色
灵敏度
灵活性
灾害性
灾难性
点击率
点对点
点点头
炼油厂
烈士墓
烟台市
热力学
热塑性
热处理
热插拔
热效率
热气球
热水器
热电偶
热电厂
热衷于
热身赛
热那亚
焦作市
焦虑症
煤化工
煤层气
照明灯
照相机
照镜子
熟猪油
熟练地
燃烧器
燃烧室
爆发力
爆发式
爆炸性
爆米花
爱丁堡
爱不爱
爱丽丝
爱国者
爱好者
爱尔兰
爱德华
爱情观
爱琴海
爱立信
爱迪生
爱马仕
爵士乐
父母亲
爽肤水
牙买加
牛仔裤
牛油果
牛皮癣
牛羊肉
牛肉面
牡丹江
牡丹花
牧羊犬
物业费
物价局
物权法
物流业
物流园
物理学
物理系
物理量
牵引力
牵引车
特产品
特别奖
特别版
特大号
特大型
特异性
特斯拉
特朗普
特殊性
特洛伊
特派员
特种兵
特等奖
特色化
特色菜
特长生
牺牲品
犹太人
犹太教
狂欢节
狂犬病
狄仁杰
狙击手
独创性
独特性
独立团
独立性
独角兽
狮子山
狮子座
猕猴桃
猪八戒
猪瘦肉
猪笼草
猫头鹰
献爱心
玄幻类
玄武岩
玉林市
玉溪市
玉米粒
玉米面
王先生
王力宏
王国维
王女士
王安石
王家卫
王小波
王府井
王羲之
王阳明
玛丽亚
玛利亚
玩意儿
玫瑰花
环保型
环保局
环保部
环形山
环渤海
环球网
现代人
现代化
现代性
现代感
现场会
现如今
现当代
现象学
现金流
现阶段
玻璃体
玻璃杯
玻璃瓶
玻璃窗
玻璃钢
珊瑚礁
珍珠港
珍珠粉
珍藏版
珠三角
珠海市
班主任
班集体
球场上
球蛋白
球轴承
理事会
理事长
理发师
理发店
理学院
理工科
理想化
理查德
理科生
理论家
理论性
理论界
理论课
琉璃瓦
瑞安市
瓦格纳
瓶装水
甘肃省
甚至于
甜甜的
甜面酱
生产力
生产厂
生产商
生产型
生产性
生产率
生产线
生产者
生产量
生产队
生力军
生命体
生命力
生命线
生态化
生态园
生态圈
生态型
生态学
生意人
生效日
生殖器
生殖道
生活化
生活区
生活圈
生活费
生活馆
生物体
生物学
生物碱
生物系
生物质
生物钟
生理学
生理性
生育期
生长期
用不着
用户名
用户数
用材林
用水量
用电量
田径场
甲氧基
甲状腺
甲骨文
申报表
申请书
申请人
申请者
申请表
电信号
电冰箱
电加热
电动机
电动车
电化学
电子书
电子化
电子学
电子版
电子琴
电容器
电影史
电影版
电影票
电影节
电影院
电教室
电气化
电池组
电源线
电火花
电瓶车
电磁场
电磁波
电磁炉
电算化
电线杆
电脑前
电视剧
电视台
电视塔
电视机
电解液
电解质
电话机
电话线
电路板
电阻率
电风扇
电饭煲
电饭锅
男一号
男子汉
男孩子
男朋友
男歌手
男演员
男青年
男高音
畅销书
留下来
留学生
畜产品
畜牧业
番禺区
番茄酱
疑难病
疗养院
病原体
病原菌
病患者
病毒性
病理学
病理性
病虫害
癌细胞
癫痫病
登记日
登记表
登记证
白云区
白云山
白兰地
白内障
白垩纪
白居易
白开水
白日梦
白炽灯
白热化
白癜风
白皮书
白砂糖
白粉病
白细胞
白羊座
白芝麻
白萝卜
白蛇传
白蛋白
白血病
白话文
百万元
百余人
百余年
百余篇
百公里
百分之
百分比
百分点
百分百
百千万
百家姓
百富榜
百老汇
百花奖
皇太后
皇太子
皇太极
皮划艇
皮埃尔
皮肤病
皮肤科
皮脂腺
盆腔炎
益智类
益生菌
益阳市
盐城市
监事会
监察员
监察室
监察局
监察部
监护人
监测站
监督员
监督局
监督权
监管局
监视器
目击者
目的地
目的性
直升机
直播间
直流电
直肠癌
直营店
直辖市
直通车
相似性
相关性
相关者
相匹配
相容性
相对论
相当于
相衔接
相配套
省人大
省内外
省军区
省区市
省市级
省政协
省政府
省纪委
省辖市
省部级
眉山市
看上去
看不到
看不惯
看不起
看守所
看得出
看得见
看清楚
看热闹
看电视
看病难
看起来
真善美
真实性
真实感
真空泵
真面目
眼睁睁
眼药水
眼镜蛇
着力点
着眼于
睁开眼
睡梦中
睡觉时
睫毛膏
瞄准镜
瞧不起
知名度
知情人
知情权
知识库
知识性
知识点
知识面
短时间
短期内
短短的
短距离
石家庄
石景山
石油气
石灰岩
石灰石
石英砂
矿业权
矿产品
矿务局
矿泉水
矿物质
研修班
研发部
研究会
研究员
研究型
研究室
研究性
研究所
研究生
研究组
研究者
研究部
研究院
研讨会
破坏力
破坏性
破碎机
硅橡胶
硅酸盐
硕士点
硕士生
硝酸盐
硫化氢
硫化物
硫胺素
硫酸盐
硬生生
确定性
碳纤维
碳酸盐
碳酸钙
磁共振
磷酸盐
示意图
示范区
示范县
示范园
示范性
示范村
示范校
示范点
礼拜堂
社会党
社会化
社会学
社会性
社保局
社科院
祁连山
祖父母
神农架
神学院
神秘感
神经元
神经性
神经病
神经质
禁不住
福克斯
福利院
福州市
福布斯
福建省
福斯特
福田区
离不开
离合器
离心力
离心机
离心泵
离退休
禽流感
禾本科
私家车
私密性
私底下
私有化
私生子
私生活
秋冬季
种植业
种植园
科威特
科学化
科学史
科学家
科学性
科学界
科学系
科学院
科技厅
科技园
科技型
科技奖
科技局
科技部
科技馆
科研所
科科长
科索沃
科维奇
秘书处
秘书长
租房子
秦始皇
秦皇岛
积分榜
积极性
称之为
称得上
移动式
移民局
程序化
程序员
税务局
税务所
稳定剂
稳定性
稻瘟病
稻草人
稽查局
穆斯林
空压机
空手道
空间站
穿山甲
穿衣服
穿透力
突击队
突发性
突尼斯
突破口
突破性
立交桥
立体化
立体声
立体感
立方体
立方米
立法会
立法权
立足点
立陶宛
竞争力
竞争性
竞争者
竞技场
章子怡
端午节
笑了笑
笔记本
第一个
第一代
第一件
第一任
第一份
第一位
第一册
第一副
第一卷
第一句
第一台
第一名
第一周
第一回
第一场
第一天
第一套
第一季
第一家
第一层
第一届
第一年
第一座
第一张
第一所
第一手
第一批
第一支
第一期
第一本
第一条
第一架
第一次
第一款
第一步
第一段
第一点
第一版
第一眼
第一种
第一站
第一章
第一笔
第一篇
第一类
第一级
第一线
第一艘
第一节
第一轮
第一辆
第一辑
第一道
第一部
第一集
第一项
第一颗
第一首
第七名
第七届
第七条
第七次
第七章
第七节
第三个
第三代
第三位
第三卷
第三名
第三场
第三天
第三层
第三届
第三年
第三张
第三批
第三排
第三方
第三期
第三条
第三次
第三款
第三步
第三版
第三种
第三章
第三篇
第三类
第三者
第三节
第三部
第三集
第三项
第九届
第九条
第九次
第九章
第二个
第二代
第二任
第二位
第二十
第二卷
第二名
第二场
第二天
第二季
第二家
第二层
第二届
第二年
第二张
第二批
第二排
第二期
第二条
第二次
第二款
第二步
第二段
第二点
第二种
第二章
第二篇
第二类
第二级
第二节
第二轮
第二辑
第二部
第二集
第二项
第五个
第五代
第五十
第五名
第五届
第五期
第五条
第五次
第五章
第五节
第八届
第八条
第八次
第八章
第六代
第六名
第六届
第六条
第六次
第六章
第六节
第十一
第十七
第十三
第十九
第十二
第十五
第十八
第十六
第十四
第十届
第十条
第十次
第十章
第四个
第四代
第四位
第四卷
第四名
第四天
第四届
第四批
第四期
第四条
第四次
第四步
第四章
第四纪
第四节
第四部
笼罩着
等同于
等离子
策划人
策划师
策划部
筹备组
简单化
算不上
管委会
管弦乐
管理区
管理员
管理器
管理处
管理学
管理局
管理层
管理所
管理权
管理法
管理科
管理站
管理系
管理者
管理费
管理部
管辖权
篆刻家
篮球场
篮球赛
篮球队
米其林
米左右
米歇尔
类产品
类固醇
类图书
类药物
类风湿
粉煤灰
粉碎机
粉红色
粒细胞
粗糙度
粗脂肪
粘合剂
粮食局
精加工
精品展
精度高
精气神
精炼油
精确度
精神病
精神科
精细化
糖尿病
糯米粉
系主任
系列剧
系列化
系列赛
系统化
系统地
系统对
系统性
索纳塔
索罗斯
索菲亚
索马里
紧凑型
紧固件
紧接着
紧迫性
紧迫感
紫外光
紫外线
紫砂壶
紫禁城
紫红色
紫罗兰
紫褐色
繁体字
繁殖期
红十字
红卫兵
红外线
红宝石
红树林
红楼梦
红河州
红烧肉
红红的
红细胞
红绿灯
红萝卜
红褐色
红豆杉
红辣椒
红霉素
红领巾
纤维化
纤维素
约束力
约瑟夫
约翰逊
纪录片
纪念品
纪念堂
纪念塔
纪念币
纪念日
纪念碑
纪念馆
纪检组
纯净水
纯天然
纯收入
纳税人
纳西族
纺织品
纺锤形
纽伦堡
纽约州
纽约市
线粒体
线路板
练习册
练习曲
练习生
练习题
组合体
组合式
组合成
组委会
组成员
组织奖
组织学
组织法
组织者
组织部
细细的
细胞壁
细胞核
细胞膜
细胞质
细菌性
终点站
终结者
绍兴市
经不起
经常性
经得起
经济体
经济区
经济史
经济圈
经济型
经济学
经济师
经济带
经济性
经济林
经济法
经济系
经济网
经理人
经纪人
经营性
经营户
经营权
经营者
经贸委
经销商
经验值
结了婚
结合部
结婚证
结实率
结构件
结构化
结构性
结核病
结肠炎
结肠癌
结膜炎
给事中
给排水
绝对值
绝缘子
统一性
统战部
统治者
统计学
统计局
统计表
继发性
继承人
继承权
继承者
继电器
维也纳
维他命
维修点
维克多
维吾尔
维生素
维纳斯
绵阳市
综合体
综合型
综合处
综合征
综合性
综合楼
综合症
综合类
综治办
绿化带
绿化率
绿地率
绿松石
绿豆芽
缓冲区
缔约国
缔约方
缔造者
编写组
编委会
编年史
编码器
编者按
编译器
编辑器
编辑部
缝纫机
缺乏症
缺血性
缺铁性
网球场
网络化
网络版
罗伯特
罗宾逊
罗密欧
罗斯福
罗杰斯
罗永浩
罗汉果
罗湖区
置身于
美人鱼
美利坚
美国队
美容师
美容院
美术史
美术学
美术室
美术家
美术师
美术系
美术馆
美男子
美联储
美誉度
美食家
美食节
美食街
群众性
群体性
羽毛球
羽绒服
翰林院
翻译家
老一辈
老中医
老人家
老佛爷
老先生
老同志
老城区
老大爷
老天爷
老太太
老头子
老奶奶
老字号
老实人
老干妈
老干部
老年人
老年性
老年病
老房子
老朋友
老板娘
老爷子
老爷爷
老百姓
老祖宗
老龄化
考古学
考察团
考试网
考试院
考试题
耍流氓
耐久性
耐受性
耐热性
耐磨性
耐腐蚀
耐药性
耐高温
耗电量
耳鼻咽
耶和华
聊城市
聊天室
聊聊天
职业化
职业病
联合会
联合体
联合国
联合社
联系人
联络员
联络处
联谊会
联轴器
聘任制
聚丙烯
聚乙烯
聚合物
聚居地
聚氨酯
聚集区
聚集地
聪明人
肇事者
肇庆市
肉制品
肌无力
肖像画
肝功能
肝硬化
肝细胞
股东会
股份制
股骨头
肥胖症
肩关节
肩周炎
肩负着
肯尼亚
肯尼迪
肯德基
肺动脉
肺气肿
肺结核
肾上腺
肾功能
肾小球
肾小管
肾结石
肾脏病
胃溃疡
胃肠道
胆囊炎
胆固醇
胆红素
胆结石
胜利者
胡志明
胡椒粉
胡萝卜
胡锦涛
胰岛素
胰腺炎
胰腺癌
胶合板
胶囊剂
胶版纸
胶粘剂
胸外科
能力差
能动性
能见度
脂肪肝
脂肪酸
脂蛋白
脑出血
脑海中
脑神经
脑组织
脑细胞
脑脊液
脑膜炎
脑血栓
脑血管
脚手架
脱口秀
腐殖质
腐蚀性
腓特烈
腰腿痛
腹股沟
腹腔镜
膝关节
自主性
自主权
自习室
自信心
自制力
自动化
自动挡
自助游
自助餐
自卫队
自发性
自定义
自尊心
自来水
自民党
自治区
自治县
自治州
自然人
自然村
自然界
自由人
自由党
自由化
自由度
自由泳
自称为
自行车
自觉性
自豪感
自贡市
自闭症
臭豆腐
致病性
致病菌
致癌物
舍不得
舒适型
舒适度
舒适性
舒适感
舒适版
舞台剧
舞蹈家
舟山市
航天员
航天器
航空兵
航空器
航空港
航站楼
色拉油
色香味
艺术化
艺术史
艺术品
艺术团
艺术家
艺术展
艺术性
艺术界
艺术类
艺术系
艺术节
艺术馆
艾滋病
节假日
节奏感
节度使
节目组
节能灯
芜湖市
芝加哥
芝麻油
芝麻酱
芭蕾舞
芯片组
花园式
花园里
花岗岩
花岗石
花木兰
花果山
花生油
花生米
花都区
花青素
花鸟画
苍南县
苏东坡
苏州市
苏格兰
苏维埃
苏黎世
若干个
若干名
若干年
苯甲酸
英国人
英文版
英格兰
英特尔
英联邦
英语系
英雄传
茂名市
范仲淹
范冰冰
范围广
茅台酒
茉莉花
茶多酚
茶文化
茶餐厅
荆州市
荆门市
荒漠化
荔湾区
荣誉奖
荣誉感
荧光灯
荨麻疹
药学院
药理学
药监局
荷兰人
荷尔蒙
莆田市
莫扎特
莫文蔚
莫斯科
莫过于
莫里斯
莫高窟
莱斯特
莱比锡
莱芜市
莱茵河
莲花山
获奖者
获得者
菌丝体
菏泽市
菜市场
菜篮子
菩提树
菲亚特
菲利普
菲尔德
菲律宾
萍乡市
萤火虫
营业厅
营业员
营业性
营业税
营业部
营业额
营养品
营养学
营养师
营养素
营口市
营销学
萧山区
萨克斯
萨克森
落叶松
落脚点
著作权
葡萄园
葡萄干
葡萄牙
葡萄糖
葡萄酒
董事会
董事局
董事长
董其昌
葫芦岛
蒋介石
蒋经国
蒙古人
蒙古国
蒙古族
蒙古语
蒲公英
蒲松龄
蒸发器
蒸汽机
蒸馏水
蓄水池
蓄电池
蓝宝石
蓝皮书
蓝筹股
蔡依林
蔡元培
蔷薇科
薄薄的
虚拟化
虚拟机
虚荣心
虹口区
蚌埠市
蛋白尿
蛋白质
蛋白酶
蜘蛛侠
蝙蝠侠
蝴蝶结
融资券
融资难
螺旋桨
螺旋藻
血小板
血液病
血管瘤
血细胞
行不行
行不通
行业性
行为人
行为学
行天下
行政区
行政村
行政法
行政院
行李箱
行道树
衍生物
衡水市
衡阳市
衢州市
衣原体
补习班
补偿费
补偿金
补助费
补助金
表决权
表演奖
表演系
表演者
表现力
表达式
表面积
袁世凯
被告人
被害人
被誉为
裁判员
裁量权
装甲师
装甲车
装载机
装饰品
装饰性
装饰画
襄樊市
西兰花
西北角
西北部
西南角
西南边
西南部
西南面
西厢记
西向东
西城区
西大街
西宁市
西安市
西方人
西洋参
西海岸
西游记
西湖区
西王母
西班牙
西红柿
西葫芦
西西里
西门子
西雅图
西餐厅
要不是
要不然
覆盖率
覆盖面
见效快
见面会
观世音
观众们
观察力
观察员
观察者
观景台
观赏性
观赏鱼
观音山
规划区
规划局
规划师
规律性
规模化
规模较
规范化
规范性
视星等
视神经
视网膜
角度看
角质层
解剖学
解放军
解放前
解放区
解放后
解放路
解码器
解释权
触摸屏
詹姆士
詹姆斯
警务室
警卫队
警察局
警戒线
计划书
计数器
计时器
计生委
计算器
计算机
认可度
认同感
认知度
认识论
讨论会
训练场
训练班
训练营
议定书
议论文
记不清
记事本
记录仪
记忆力
记忆法
记者会
记者团
记者站
讲清楚
许可法
许可证
许多年
许昌市
论文集
设计图
设计奖
设计局
设计师
设计者
设计院
访问量
证券业
证券化
证券报
证券法
证明书
证监会
评估师
评委会
评审团
评论员
评论家
识字率
诈骗罪
诉讼法
诊断学
试用期
试试看
试运行
试验区
试验场
试验室
试验机
试验站
诗书画
话语权
该不该
该游戏
语文课
语言学
语音室
误导性
误认为
诱惑力
说不上
说不出
说不定
说不清
说了算
说到底
说实话
说明书
说明会
说服力
说白了
说真的
请原谅
请参阅
请求权
诸侯国
诸葛亮
诺基亚
诺曼底
诺维奇
诺贝尔
读书人
读书会
读卡器
课题组
调味品
调味料
调查局
调查组
调查队
调研员
调节剂
调节器
调节阀
谈一谈
谈不上
谈恋爱
谋杀案
谢霆锋
谷氨酸
豆制品
豆瓣酱
豆腐干
象征性
象牙塔
豪华型
贝多芬
负债表
负离子
负责人
负责制
贡献奖
贡献率
财产权
财务处
财务科
财务部
财政厅
财政学
财政局
财政性
财政部
财经类
责任书
责任人
责任制
责任心
责任感
责任者
责任险
败血症
质监局
质量奖
贫困县
贫困户
贫困村
贫困生
贫民窟
购买力
购买者
购房人
购房者
购物车
贵宾室
贵州省
贵港市
贵金属
贵阳市
贷款人
贸易商
贺兰山
贾宝玉
资料室
资料库
资料性
资本化
资本家
资本论
资本金
资格证
资格赛
资源化
资源库
资源税
资金流
资金量
资金面
赔偿金
赖氨酸
赚大钱
赞助商
赞比亚
赠送给
赣州市
赤卫队
赤峰市
赤裸裸
走势图
赵先生
赵匡胤
赵本山
赶不上
起义军
起居室
起点站
起草人
起落架
起跑线
起重机
超临界
超声波
超大型
超新星
超自然
超负荷
超音速
超高压
越来越
越秀区
越野车
趣味性
足协杯
足总杯
足球场
足球赛
足球队
跆拳道
跑步机
跟不上
跨专业
跨世纪
跨学科
跨平台
跨越式
跨部门
路易斯
路由器
路线图
路透社
跻身于
身份证
车友会
车流量
车牌号
车管所
转会费
转化率
转向架
转向灯
转型期
转基因
转折点
转换器
转氨酶
转眼间
转载自
转过身
软件包
软件园
软硬件
软科学
软组织
软胶囊
轰炸机
轻工业
轻轻地
轻量级
较完整
辅助性
辅导书
辅导员
辅导班
输入法
输卵管
输变电
输尿管
输送到
输送带
输送机
输配电
辛弃疾
辛普森
辣椒油
辣椒粉
辣椒酱
辩护人
辩论赛
辩证法
边缘化
辽宁省
达尔文
达州市
达拉斯
达标率
达芬奇
迄今已
过不去
过半数
过山车
过敏原
过敏性
过日子
过来人
过渡期
过滤器
过滤网
过电压
迈克尔
迈阿密
运动会
运动员
运动场
运动型
运动量
运动队
运动鞋
运城市
运筹学
运营商
运输业
运输机
运输车
近三年
近义词
近些年
近亲属
近代史
近几年
近年来
近现代
近视眼
这年头
这方面
这时候
这段话
这部分
进一步
进修班
进出口
进出境
进化论
进口商
进口车
进口量
进步奖
进气口
进社区
进行性
进行曲
远不止
远征军
远红外
远距离
远远地
违约金
连云港
连接器
连接处
连接线
连日来
连杆式
连环画
连续剧
连续性
连衣裙
连锁店
迪士尼
迪斯尼
迫击炮
追求者
追溯到
追随者
退休金
送审稿
适应性
适应症
适用性
适配器
逆变器
逆时针
选举权
选修课
选拔赛
选择性
选择权
选择题
透明化
透明度
透气性
通信业
通信网
通州区
通用性
通电话
通知书
通知单
通行证
通讯员
通讯录
通讯社
通辽市
通过率
通透性
通风处
造型师
造船厂
逻辑学
逻辑性
遂宁市
遇难者
道德经
道琼斯
遗传学
遗传性
遗传病
遥控器
遵义市
避孕套
避孕药
邀请函
邀请赛
邓丽君
邓小平
邢台市
那会儿
邮币卡
邮政局
邯郸市
邵阳市
邻居家
郁达夫
郁金香
郑州市
郑成功
部长级
郭富城
郭敬明
郭沫若
郴州市
都市人
都市报
都御史
都柏林
都江堰
都督府
鄱阳湖
配不上
酒店业
酪氨酸
酸中毒
酸碱度
醒来时
醒过来
采矿权
采购商
里斯本
里程碑
重复性
重头戏
重工业
重庆市
重机枪
重灾区
重特大
重要性
重重的
重量级
重金属
重阳节
重难点
野战军
金三角
金像奖
金刚石
金刚经
金华市
金字塔
金山区
金日成
金枪鱼
金沙江
金牛区
金牛座
金球奖
金瓶梅
金融业
金融学
金融界
金融类
金融街
金针菇
金钥匙
金银花
金马奖
金鹰奖
金黄色
针叶林
针对性
钓鱼台
钓鱼岛
钢丝绳
钢琴家
钢琴曲
钢铁厂
钦州市
钱塘江
钱学森
铁矿石
铁西区
铁观音
铁路局
铁路线
铁路网
铁道部
铜锣湾
铜陵市
铝合金
铝型材
银屑病
银川市
银杏树
银河系
银灰色
银白色
银监会
银监局
银联卡
银行业
银行卡
银行家
链球菌
销售员
销售商
销售者
销售部
销售量
销售额
锂离子
错别字
锡耶纳
锦州市
锦标赛
锦衣卫
镇党委
镇政府
镇江市
长三角
长宁区
长安区
长安城
长安街
长方形
长时间
长春市
长期性
长江路
长沙县
长沙市
长治市
长痘痘
长白山
长距离
长长的
长颈鹿
门诊部
闪光灯
闪光点
闪烁着
闪耀着
闭幕式
闯红灯
间歇性
闵行区
闻一多
闽南语
阅览室
阅读器
阅读网
阎锡山
阔叶林
阜阳市
防御力
防护服
防护林
防晒霜
防治法
防火墙
防盗门
防腐剂
防腐蚀
防辐射
防静电
阳江市
阳泉市
阳澄湖
阳离子
阴凉处
阴离子
阴道炎
阴阳师
阶段性
阻力位
阻塞性
阿修罗
阿克苏
阿富汗
阿尔法
阿尔泰
阿拉伯
阿斯顿
阿根廷
阿森纳
阿波罗
阿米巴
阿联酋
陀罗尼
陀螺仪
附加值
附加费
附加赛
附属物
附着力
附着物
陆家嘴
陆战队
陈先生
陈列室
陈列馆
陈寅恪
陈水扁
陈独秀
陌生人
降水量
降落伞
降雨量
限制性
陕西省
除尘器
除草剂
陨石坑
陪审团
陶渊明
陶行知
隋文帝
隋炀帝
隐私权
障碍性
障碍物
隶属于
难免会
雅典娜
雅加达
雅各布
雅安市
集中区
集中地
集中度
集中式
集中营
集合体
集团军
集团化
集成化
集散地
集约化
集装箱
雇佣兵
雌激素
雕塑家
雪铁龙
零售业
零售价
零售商
零售店
零售额
零花钱
零距离
零部件
零配件
需求量
需要量
霍华德
霓虹灯
青光眼
青城山
青壮年
青少年
青岛市
青年人
青年团
青年队
青春期
青春痘
青浦区
青海湖
青海省
青花瓷
青铜器
青霉素
静安区
静静地
静静的
非上市
非专业
非传统
非农业
非官方
非常低
非常少
非常规
非政府
非标准
非正常
非正式
非理性
非线性
非营利
非金属
非金融
非银行
面包车
面对面
革命军
革命家
革命性
革命者
革委会
鞍山市
韦斯特
韩国语
韩国队
韩非子
音乐会
音乐剧
音乐厅
音乐史
音乐学
音乐室
音乐家
音乐界
音乐系
音乐节
音视频
韶关市
项目组
项目部
顺义区
顺德区
顺时针
顽固性
顾不上
顾问团
颁奖礼
预产期
预付款
预决算
预处理
预备役
预备队
预应力
预算内
预算外
预选赛
预防性
领事馆
领先者
领头羊
领导人
领导力
领导层
领导者
领跑者
颈椎病
颐和园
颗粒物
颗粒状
题外话
颜真卿
颠覆性
风向标
风景区
风景画
风景线
风水学
风湿病
风生水
飞利浦
飞机场
飞行员
飞行器
食品厂
食物链
食用油
食用菌
食管癌
食药监
餐饮业
饮水机
饮用水
饱和度
首付款
首歌曲
马克思
马克斯
马六甲
马其顿
马化腾
马尼拉
马尾松
马布里
马德里
马戏团
马拉松
马来亚
马桶盖
马歇尔
马耳他
马自达
马英九
马赛克
马路上
马里奥
马铃薯
马鞍山
驱动力
驱动器
驱逐舰
驻马店
驾驶员
驾驶室
驾驶座
驾驶者
驾驶舱
驾驶证
骑士团
骨伤科
骨关节
骨子里
髋关节
高中生
高低压
高低温
高保真
高分子
高利贷
高加索
高压锅
高句丽
高品位
高品质
高圆圆
高密度
高富帅
高尔基
高尔夫
高层次
高岭土
高峰期
高年级
高强度
高性能
高技术
高效率
高新区
高晓松
高智商
高材生
高架桥
高标准
高水平
高洪波
高浓度
高清晰
高科技
高等级
高精度
高素质
高蛋白
高血压
高血糖
高血脂
高质量
高跟鞋
高速度
高速路
高难度
高雄市
高风险
高高的
鬼谷子
魁北克
魏忠贤
魔术师
魔法师
鱼肝油
鲈形目
鲜红色
鳞翅目
鸡尾酒
鸡蛋清
鸭绿江
鹅卵石
鹿特丹
麦克风
麦当劳
麦芽糖
麦迪逊
麻织品
麻辣烫
黄先生
黄冈市
黄宾虹
黄山市
黄庭坚
黄晓明
黄梅戏
黄浦区
黄浦江
黄白色
黄石市
黄绿色
黄花梨
黄花菜
黄褐斑
黄褐色
黄金周
黄鹤楼
黎巴嫩
黑名单
黑手党
黑木耳
黑板报
黑格尔
黑眼圈
黑社会
黑穗病
黑胡椒
黑色素
黑芝麻
黑衣人
黑褐色
黑龙江
默默地
鼓楼区
鼓浪屿
鼻咽癌
鼻窦炎
齐桓公
齐白石
龙卷风
龙岗区
龙岩市
0020
0755
0800
1000
1001
100g
100m
1010
1020
1024
1080
1100
1111
1200
1234
1250
1280
1300
1350
1389
1400
1500
1600
16gb
1700
1800
1840
1850
1860
1867
1868
1870
1871
1880
1882
1884
1885
1886
1888
1889
1890
1893
1894
1895
1896
1897
1898
1899
1900
1901
1902
1903
1904
1905
1906
1907
1908
1909
1910
1911
1912
1913
1914
1915
1916
1917
1918
1919
1920
1921
1922
1923
1924
1925
1926
1927
1928
1929
1930
1931
1932
1933
1934
1935
1936
1937
1938
1939
1940
1941
1942
1943
1944
1945
1946
1947
1948
1949
1950
1951
1952
1953
1954
1955
1956
1957
1958
1959
1960
1961
1962
1963
1964
1965
1966
1967
1968
1969
1970
1971
1972
1973
1974
1975
1976
1977
1978
1979
1980
1981
1982
1983
1984
1985
1986
1987
1988
1989
1990
1991
1992
1993
1994
1995
1996
1997
1998
1999
2000
2001
2002
2003
2004
2005
2006
2007
2008
2009
2010
2011
2012
2013
2014
2015
2016
2017
2018
2019
2020
2021
2022
2025
2030
2050
20cm
20mm
2100
2200
2300
2345
2400
2500
2600
2700
2800
2900
3000
30cm
30ml
3100
3200
32gb
3300
3400
3500
3600
3800
4000
4200
4399
4500
4600
4800
5000
500g
50cm
50ml
50mm
5500
6000
64gb
6500
7000
720p
7500
7x24
8000
9000
acca
acer
adam
adsl
ajax
alan
alex
also
andy
anna
anne
anti
apec
apps
area
arpg
arts
asia
asus
atom
audi
auto
baby
back
ball
band
bang
bank
base
bean
bear
bell
benz
best
beta
bill
bing
bios
bird
blog
blue
body
book
boot
boss
buff
c919
cafe
cake
call
camp
card
care
case
cctv
cdma
cell
chan
chen
city
club
cmos
coco
code
come
cook
cool
copy
core
css3
ctrl
dark
data
date
day1
day2
days
ddos
dean
dear
deep
dell
demo
dior
dota
down
dram
east
easy
ebay
echo
edge
edit
ella
elle
else
emba
emma
eric
eyes
face
fans
fast
feed
feel
fifa
file
film
find
fire
fish
five
font
food
ford
form
fpga
free
from
full
fung
gaga
game
gary
gear
gigi
girl
gmat
gold
good
h7n9
hair
hall
hard
have
hdmi
head
help
here
hero
high
hill
hold
home
hong
host
html
http
icon
idea
ieee
ikea
imax
info
into
ios7
ios9
ipad
ipod
iptv
ipv6
isbn
isis
item
jack
jane
java
jean
jeff
jing
jobs
john
jose
jpeg
json
july
jump
june
just
karl
kate
keep
kids
kimi
king
kiss
know
kong
kuso
lady
lake
land
last
left
life
like
lily
line
ling
link
lisa
list
live
lock
loft
logo
long
look
lost
love
lulu
macd
made
mail
main
make
mall
mama
maps
marc
mark
mary
mate
matt
mega
mems
menu
meta
mike
mind
ming
mini
miss
miui
moba
mode
momo
moon
more
most
moto
msci
muji
name
nana
nand
nano
nasa
nata
nbsp
news
next
nice
nick
nike
node
note
nova
null
oled
only
opec
open
oppo
over
pack
page
park
part
pass
path
paul
ping
pink
plan
play
plus
polo
pony
port
pose
post
pptv
puma
pure
push
quot
qvod
raid
rain
rate
read
real
rfid
rich
rick
rmvb
road
rock
room
root
rose
ruby
ryan
saas
said
sale
sars
sata
save
sean
self
shop
show
side
sign
sina
siri
site
size
skin
skip
smap
soft
sogo
soho
sohu
solo
some
song
sony
soul
span
star
stay
step
stop
sync
take
talk
team
tech
test
text
thai
than
that
they
this
time
tina
tips
tony
tour
town
tree
trip
true
tvbs
type
uber
unit
unix
usb3
user
vans
vera
very
view
visa
vive
vivi
vivo
wall
wang
want
wave
wear
week
well
west
what
when
wifi
wiki
will
win7
win8
wind
wine
wing
wish
with
wong
word
work
wwdc
xbox
xxxx
yang
year
yoga
york
your
yumi
zara
zero
zone
zoom
一不小心
一丝不苟
一个多月
一举一动
一举两得
一举成名
一事无成
一代宗师
一分为二
一切众生
一动不动
一千多年
一厢情愿
一塌糊涂
一天到晚
一如既往
一帆风顺
一席之地
一年一度
一年四季
一应俱全
一心一意
一成不变
一技之长
一无所有
一无所知
一无是处
一日三餐
一望无际
一本正经
一模一样
一步到位
一段距离
一气之下
一气呵成
一氧化碳
一汽集团
一波三折
一点一滴
一点一点
一片空白
一生一世
一百一十
一百三十
一百二十
一百六十
一百四十
一百多年
一目了然
一统天下
一网打尽
一脉相承
一般来讲
一般来说
一般而言
一般说来
一见钟情
一视同仁
一览无余
一触即发
一蹴而就
一蹶不振
一针见血
一面镜子
一鸣惊人
七十年代
万亿美元
万众瞩目
万劫不复
万平方米
万有引力
万立方米
三个代表
三中全会
三位一体
三分之一
三分之二
三十一年
三十三年
三十二年
三十五年
三十余年
三十六年
三十四年
三十多年
三国演义
三好学生
三峡工程
三峡库区
三星电子
三维空间
三联书店
三门峡市
上下左右
上个世纪
上呼吸道
上层建筑
上海东方
上海交大
上海地区
上海大众
上海大学
上海浦东
上班时间
下一阶段
下定决心
下属单位
下岗职工
下落不明
不一会儿
不为人知
不了了之
不亦乐乎
不仅如此
不以为然
不出意外
不切实际
不务正业
不动声色
不厌其烦
不可一世
不可估量
不可分割
不可多得
不可思议
不可或缺
不可抗力
不可收拾
不可磨灭
不可避免
不合时宜
不同之处
不同寻常
不吝赐教
不在少数
不在话下
不堪设想
不复存在
不好意思
不容乐观
不容忽视
不尽相同
不屈不挠
不屑一顾
不得而知
不怎么样
不惜一切
不懈努力
不折不扣
不拘一格
不择手段
不断丰富
不断创新
不断涌现
不正之风
不法分子
不由自主
不相上下
不知不觉
不知所措
不确定性
不管怎样
不约而同
不胜枚举
不能自拔
不解之缘
不言而喻
不计其数
不请自来
不谋而合
不足之处
不过如此
不遗余力
不顾一切
与世隔绝
与众不同
与日俱增
与时俱进
与此同时
与生俱来
专业技能
专业知识
专业训练
专业队伍
专员公署
专家学者
专家论证
专有名词
专用设备
专科学校
专门机构
专项规划
专题报道
世世代代
世代相传
世外桃源
世界华人
世界各地
世界大战
世界纪录
世界遗产
世界银行
世界领先
世说新语
世贸组织
丙烯酰胺
业主大会
业余时间
业内人士
业务流程
业务管理
业务素质
东京大学
东北三省
东北地区
东北大学
东北方向
东华大学
东南大学
东南西北
东山再起
东方明珠
东西南北
丝绸之路
两千多年
两国关系
两岸三地
两岸关系
两者之间
严厉打击
严格执行
严格把关
严格管理
严格遵守
严肃处理
丧心病狂
个人信息
个人信用
个人用户
个人电脑
个人经历
个人资料
个体经营
中专学校
中东地区
中产阶级
中介组织
中信证券
中信银行
中共中央
中兴通讯
中医医院
中医学院
中医理论
中华书局
中华文化
中华民国
中华民族
中南大学
中原地区
中国作协
中国台湾
中国大学
中国女排
中国政府
中国文联
中国林业
中国民航
中国电信
中国科协
中国移动
中国空军
中国联通
中国足协
中国银行
中国香港
中坚力量
中外合资
中央党校
中央军委
中央大学
中央委员
中央政府
中央空调
中央红军
中央纪委
中央美院
中央苏区
中央财经
中央银行
中央集权
中小企业
中小城市
中小学校
中小学生
中山公园
中山大学
中心医院
中枢神经
中等教育
中篇小说
中美关系
中老年人
中西合璧
中规中矩
丰富多彩
丰硕成果
为人处事
为人师表
为数不多
为民服务
主任医师
主任委员
主体工程
主力部队
主办单位
主导产业
主导产品
主持会议
主治医师
主管人员
主管部门
主营业务
主要用途
主要职责
主题公园
举一反三
举世瞩目
举世闻名
举例来说
举例说明
举手投足
举足轻重
久而久之
久负盛名
义不容辞
义务教育
义无反顾
乌鲁木齐
乐于助人
乐在其中
乐此不疲
乘风破浪
乙型肝炎
九三学社
九十年代
九龙坡区
也就是说
习以为常
乡镇企业
乡镇政府
书画作品
书画艺术
书面形式
乱七八糟
乾隆年间
乾隆皇帝
了如指掌
事与愿违
事业有成
事半功倍
事实证明
事故现场
二分之一
二十一年
二十一日
二十七年
二十七日
二十三年
二十三日
二十世纪
二十九年
二十二年
二十五年
二十五日
二十余年
二十八年
二十八日
二十六年
二十分钟
二十四年
二十四日
二十多个
二十多年
二次大战
二氧化硅
二氧化硫
二氧化碳
云南大学
互联网络
五中全会
五代十国
五分之一
五十周年
五十年代
五四运动
五年计划
五彩缤纷
五湖四海
五脏六腑
五花八门
五言律诗
五金交电
五颜六色
井然有序
亚伯拉罕
亚历山大
亚太地区
亚洲地区
亚洲电视
亚特兰大
亚硝酸盐
亚美尼亚
交叉路口
交响乐团
交感神经
交易中心
交易市场
交易方式
交易过程
交流学习
交流活动
交相辉映
交警大队
交通不便
交通事故
交通安全
交通工具
交通拥堵
交通枢纽
交通管制
交通管理
交通系统
交通警察
交通运输
交通部门
交通银行
产业基地
产业布局
产品价格
产品名称
产品开发
产品认证
产品设计
产品质量
产品销售
享有盛誉
京广铁路
亲密关系
亲戚朋友
亲朋好友
亲眼目睹
人与自然
人事管理
人事部门
人力物力
人力资本
人力资源
人员名单
人员培训
人员编制
人均收入
人大代表
人寿保险
人山人海
人工合成
人工智能
人才培养
人才辈出
人才需求
人文主义
人文科学
人机交互
人来人往
人杰地灵
人民代表
人民公社
人民团体
人民大学
人民广场
人民政府
人民日报
人民武装
人民法院
人民警察
人民银行
人物形象
人生价值
人生目标
人脉关系
人身安全
人身攻击
人身自由
人道主义
人际交往
人际关系
亿千瓦时
亿立方米
仅供参考
仅此而已
今年夏天
今年年底
今日热点
从业人员
从严治党
从古至今
从天而降
从头到尾
从小到大
从无到有
从未有过
从此以后
从零开始
仔细观察
仔细阅读
付出代价
代代相传
代表作品
代表大会
令人信服
令人发指
令人感动
令人满意
令人瞩目
以下内容
以人为本
以太网卡
以此类推
以身作则
仪器设备
仰卧起坐
价值体系
价格便宜
价格指数
价格昂贵
价格行情
任何一方
任何理由
任劳任怨
任重道远
企业法人
企业资质
伊丽莎白
伊斯兰教
休闲游戏
众所周知
众说纷纭
优先发展
优势互补
优惠政策
优惠活动
优抚对象
优生优育
优秀作品
优秀员工
优秀成果
优秀论文
优秀青年
优胜劣汰
优良传统
伙伴关系
会员单位
会展中心
会计信息
会计报表
会计核算
会议纪要
伞形花序
伟大旗帜
传动系统
传统工艺
传统节日
传统观念
传输速度
传输速率
伤痕累累
伦敦大学
似曾相识
住在一起
住房贷款
体力劳动
体弱多病
体系结构
体育中心
体育器材
体育场馆
体育彩票
体育运动
体育锻炼
何去何从
余平方米
佛教协会
佛罗伦萨
佛罗里达
作品展览
作息时间
使用手册
供不应求
供求关系
供电系统
依山傍水
依法处理
侥幸心理
侦探小说
侵华日军
俄亥俄州
保健作用
保健食品
保加利亚
保卫工作
保密工作
保护主义
保护意识
保护措施
保护环境
保持一致
保持平衡
保持稳定
保持良好
保温材料
保险公司
保险制度
保障制度
保驾护航
信号处理
信息中心
信息产业
信息内容
信息处理
信息安全
信息工程
信息技术
信息时代
信息检索
信息沟通
信息管理
信息系统
信手拈来
信用等级
修身养性
候补委员
借此机会
值得一提
值得一看
值得注意
倾国倾城
假冒伪劣
偏远地区
停业整顿
停止使用
停滞不前
停留时间
健康长寿
健身活动
储蓄存款
儿童乐园
儿童医院
儿童文学
充分发挥
充分考虑
充分肯定
充分说明
充分调动
充分运用
充满活力
先决条件
先后顺序
先进集体
光合作用
光大银行
光怪陆离
光明日报
光明正大
光荣称号
克利夫兰
克拉科夫
克服困难
克罗地亚
克莱斯勒
克里斯蒂
克里米亚
免疫系统
党员干部
党委书记
党政机关
党的基本
党的建设
党的纪律
党的领导
党风廉政
兢兢业业
入学考试
全体会议
全体师生
全军覆没
全力以赴
全力支持
全国人大
全国妇联
全国政协
全心全意
全球华人
全部都是
全面实施
全面实现
八十年代
八国联军
公交线路
公交车站
公共事业
公共交通
公共信息
公共场合
公共场所
公共安全
公共建筑
公共服务
公共汽车
公共秩序
公共财政
公共资源
公务员法
公司员工
公司总裁
公司总部
公司章程
公司股票
公安分局
公安大学
公安部门
公平交易
公平竞争
公用事业
公益活动
公立医院
公路交通
公路工程
公路运输
六中全会
六十周年
六十年代
六盘水市
兰博基尼
兰州大学
共产主义
共产党人
共产党员
共产国际
共同利益
共同努力
共同完成
共同开发
共青团员
关系密切
关键技术
关键问题
兴业银行
兴趣爱好
其乐融融
其他费用
其余部分
其实不然
具体内容
具体实施
具体情况
具体措施
具体操作
具体方法
具体来说
具体表现
兼职教师
内容提要
内容简介
内心深处
内部结构
再也不会
再也不能
再接再厉
再生能源
军事基地
军事学院
军事设施
军国主义
农业产业
农业大学
农业部门
农业银行
农副产品
农村公路
农村土地
农民协会
农民收入
农民起义
农田水利
农贸市场
冠状动脉
冥冥之中
冬暖夏凉
冬虫夏草
冲积平原
冷嘲热讽
准确无误
凤凰卫视
凯尔特人
凯迪拉克
凹凸不平
出乎意料
出人头地
出人意料
出其不意
出口创汇
出口商品
出土文物
出神入化
出租汽车
出类拔萃
出谋划策
函授大学
刀光剑影
分子结构
分支机构
分期付款
分析仪器
分析化学
分析方法
分析测试
分离出来
分类管理
分级管理
分道扬镳
分门别类
切实加强
切实可行
切实增强
切身利益
刑事案件
刑事犯罪
列宁格勒
列车运行
刚刚开始
创业投资
创业精神
创先争优
创意设计
创新能力
创造条件
创造财富
初具规模
初步设计
初级中学
初级阶段
利害关系
利润分配
利用外资
利用效率
利用职权
利益冲突
别具一格
别出心裁
别开生面
刮目相看
制作方法
刺激作用
刻不容缓
刻骨铭心
前列腺癌
前所未有
前提条件
剑桥大学
剧情简介
剧烈运动
副参谋长
副大队长
副董事长
力不从心
力所能及
力挽狂澜
办事机构
办公会议
功不可没
功成名就
功率因数
功能障碍
功能齐全
加勒比海
加工能力
加班加点
务工人员
动作游戏
动力电池
动力装置
动脉硬化
助人为乐
努力做到
努力奋斗
努力提高
努尔哈赤
励精图治
劳务输出
劳动工资
劳动强度
劳动报酬
劳动模范
劳动部门
劳斯莱斯
势力范围
势在必行
勃勃生机
勇往直前
勤勤恳恳
勤奋好学
勤工俭学
勾心斗角
包罗万象
包装材料
化学分析
化学反应
化学工业
化学工程
化学性质
化学物质
化学药品
化工产品
化工学院
化工行业
北京国安
北京地区
北京大学
北京奥运
北京市委
北京西站
北回归线
北方地区
北洋政府
北爱尔兰
匪夷所思
区域规划
区域试验
医务人员
医学专业
医学博士
医学院校
医治无效
医疗保健
医疗保险
医疗保障
医疗器械
医疗纠纷
医科大学
医药卫生
医院院长
十二指肠
十二生肖
十五分钟
十几分钟
十分之一
十分必要
十分重视
十字路口
十月革命
千丝万缕
千军万马
千千万万
千变万化
千奇百怪
千姿百态
千家万户
千差万别
千方百计
千篇一律
千辛万苦
升级换代
半壁江山
华东地区
华中地区
华侨大学
华北地区
华南地区
华夏银行
协会主席
协会会员
卓有成效
单反相机
南京军区
南京大学
南开大学
南斯拉夫
南方周末
南水北调
南沙群岛
博大精深
博洛尼亚
博采众长
卡斯特罗
卫冕冠军
卫生保健
卫生学校
卫生标准
卫生系统
卫生部门
卫生防疫
印第安人
危地马拉
危房改造
危机四伏
危险物品
即便如此
即插即用
即时通讯
卷土重来
厄瓜多尔
历历在目
历史学家
历史数据
历史背景
历史记录
历朝历代
压缩空气
厚积薄发
原始森林
原始社会
原汁原味
厦门大学
县委书记
参差不齐
参政议政
参考资料
参赛选手
友好关系
反反复复
反应速度
反腐倡廉
反舰导弹
发人深省
发展前景
发展势头
发展壮大
发展潜力
发展趋势
发扬光大
发放贷款
发明专利
发明创造
发现自己
发生争执
发生变化
发生意外
发电机组
发表声明
发表文章
发达国家
取得成功
取得联系
取而代之
取长补短
受宠若惊
受益匪浅
变化多端
变化规律
变化趋势
变幻莫测
变态反应
口腔溃疡
古今中外
古典主义
古典文学
古建筑群
古往今来
古色古香
另一方面
另辟蹊径
可不可以
可口可乐
可圈可点
可想而知
可持续性
可操作性
可有可无
可歌可泣
可见一斑
台湾地区
台湾大学
台湾海峡
叱咤风云
史无前例
司法机关
司法解释
司空见惯
司马相如
叹为观止
吃喝玩乐
吃苦耐劳
各位朋友
各具特色
各司其职
各式各样
各有不同
各有千秋
各种各样
各种因素
各种类型
各种规格
各行各业
各项事业
各项任务
合二为一
合作伙伴
合作医疗
合同纠纷
合同规定
合格证书
合理布局
合理配置
合资企业
吉林大学
同一时间
同人小说
同学聚会
同归于尽
同性恋者
同济大学
同父异母
同班同学
同等学力
同等条件
名列前茅
名副其实
名牌大学
名胜古迹
名誉主席
后勤保障
后勤工作
后期制作
后起之秀
后顾之忧
吓了一跳
君士坦丁
告一段落
呕心沥血
周围环境
周年纪念
周而复始
周边产品
周边国家
周边环境
呼之欲出
呼伦贝尔
呼吸困难
呼吸系统
呼和浩特
呼风唤雨
和弦铃声
和睦相处
咨询中心
咨询服务
品学兼优
品牌价值
品牌优势
品牌设计
品种齐全
哈佛大学
哈哈大笑
哈尔滨市
哈布斯堡
哈萨克族
响应速度
哥伦比亚
哥本哈根
哭笑不得
哺乳动物
售后服务
唯心主义
唯物主义
商业活动
商业秘密
商业银行
商务中心
商务活动
商务谈判
商务酒店
商品交易
商品流通
商品生产
商品经济
商品质量
商品销售
商标注册
啼笑皆非
善后事宜
善解人意
喜怒哀乐
喜闻乐见
喜马拉雅
嗤之以鼻
器官移植
噪声污染
四中全会
四位一体
四分之一
四分之三
四十八条
四大名著
四川大学
四川盆地
四通八达
四面八方
回味无穷
因人而异
因地制宜
因材施教
因果关系
园林绿化
困难重重
固体废物
固定资产
国企改革
国内贸易
国土面积
国家一级
国家专利
国家元首
国家所有
国家教委
国家有关
国家机关
国家标准
国家民委
国家电网
国家科委
国家计委
国家赔偿
国民收入
国民政府
国民经济
国泰君安
国防大学
国防工业
国防建设
国防部长
国际交流
国际展览
国际标准
国际竞争
国际米兰
国际象棋
国际贸易
国际足联
图书馆学
图像处理
图文并茂
图片格式
圆满完成
圆锥花序
土地出让
土地改革
土地革命
土木工程
土木建筑
土生土长
圣地亚哥
圣彼得堡
圣诞老人
圣路易斯
在世界上
在实践中
在所难免
在政治上
在短期内
地球化学
地球表面
地理信息
地理坐标
地理环境
地质学家
地质灾害
地质矿产
均匀分布
坐北朝南
坚固耐用
坚定不移
坚持下去
坚持不懈
坚韧不拔
坦桑尼亚
垃圾处理
垃圾焚烧
城乡居民
城乡建设
城乡规划
城市交通
城市居民
城市形象
城市污水
城市规划
城市道路
城镇居民
培训中心
培训基地
基准利率
基因工程
基因突变
基层单位
基本一致
基本原理
基本参数
基本工资
基本常识
基本建设
基本思路
基本操作
基本相同
基本知识
基本素质
基本要素
基本规律
基础教程
基础教育
基础理论
基础知识
基础科学
基础设施
塑料制品
塑胶跑道
塞内加尔
塞尔维亚
塞浦路斯
塞维利亚
增加收入
增强体质
增长速度
处理程序
处理结果
处理过程
复合材料
复旦大学
复杂多变
外交关系
外交部长
外商投资
外形尺寸
外来人口
外汇交易
外贸企业
多功能厅
多多少少
多姿多彩
多平方米
多才多艺
多特蒙德
多种不同
多种多样
多种形式
多种类型
多种经营
多长时间
夜深人静
大专院校
大中华区
大中城市
大会决议
大兴安岭
大力支持
大势所趋
大千世界
大吃一惊
大同小异
大名鼎鼎
大型超市
大大减少
大大咧咧
大大增加
大大小小
大大提高
大大降低
大学校园
大学校长
大学物理
大小不一
大小不等
大幅提高
大庆油田
大开眼界
大打折扣
大放异彩
大有裨益
大气环境
大江南北
大相径庭
大肠杆菌
大脑皮层
大行其道
大街小巷
大起大落
大雄宝殿
大韩民国
大马士革
天下第一
天主教会
天主教堂
天主教徒
天人合一
天天向上
天文学家
天气预报
天津大学
天涯海角
天翻地覆
天长地久
天马行空
天龙八部
太上老君
太平天国
夫妻关系
头状花序
奄奄一息
奇思妙想
奇怪的是
奉献精神
奋不顾身
奋发向上
奥体中心
奥林匹亚
奥林匹克
奥运冠军
女性主义
女扮男装
女权主义
好不容易
好多好多
好景不长
如出一辙
如图所示
如愿以偿
如日中天
如此一来
如火如荼
如鱼得水
妇幼保健
妇科疾病
妖魔鬼怪
妙趣横生
始终如一
委内瑞拉
威廉姆斯
娓娓道来
娱乐节目
子孙后代
字里行间
存储空间
存储设备
孙子兵法
孜孜不倦
孟加拉国
季风气候
孤寡老人
孤身一人
学以致用
学位证书
学前教育
学历证书
学术交流
学术会议
学术团体
学术年会
学术报告
学术论文
学生公寓
学生宿舍
学科专业
学识渊博
宇宙飞船
安东尼奥
安全卫生
安全可靠
安全意识
安全措施
安全检查
安全气囊
安全监管
安全等级
安全系数
安史之乱
安安静静
安居乐业
安居工程
安徽大学
安特卫普
完全一致
完全小学
完完全全
完成学业
宏观指导
宏观经济
宗教事务
宗教信仰
宗教团体
官方语言
定位系统
定速巡航
定量分析
宝贵意见
实事求是
实实在在
实施方案
实用主义
实用价值
实际困难
审判监督
审时度势
审计报告
客座教授
客户服务
客货运输
宣传部长
室内环境
室内空气
室内装饰
室内设计
家喻户晓
家家户户
家居生活
家居装饰
家常便饭
家庭医生
家庭教师
家庭教育
家庭暴力
家庭聚会
家族企业
家用电器
家破人亡
容易接受
宽敞明亮
寄生虫病
密不可分
密切相关
密切联系
密密麻麻
富丽堂皇
富兰克林
寓教于乐
寥寥无几
对号入座
对外开放
对外汉语
对外贸易
对症下药
导航系统
封建社会
封建迷信
小学校长
小心翼翼
小有名气
小桥流水
少先队员
少年儿童
少数民族
少男少女
尔虞我诈
尖锐湿疣
尘埃落定
尤文图斯
就业机会
就事论事
尼加拉瓜
尼古拉斯
尼日利亚
尽善尽美
尽如人意
尽心尽力
尽收眼底
尽管如此
尽职尽责
尽量减少
尽量避免
尿路感染
层出不穷
层次分明
居民小区
居民消费
居高不下
居高临下
屈指可数
屏幕显示
屡见不鲜
履行合同
山东半岛
山东大学
山清水秀
山西大学
山西太原
岌岌可危
崭露头角
巡回演出
巡航导弹
工业产值
工业协会
工业园区
工业废水
工业生产
工业用地
工业革命
工人运动
工人阶级
工会主席
工作人员
工作思路
工作效率
工作温度
工作进展
工作部门
工商企业
工商总局
工商部门
工矿企业
工程力学
工程塑料
工程学院
工程建设
工程技术
工程硕士
工程设计
工程质量
工程项目
工艺技术
工艺流程
工艺美术
工薪阶层
工资总额
巨噬细胞
巨大变化
巨大成功
巴伐利亚
巴勒斯坦
巴基斯坦
巴塞罗那
市场主体
市场准入
市场监管
市场经济
市场营销
市场调研
市场运作
市委党校
市委常委
布局合理
布局调整
布达佩斯
布达拉宫
布鲁克林
布鲁塞尔
师范大学
师范学校
师范学院
希望工程
希腊神话
帕特里克
帝国主义
带状疱疹
常务会议
常务委员
常见问题
干净利落
干干净净
平均价格
平均海拔
平平淡淡
平方公里
平方千米
平方厘米
平方英里
平易近人
平民百姓
平面媒体
平顶山市
年久失修
年代久远
年复一年
年度人物
年轻一代
年龄阶段
并不认为
并不需要
并肩作战
并非如此
幼儿教师
幼儿教育
广东省委
广为人知
广为流传
广告创意
广告宣传
广大观众
广州军区
广州大学
广播公司
广播电台
广播电视
广播系统
广播节目
广泛应用
广电总局
广西南宁
广西大学
庆典活动
床上用品
应不应该
应有尽有
应用服务
应用软件
应用领域
应运而生
应邀出席
康复中心
康复训练
廉政建设
廉洁自律
延年益寿
建功立业
建国以来
建国初期
建材行业
建筑工程
建筑施工
建筑材料
建筑行业
建筑设计
建筑面积
建言献策
建设工程
建设银行
建设项目
开关电源
开动脑筋
开发人员
开发利用
开发工具
开发技术
开发计划
开天辟地
开展调查
开庭审理
开开心心
开拓创新
开拓进取
开花结实
开花结果
异军突起
异曲同工
弄虚作假
引人入胜
引人注目
弗吉尼亚
弗朗索瓦
弗朗西斯
弗洛伊德
张家口市
张家港市
张家界市
弥足珍贵
弱肉强食
弹道导弹
强制措施
强强联合
强烈反响
强烈推荐
强烈要求
强身健体
归根到底
归根结底
当之无愧
当今世界
当代文学
当代艺术
当务之急
当地政府
形式主义
形式多样
形形色色
形态各异
形而上学
形象大使
影视文化
彻底改变
征求意见
徇私舞弊
很久很久
很多很多
很早以前
律师协会
得不偿失
得天独厚
得心应手
御史大夫
循序渐进
循环系统
微不足道
微乎其微
微分方程
微处理器
微微一笑
微生物学
微软公司
微量元素
德克萨斯
德才兼备
德累斯顿
德艺双馨
德高望重
心中有数
心力衰竭
心平气和
心旷神怡
心灰意冷
心灵鸡汤
心狠手辣
心理健康
心理医生
心理因素
心理学家
心甘情愿
心肌梗塞
心肌梗死
心脑血管
心血来潮
心血管病
必不可少
必然趋势
必由之路
必经之路
必要条件
忍无可忍
志同道合
快速反应
念念不忘
忽略不计
思想感情
思想道德
急功近利
怦然心动
性别歧视
性格内向
总会计师
总体方案
总体目标
总体而言
总体设计
总参谋部
总参谋长
总司令部
总工程师
总状花序
总的来说
总经济师
总结经验
总而言之
总领事馆
恍然大悟
恐怖主义
恐怖分子
恐怖组织
恐怖袭击
恢复原状
恢复正常
息息相关
恰到好处
恰如其分
恰恰相反
恶性循环
恶性肿瘤
恶意软件
悄无声息
悬崖峭壁
悲欢离合
情不自禁
情景模式
情有独钟
情理之中
情绪低落
惊天动地
惊心动魄
惟妙惟肖
惨不忍睹
想方设法
愈演愈烈
意味深长
意大利人
意大利语
意想不到
意料之外
意气风发
意犹未尽
意见建议
意识形态
感人至深
感受一下
感同身受
感激不尽
慈善机构
慈禧太后
慕名而来
成人教育
成功之路
成功经验
成千上万
成吉思汗
成套设备
成效显著
成本核算
成本费用
成果鉴定
成百上千
成都军区
我行我素
或多或少
战略地位
战略部署
截然不同
户外运动
房地产业
所作所为
所到之处
所向披靡
所在城市
所属单位
所见所闻
扁桃体炎
手工艺品
手机游戏
手机软件
才华横溢
扎扎实实
扑朔迷离
扑面而来
打下基础
打个比方
打击报复
托尔斯泰
扣人心弦
执业资格
执法人员
执法检查
执行主席
执行公务
执行机构
扬子晚报
扬长避短
扭亏为盈
批准逮捕
承受能力
技工学校
技术人员
技术创新
技术参数
技术含量
技术咨询
技术培训
技术学校
技术实力
技术开发
技术手段
技术指标
技术支持
技术改造
技术标准
技术水平
技术装备
技术规范
技术设备
抓住机会
抓住机遇
投资决策
投资银行
抗战时期
抗拉强度
抗日战争
抗日救亡
抗氧化剂
抗美援朝
抗震救灾
抛砖引玉
抢险救灾
报告文学
披荆斩棘
抽样调查
拉丁美洲
拉开序幕
拉脱维亚
拍案叫绝
拒绝接受
拔地而起
招商引资
招商银行
拥军优属
拭目以待
持之以恒
持续时间
指导老师
指挥机构
指日可待
指标体系
指点迷津
指纹识别
按部就班
挡风玻璃
挥之不去
挺身而出
换句话说
据我所知
排忧解难
排水系统
接二连三
接口技术
接口类型
接踵而来
接踵而至
控制中心
控制工程
控制技术
控制系统
控制能力
控制面板
控股公司
控股集团
推向市场
推广先进
推波助澜
推理小说
推陈出新
措手不及
提高效率
提高质量
搜索引擎
摇身一变
摩托罗拉
摩擦系数
摸爬滚打
撕心裂肺
播种面积
操作技能
操作系统
擦肩而过
攀枝花市
支持系统
支柱产业
支气管炎
支离破碎
支部书记
收支平衡
收费公路
攻关项目
攻击速度
放在心上
政务信息
政协委员
政协提案
政府职能
政府部门
政治委员
政治权利
政治经济
政策措施
政策法规
效果显著
教书育人
教学仪器
教学内容
教学实验
教学效果
教学方式
教学方法
教学模式
教学活动
教学科研
教学要求
教学设备
教学质量
教学资源
教师队伍
教职员工
教育体制
教育方针
教育经费
教育资源
教育部门
教育领域
敬业精神
数一数二
数不胜数
数以万计
数以千计
数字电视
数学分析
数据中心
数据交换
数据传输
数据共享
数据分析
数据处理
数据安全
数据挖掘
数据管理
数据类型
数据结构
数据通信
数控技术
数控系统
数码相机
整体素质
整体而言
整体规划
整合营销
整形外科
文人墨客
文件精神
文件系统
文体活动
文化交流
文化产业
文化差异
文化底蕴
文化教育
文学作品
文学名著
文学理论
文物保护
文理学院
文艺复兴
文艺理论
斗智斗勇
斤斤计较
断断续续
斯图加特
斯洛伐克
斯里兰卡
新华书店
新型农村
新型建材
新奥尔良
新形势下
新泽西州
新闻出版
新闻媒体
新闻宣传
新闻报道
新闻记者
新陈代谢
方便快捷
方方面面
方案设计
施工人员
施工单位
旅客列车
旅游胜地
旅游观光
无一例外
无与伦比
无产阶级
无人问津
无从下手
无关紧要
无副作用
无动于衷
无可厚非
无可奈何
无可挑剔
无可比拟
无处不在
无家可归
无微不至
无忧无虑
无怨无悔
无所不能
无所事事
无所畏惧
无所适从
无拘无束
无时无刻
无期徒刑
无机化学
无济于事
无独有偶
无理取闹
无神论者
无私奉献
无穷无尽
无线电台
无缘无故
无缝钢管
无能为力
无言以对
无论如何
无话可说
既然如此
日复一日
日常生活
日新月异
日日夜夜
日本央行
日本政府
日本料理
日照时数
日用百货
日积月累
时代广场
时代精神
时尚杂志
时尚生活
时时刻刻
时有发生
时至今日
明文规定
明明白白
明显增加
明显增强
明显提高
明显改善
明显降低
明末清初
明确提出
明确责任
易燃易爆
昙花一现
星火计划
星罗棋布
星际争霸
映入眼帘
春夏秋冬
春暖花开
春秋战国
春秋时期
昨天上午
昨天下午
显而易见
普普通通
普罗旺斯
普通本科
景德镇市
晶莹剔透
暂行办法
暨南大学
暴饮暴食
更新换代
更有意义
更有甚者
更胜一筹
更进一步
曼彻斯特
曾几何时
最佳时机
最新进展
最终幻想
最高法院
最高级别
有价证券
有史以来
有声有色
有害生物
有意无意
有感而发
有所不同
有所作为
有所提高
有朝一日
有期徒刑
有机化学
有机合成
有条不紊
有理有据
有生之年
有的放矢
有目共睹
有线电视
有色金属
有血有肉
有识之士
有限公司
有限责任
服务中心
服务公司
服务器端
服务态度
服务水平
服务网络
服务行业
服务设施
服务质量
服务项目
服装品牌
服装行业
朗朗上口
望而却步
朝夕相处
朝气蓬勃
朝鲜半岛
朝鲜战争
期刊论文
未成年人
未经许可
本职工作
本草纲目
机关干部
机动车辆
机动车道
机器设备
机械加工
机械工程
机械性能
机械行业
机械设备
机缘巧合
机车车辆
杀毒软件
材料科学
村上春树
村务公开
村容村貌
村民代表
村规民约
束手无策
条件反射
来之不易
来龙去脉
杰出代表
板芯片组
极其丰富
极限运动
枝繁叶茂
标准厂房
标准答案
标准规定
标准配置
标本兼治
标点符号
校园环境
校园生活
栩栩如生
株式会社
核心内容
核心技术
核心理念
核磁共振
根据上述
根本无法
根深蒂固
格拉斯哥
格斗游戏
格格不入
格鲁吉亚
梦寐以求
梦想成真
检察机关
检查一下
植树造林
植物保护
榜上有名
模式识别
模糊不清
横空出世
欢声笑语
欣欣向荣
欧亚大陆
欧洲央行
欧美国家
欲罢不能
歇斯底里
正当理由
正当竞争
正月十五
正确认识
此时此刻
此起彼伏
步步为营
武侠小说
武汉大学
武装力量
武装起义
武装部队
武警部队
死心塌地
死记硬背
毅然决然
毋庸置疑
每人每年
每时每刻
毒副作用
比尔盖茨
比比皆是
比较严重
比较完善
比较文学
比较稳定
比较突出
毕业论文
毕业设计
毛细血管
毛里求斯
毛骨悚然
毫不犹豫
毫不留情
毫无意义
毫无疑问
民不聊生
民主党派
民主监督
民主革命
民事诉讼
民事责任
民俗文化
民国初年
民政部门
民族主义
民族特色
民族自治
民族英雄
民法通则
民生银行
民营企业
民间文学
民间艺人
民间艺术
气候宜人
气势恢宏
气势磅礴
氢氧化钠
氮氧化物
水利工程
水利枢纽
水利电力
水到渠成
水力发电
水土保持
水文地质
水涨船高
水深火热
水生植物
水路运输
永无止境
永远都是
求真务实
汇丰银行
汉密尔顿
汉语拼音
江南水乡
汽车行业
汽车配件
沉默寡言
没听说过
没完没了
沧海桑田
河北大学
河南大学
河海大学
沸沸扬扬
油然而生
治学严谨
沿海地区
泌尿外科
泌尿系统
法人代表
法兰克福
法制宣传
法制教育
法国巴黎
法学专业
法学博士
法学硕士
法律咨询
法律意识
法律效力
法律法规
法律硕士
法律顾问
波多黎各
波澜壮阔
波罗的海
泪流满面
洛克菲勒
津巴布韦
津津乐道
洪都拉斯
活动中心
活泼可爱
活泼开朗
活灵活现
活血化瘀
流体力学
流动资金
流域面积
流行歌曲
流行病学
流连忘返
流通领域
浅显易懂
测定方法
测试方法
济南军区
浑浑噩噩
浑然一体
浑然天成
浓厚兴趣
浓墨重彩
浙江大学
浦东新区
浦发银行
浩浩荡荡
浪漫主义
浪费时间
浴血奋战
海关总署
海南大学
海洋生物
海纳百川
海阔天空
消化吸收
消化系统
消费水平
消费行为
消防器材
消防工作
消防支队
液晶显示
液晶电视
淋巴细胞
淋漓尽致
淮海战役
深不可测
深信不疑
深入人心
深入开展
深入探讨
深入浅出
深入研究
深刻理解
深圳大学
深思熟虑
深远影响
清华同方
清华大学
清晰可见
清清楚楚
清热解毒
渔业资源
温度控制
温文尔雅
港口城市
游击战争
游刃有余
湖光山色
湖南卫视
湖南大学
源源不断
源远流长
滔滔不绝
满足用户
演艺事业
漫不经心
漫山遍野
潇湘书院
潜移默化
澳大利亚
激光治疗
激动人心
激励机制
灌溉面积
火灾事故
灰飞烟灭
灵活多样
炙手可热
点点滴滴
烈士陵园
烟消云散
烤面包机
热带雨林
热带风暴
热泪盈眶
热点话题
热烈欢迎
热稳定性
热线电话
热血沸腾
热门话题
热闹非凡
焕然一新
煤炭行业
煤炭资源
熠熠生辉
燃料电池
燃气轮机
爬行动物
爱不释手
爱乐乐团
爱因斯坦
爱国主义
爱岗敬业
爱情故事
爱新觉罗
爱沙尼亚
父母双亡
爷爷奶奶
牛津大学
牡丹江市
物产丰富
物是人非
物流配送
物理化学
物理学家
物理性质
物美价廉
物质基础
物质文明
特大城市
特殊教育
特种设备
特种部队
特立独行
特色小吃
特色美食
特邀嘉宾
犯罪事实
犯罪分子
犯罪团伙
犯罪活动
犯罪行为
犹豫不决
独一无二
独具一格
独具匠心
独具特色
独到之处
独树一帜
独生子女
独立自主
独资企业
玉皇大帝
玛格丽特
玩世不恭
玩忽职守
环保部门
环境保护
环境工程
环境影响
环境污染
环境治理
环境温度
环境监测
环氧树脂
环环相扣
现代主义
现代医学
现代科技
现实主义
现实情况
现身说法
玻利维亚
玻璃纤维
班子成员
理学博士
理工大学
理工学院
理想主义
理想信念
理所应当
理所当然
理直气壮
理解能力
理论物理
理论知识
理财产品
琳琅满目
琴棋书画
瓦伦西亚
甘油三酯
甜言蜜语
生产关系
生产总值
生产成本
生产方式
生产日期
生产能力
生产资料
生动有趣
生动活泼
生命周期
生命安全
生命科学
生存环境
生存空间
生态建设
生态景观
生机勃勃
生津止渴
生活品质
生活气息
生活用品
生物制品
生物制药
生物医学
生物医药
生物学家
生物质能
生物防治
生理盐水
生生不息
生生世世
生长发育
生长激素
用户手册
用户界面
田径运动
田间管理
由内而外
由来已久
由此可见
由浅入深
甲午战争
甲状腺肿
申请专利
申请加入
申请报告
电力公司
电动汽车
电动车窗
电化教育
电子产品
电子信息
电子元件
电子商务
电子器件
电子政务
电子游戏
电子电器
电子竞技
电子系统
电子行业
电子设备
电子邮件
电子邮箱
电子音乐
电影剧本
电气控制
电气设备
电池容量
电源插座
电热水器
电热水壶
电磁兼容
电磁辐射
电脑游戏
电视节目
电话号码
男女之间
男女平等
男女老少
画龙点睛
畅所欲言
畅通无阻
留学人员
略有不同
疑难杂症
疗效显著
病毒感染
痛不欲生
登记手续
登记注册
白俄罗斯
白手起家
白葡萄酒
白雪公主
白马王子
百万富翁
百分之一
百分之百
百姓生活
百家争鸣
百科全书
百花齐放
百货公司
百货大楼
皆大欢喜
皮下组织
皮质激素
盈利模式
监察机关
监察部门
监测中心
监督机制
监督管理
监管部门
目不暇接
目前为止
目瞪口呆
直属机关
直系亲属
相互之间
相互作用
相互促进
相互尊重
相似之处
相依为命
相对湿度
相对而言
相得益彰
相提并论
相映成趣
相比之下
相濡以沫
相见恨晚
相辅相成
省公安厅
省委书记
省直机关
省级重点
真不知道
真实世界
真实写照
真抓实干
眼科医院
眼花缭乱
睁开眼睛
睡眠不足
瞬息万变
知不知道
知名人士
知名企业
知己知彼
知识产权
知识分子
知识经济
短篇小说
石家庄市
石景山区
石油化工
石油大学
矿山企业
研究成果
研究生班
研究生院
破格晋升
硕果累累
硬着头皮
硬质合金
确保安全
社会主义
社会保险
社会保障
社会关系
社会制度
社会各界
社会学家
社会学系
社会工作
社会效益
社会教育
社会活动
社会福利
社会科学
社会秩序
社区卫生
神奈川县
神秘色彩
神秘莫测
神经外科
神经科学
神经系统
神经细胞
神经衰弱
神话故事
福利彩票
福尔摩斯
福州大学
私营企业
种族歧视
科学依据
科学合理
科学实验
科学技术
科学普及
科学知识
科学研究
科学管理
科技人员
科技园区
科技开发
科技攻关
科技进步
科普知识
科特迪瓦
科班出身
科研人员
科研单位
科研工作
科研机构
科研院所
科罗拉多
秦皇岛市
积极分子
积极参与
积极向上
积极意义
移动游戏
移动硬盘
稀奇古怪
稀里糊涂
程序开发
程序设计
程控电话
税收收入
税收政策
税收法律
稳步增长
穆罕默德
穆里尼奥
空气净化
空气污染
空气清新
空气质量
空间结构
空间设计
穿越时空
突出表现
突出重点
突如其来
突飞猛进
立法委员
立竿见影
竞争对手
竞争能力
童话世界
童话故事
竭尽全力
符合中国
符合国家
符合条件
符合要求
符合规定
第一产业
第一夫人
第一桶金
第三世界
第三产业
第三人称
第三十条
第三季度
第三阶段
第二产业
第二十一
第二十三
第二十八
第二十四
第二十条
第二十章
第二季度
第二课堂
第二阶段
第五十九
第五十二
第五十五
第五十八
第十一条
第十一次
第十一章
第十七届
第十七条
第十七章
第十三届
第十三条
第十三章
第十九条
第十九章
第十二届
第十二条
第十二次
第十二章
第十五届
第十五条
第十五章
第十八届
第十八条
第十八章
第十六届
第十六条
第十六章
第十四届
第十四条
第十四章
第四十五
第四十六
第四十条
等离子体
等等等等
筹备工作
签订协议
简体中文
简政放权
简明扼要
简简单单
简而言之
管理中心
管理人员
管理体系
管理制度
管理工作
管理手段
管理机制
管理机构
管理条例
管理模式
管理水平
管理科学
管理系统
管理软件
粉末冶金
粮食作物
精力充沛
精品工程
精品课程
精彩纷呈
精挑细选
精益求精
精神家园
精神文明
精神状态
精神病院
精神紧张
精神面貌
精神食粮
精诚合作
精雕细琢
糖尿病人
系统分析
系统安全
系统工程
系统文件
系统疾病
系统管理
系统软件
系统还原
系统阐述
素质教育
紧密结合
紧密联系
紧急情况
紧锣密鼓
繁体中文
繁衍生息
红十字会
红斑狼疮
红色旅游
红葡萄酒
纤维蛋白
纪委书记
纪实文学
纪念活动
纪检监察
纳斯达克
纳米材料
纳粹德国
纵横交错
纷至沓来
纽卡斯尔
纽约大学
纽约时报
组成部分
组织部长
组织部门
细致入微
织田信长
终端用户
经久不衰
经久耐用
经典之作
经典作品
经常出现
经济体制
经济作物
经济危机
经济基础
经济学家
经济损失
经济效益
经济日报
经济特区
经济社会
经济运行
经营方式
经营范围
经营项目
经营风险
经验交流
结合实际
结构合理
结果显示
结果表明
结缔组织
绚丽多彩
络绎不绝
绝大多数
绝大部分
绝无仅有
绞尽脑汁
统一战线
统治阶级
统筹兼顾
统计分析
统计调查
统计资料
继往开来
继续下去
继续前进
维修服务
维吾尔族
维多利亚
综上所述
综合信息
综合国力
综合执法
综合治理
综艺节目
绿树成荫
绿色植物
绿色生态
绿色通道
绿色食品
编制工作
编程语言
缺一不可
网上银行
网络安全
网络小说
网络平台
网络广告
网络应用
网络接口
网络时代
网络游戏
网络科技
网络管理
网络系统
网络资源
网络连接
网络通信
罗马尼亚
罗马帝国
罪魁祸首
美不胜收
美味可口
美国公司
美国国会
美国大学
美国市场
美国政府
美国空军
美国纽约
美国联邦
美术专业
美术设计
美观大方
美轮美奂
群众体育
群众利益
群众反映
群众组织
群众路线
羽状复叶
翩翩起舞
翻天覆地
老少皆宜
老年大学
老老实实
考古学家
考核内容
考核制度
考试内容
考试合格
耐人寻味
耐火材料
耕地面积
耳濡目染
耳熟能详
耳目一新
耳鼻喉科
耶路撒冷
耶鲁大学
耿耿于怀
聊斋志异
职业中学
职业培训
职业资格
职业道德
职业院校
职业高中
职工基本
职权范围
联动机制
联席会议
联想集团
联欢晚会
联系实际
联邦德国
联邦政府
聚伞花序
聚在一起
聚氯乙烯
聪明才智
肆无忌惮
股份公司
股票交易
股票价格
肾上腺素
背景音乐
背道而驰
胡志明市
胡思乱想
胡萝卜素
胡说八道
胶原蛋白
能源管理
脊椎动物
脊索动物
脍炙人口
脑血管病
脚踏实地
脱口而出
脱胎换骨
脱贫致富
脱颖而出
腥风血雨
腰椎间盘
自上而下
自下而上
自主经营
自以为是
自力更生
自动更新
自动步枪
自古以来
自始至终
自娱自乐
自强不息
自我教育
自暴自弃
自来水厂
自欺欺人
自治机关
自然景观
自然灾害
自然环境
自然科学
自然而然
自然规律
自然语言
自然资源
自然遗产
自由主义
自由自在
自由选择
自给自足
自行车赛
自言自语
至关重要
至高无上
航天飞机
航空公司
航空母舰
航空航天
航空运输
良好习惯
良好效果
良好氛围
良师益友
良莠不齐
艰苦创业
艰苦奋斗
色彩斑斓
色彩鲜艳
艺术交流
艺术作品
艺术形象
艺术院校
艾哈迈德
艾泽拉斯
节约用水
节肢动物
节能产品
节能降耗
花花公子
芸芸众生
苏亚雷斯
苏州大学
苏格拉底
苏联红军
若干意见
若隐若现
苦不堪言
英国政府
英国皇家
英文单词
英语专业
英语听力
英语水平
苹果公司
茁壮成长
草本植物
荡气回肠
荡然无存
荣华富贵
荣誉称号
药理作用
莎士比亚
莘莘学子
莫名其妙
获取信息
获得成功
获得最佳
营业执照
营业网点
营养元素
营养物质
营销中心
萨尔瓦多
落到实处
著名画家
葡萄牙人
葡萄牙语
葡萄球菌
蒙特利尔
蒸蒸日上
蓄势待发
蓝天白云
蓬勃发展
蔚为壮观
蔬菜基地
虎视眈眈
虚拟世界
虚拟主机
虚拟现实
蛛丝马迹
融为一体
融会贯通
蠢蠢欲动
血吸虫病
血红蛋白
血雨腥风
行业标准
行之有效
行云流水
行动计划
行尸走肉
行政公署
行政区划
行政区域
行政处分
行政复议
行政拘留
行政监察
行政监督
行政编制
行政许可
行政诉讼
行政部门
衣食住行
表现形式
表示感谢
表达出来
表面张力
被保险人
被子植物
被执行人
被申请人
被选举权
装机容量
西伯利亚
西北地区
西北大学
西南地区
西双版纳
西沙群岛
西泠印社
西班牙人
西班牙语
覆盖范围
覆盖面广
见义勇为
观光旅游
规章制度
视而不见
视觉效果
视觉艺术
视频会议
视频教程
视频文件
解决不了
解决办法
解决问题
解放出来
解放思想
解放战争
解释一下
解除合同
触手可及
触目惊心
言传身教
言情小说
言简意赅
言论自由
计划生育
计划经济
计算技术
计算机系
计算结果
计算能力
认真学习
认真执行
认认真真
讨价还价
讨论一下
训练方法
训练有素
议事日程
记忆犹新
许许多多
设备齐全
证券交易
证券公司
证券市场
证明文件
试管婴儿
诗情画意
诗歌创作
诚信为本
诚实信用
语言学家
误打误撞
说不清楚
诸如此类
诺贝尔奖
课堂教学
课外活动
调查结果
谈笑风生
谢谢你们
豁然开朗
象征意义
贝克汉姆
负责同志
负责管理
负面影响
财产保险
财务人员
财务制度
财务总监
财务报告
财务报表
财务收支
财务数据
财务管理
财务费用
财政拨款
财政政策
财政部长
财政部门
财经大学
财经学院
责任事故
责任人员
货真价实
质量上乘
质量检验
贫富差距
贴近生活
贵州大学
贵重物品
贷款额度
资产阶级
资本主义
资格证书
资治通鉴
资源优势
资源共享
资源管理
资源类型
资质证书
资金周转
资金投入
赏心悦目
赖以生存
赞不绝口
赫尔辛基
赫赫有名
走投无路
起死回生
超大规模
越多越好
趋之若鹜
足不出户
跃跃欲试
跌宕起伏
跟踪服务
跨国公司
踏踏实实
身不由己
身临其境
身体健康
身体力行
身体状况
身体虚弱
身心健康
车辆管理
车辆通行
轨道交通
轩然大波
转业干部
软件产品
软件工程
软件技术
软件测试
软件系统
软体动物
轰轰烈烈
轻而易举
轻轻松松
较长时间
辅助工具
输入输出
输出功率
辛亥革命
辛辛苦苦
辩护律师
边远地区
辽宁大学
达赖喇嘛
迄今为止
过氧化氢
过氧化物
迎刃而解
运筹帷幄
运载火箭
运输工具
近在咫尺
近现代史
还珠格格
这就是说
这样一来
这样的话
进修学校
进口商品
远古时代
远近闻名
违约责任
连云港市
连载小说
迫不及待
迫在眉睫
迷迷糊糊
退伍军人
退休年龄
退耕还林
送货上门
适得其反
适用范围
通信工程
通力合作
通货膨胀
通过观察
造型艺术
逢年过节
逻辑思维
逻辑推理
遍体鳞伤
道德风尚
道格拉斯
道路交通
遗留下来
遗留问题
遥不可及
遥相呼应
遥遥领先
遵纪守法
避免出现
那不勒斯
邮政编码
郁郁葱葱
郑州大学
都市生活
鄂尔多斯
配音演员
酣畅淋漓
酸甜苦辣
采取措施
采取有效
采取相应
释迦牟尼
重中之重
重大事件
重大意义
重大突破
重庆大学
重新安装
重点高中
重男轻女
重要依据
重要讲话
量力而行
量子力学
量身定做
金属材料
金属表面
金碧辉煌
金融中心
金融信息
金融公司
金融市场
金融时报
金融服务
金融机构
金融监管
针锋相对
钢化玻璃
钢铁企业
银行业务
铺天盖地
销售业务
销声匿迹
锐意进取
错综复杂
错落有致
锦上添花
锲而不舍
锻炼身体
长久以来
长大成人
长安汽车
长期以来
长期投资
长此以往
长江三峡
长江大桥
长江流域
长生不老
长篇小说
长途电话
门当户对
门户网站
闭上眼睛
闭路电视
问卷调查
闻名于世
闻名遐迩
闻风丧胆
阴差阳错
阴阳五行
阶级斗争
阿司匹林
阿塞拜疆
阿尔伯特
阿尔萨斯
阿弥陀佛
阿拉伯人
阿拉伯语
阿拉斯加
阿迪达斯
阿里巴巴
附属中学
陆陆续续
降低成本
除此之外
除此以外
陶冶情操
陷入困境
随之而来
随处可见
随心所欲
随时随地
随波逐流
随随便便
隐形眼镜
难以忍受
难以忘怀
难以想象
难以置信
难得一见
难能可贵
雅俗共赏
集中体现
集中供热
集中管理
集中精力
集体主义
集体土地
集体所有
集体经济
集团公司
集思广益
集成电路
集贸市场
雨后春笋
雪上加霜
零售总额
需不需要
震撼人心
霸王别姬
青山绿水
青岛大学
青年教师
青梅竹马
青藏高原
静下心来
静脉曲张
静脉注射
非公有制
非处方药
非常容易
非常感谢
非常明显
非常简单
非常适合
非机动车
非法所得
非经营性
非营利性
面向世界
面向对象
面向未来
面目全非
面面俱到
革命战争
革命斗争
韩国政府
音乐作品
音乐学院
音乐教育
音响系统
音频接口
项目名称
项目管理
顺其自然
顺利完成
顺理成章
顾名思义
顾问公司
颁奖典礼
颁布实施
预防措施
领军人物
领导人员
领导班子
领导职务
领衔主演
风云人物
风云变幻
风俗习惯
风光秀丽
风口浪尖
风味小吃
风土人情
风平浪静
风景如画
风格各异
风水宝地
风花雪月
风调雨顺
风起云涌
风风雨雨
食品包装
食品卫生
食品行业
食欲不振
食物中毒
餐饮行业
饮水困难
饮食文化
首屈一指
首当其冲
首都机场
香格里拉
香港地区
香港大学
香港政府
香港电影
马列主义
马可波罗
马尔代夫
马拉松赛
马来西亚
马鞍山市
驱动程序
驻马店市
骨质增生
高中学生
高中数学
高分辨率
高尔夫球
高层住宅
高峰论坛
高性价比
高新技术
高新科技
高校教师
高楼大厦
高清晰度
高瞻远瞩
高空作业
高等学校
高等师范
高等教育
高等院校
高级中学
高级技工
高级技师
高级职称
高脂血症
高速公路
高速铁路
高锰酸钾
高附加值
高高兴兴
高高在上
鬼斧神工
鱼米之乡
鱼龙混杂
鲜为人知
鸟语花香
鸦片战争
麻醉药品
黄土高原
黄埔军校
黄帝内经
黄河流域
黄金时代
黄金海岸
黑色幽默
黑龙江省
默默无闻
鼎力支持
鼓起勇气
齐心协力
齐齐哈尔
龙山文化
10000
100km
100ml
1080p
12000
12306
12345
128gb
15000
18000
20000
200mm
25000
30000
50000
500ml
about
admin
adobe
after
again
agent
akb48
album
alexa
alice
allen
alpha
angel
annie
apple
april
asics
audio
award
azure
baidu
basic
beach
bella
belle
black
block
board
boost
brand
break
brian
brown
bruce
build
cache
candy
canon
carlo
carol
chang
check
china
chris
cindy
cisco
class
click
close
cloud
coach
color
cool1
count
coupe
cover
cream
cross
daily
dance
david
davis
dream
drive
earth
email
emily
enter
epson
error
event
excel
false
field
files
final
first
flash
focus
force
frank
fresh
games
ghost
girls
glass
gmail
gopro
grace
grand
great
green
group
gucci
guest
guide
happy
harry
heart
hello
henry
herme
honda
honey
hotel
house
html5
https
huang
human
image
index
intel
ios10
james
japan
jason
jerry
jimmy
jones
kelly
kevin
kitty
korea
leave
level
light
links
linux
local
louis
lucky
lumia
magic
maker
mandy
mango
march
maria
match
media
metal
metro
micro
mobil
model
money
monte
mount
movie
multi
music
mysql
never
nexus
nginx
night
nikon
nokia
north
note7
notes
ocean
offer
omega
opera
order
other
paper
paris
party
peter
phone
photo
pixel
pizza
place
plaza
point
posts
power
prada
press
price
prime
queen
quick
radio
redis
right
river
roger
rosie
royal
saint
santa
sarah
scott
sense
seven
share
shell
shift
shirt
simon
skype
small
smart
smith
sorry
sound
south
space
spark
speed
sport
stage
start
state
steam
step1
step2
step3
step4
step5
steve
stone
store
story
study
style
sunny
super
sweet
swift
swiss
table
teddy
tesla
there
think
three
tiger
times
title
today
tokyo
top10
touch
tower
trump
turbo
ultra
under
union
unity
urban
value
video
villa
vista
vogue
voice
volvo
watch
water
where
white
win10
women
works
world
write
yahoo
young
万余平方米
万多平方米
万平方公里
上海市政府
东南亚地区
个人所得税
中医药大学
中医药学会
中华医学会
中国保监会
中国共产党
中国国民党
中国工程院
中国教育部
中国法学会
中国社科院
中国科学院
中国美术馆
中国证监会
中国青年报
中央商务区
中央委员会
中央政治局
中央气象台
中央电视台
中央研究院
乌鲁木齐市
事务所律师
五个一工程
亚利桑那州
亚里士多德
京杭大运河
人力资源部
人口老龄化
人大常委会
人民共和国
人民出版社
人民大会堂
人民检察院
人民解放军
企业管理者
伊斯坦布尔
佛罗里达州
作家出版社
俄罗斯联邦
信息产业部
克里斯托弗
克里斯蒂安
全国工商联
共青团中央
内蒙古大学
分子生物学
刑事诉讼法
剩余劳动力
加利福尼亚
加泰罗尼亚
劳动密集型
劳动生产率
北京市政府
北京电视台
北京青年报
华尔街日报
华盛顿大学
华西都市报
南京大屠杀
印度尼西亚
历史博物馆
发展中国家
可行性研究
名不见经传
后现代主义
君士坦丁堡
呼伦贝尔市
呼和浩特市
哈萨克斯坦
哥斯达黎加
商务印书馆
喜马拉雅山
国土资源厅
国土资源部
国家人事部
国家博物馆
国家图书馆
国家大剧院
国家教育部
国家文物局
国家旅游局
国家林业局
国家海洋局
国家科技部
国家统计局
国家足球队
国民党中央
国民革命军
国防科工委
国际奥委会
土地管理法
地方税务局
埃塞俄比亚
埃菲尔铁塔
多媒体技术
多媒体教学
大幅度提高
大英博物馆
天安门广场
太平洋战争
奥斯曼帝国
女权主义者
巴黎圣母院
市场占有率
布加勒斯特
常务委员会
弗雷德里克
德克萨斯州
技术开发区
抗干扰能力
拉斯维加斯
摩根士丹利
放射性物质
政治经济学
故宫博物院
教育工作者
数据库系统
文化大革命
文艺工作者
斯坦福大学
斯德哥尔摩
斯洛文尼亚
新古典主义
无党派人士
旧石器时代
更上一层楼
服务供应商
服务提供者
本行政区域
机械工业部
杜塞尔多夫
极大地提高
毛泽东思想
民主集中制
沙特阿拉伯
法律出版社
泰坦尼克号
海军陆战队
清明上河图
港澳台地区
环境保护局
环境保护部
珠江三角洲
生产经营者
生活必需品
电子计算机
电源适配器
知识产权局
碳水化合物
社会保险费
社会保障部
社会心理学
社会科学院
科学出版社
笔记本电脑
第三十一条
第三十七条
第三十三条
第三十九条
第三十二条
第三十五条
第三十八条
第三十六条
第三十四条
第二十一条
第二十七条
第二十三条
第二十九条
第二十二条
第二十五条
第二十八条
第二十六条
第二十四条
第五十三条
第五十四条
第四十一条
第四十七条
第四十三条
第四十二条
第四十四条
精神分裂症
红四方面军
经济委员会
联合国大会
聚四氟乙烯
自然保护区
自然辩证法
芝加哥大学
苏维埃政府
行政诉讼法
表演艺术家
西藏自治区
计划单列市
计算机信息
计算机技术
计算机科学
计算机系统
计算机网络
计算机辅助
计量经济学
调制解调器
贝尔格莱德
资产负债率
进一步提高
邓小平理论
鄂尔多斯市
里约热内卢
重庆出版社
长江三角洲
长途汽车站
阿姆斯特丹
阿尔卑斯山
阿尔及利亚
阿尔巴尼亚
阿拉伯数字
陕甘宁边区
马克思主义
马萨诸塞州
马达加斯加
骨质疏松症
高尔夫球场
高等级公路
齐齐哈尔市
123456
access
action
active
adidas
airbnb
amazon
amoled
andrew
angela
apache
armani
august
author
banner
battle
beauty
before
beyond
bridge
camera
canada
center
centre
chanel
change
cheese
chrome
church
claire
client
coffee
common
cookie
costco
course
create
credit
daniel
delete
design
discuz
disney
docker
domain
donald
double
dragon
editor
edward
eleven
energy
engine
family
fedora
flickr
follow
forest
france
friday
friend
future
galaxy
garden
george
github
global
golden
google
gundam
hadoop
health
howard
huawei
icloud
inside
iphone
island
isofix
itunes
jordan
joseph
jquery
junior
justin
kindle
lenovo
little
living
london
maggie
market
martin
master
matlab
melody
member
memory
miller
mmorpg
mobile
modern
museum
nature
number
nvidia
object
oculus
office
online
oracle
orange
oxford
parker
paypal
people
pepper
photos
pierre
planet
player
please
public
python
report
result
return
review
robert
safari
school
script
search
season
second
secret
select
series
server
shadow
silver
simple
single
social
sophie
source
sports
spring
square
steven
street
string
strong
studio
summer
sunday
swatch
switch
system
taiwan
target
taylor
thomas
thread
top100
toyota
travel
ubuntu
uniqlo
united
update
vision
visual
vmware
walker
wilson
window
winrar
xperia
一步一个脚印
上海交通大学
上海师范大学
上海戏剧学院
上海浦东新区
上海财经大学
上海音乐学院
世界卫生组织
世界贸易组织
东北师范大学
东北财经大学
中共中央党校
中国人民大学
中国人民银行
中国作家协会
中国农业大学
中国农业银行
中国医科大学
中国地质大学
中国天文学会
中国工农红军
中国工商银行
中国建设银行
中国政法大学
中国教育学会
中国矿业大学
中国科技大学
中国美术学院
中国音乐学院
中央人民政府
中央戏剧学院
中央民族大学
中央美术学院
中央音乐学院
乌兹别克斯坦
人民代表大会
信息管理系统
值得一提的是
全国代表大会
内蒙古自治区
加利福尼亚州
北京体育大学
北京协和医院
北京工业大学
北京师范大学
北京林业大学
北京理工大学
北京电影学院
北京科技大学
北京邮电大学
华东师范大学
华东理工大学
华中农业大学
华中师范大学
华中科技大学
华南农业大学
华南理工大学
南京农业大学
南京师范大学
南京艺术学院
历史唯物主义
合肥工业大学
吉尔吉斯斯坦
哥伦比亚大学
国务院办公厅
国家体育总局
国家开发银行
国家森林公园
国家税务总局
国家行政学院
国际会议中心
地理信息系统
大连理工大学
奥斯卡金像奖
安徽师范大学
宾夕法尼亚州
山东师范大学
广西师范大学
捷克斯洛伐克
普林斯顿大学
最高人民法院
武汉理工大学
河北师范大学
湖南师范大学
福建师范大学
立于不败之地
管理信息系统
美国哈佛大学
苏州工业园区
西北工业大学
西北师范大学
西南师范大学
西南政法大学
西南财经大学
西安交通大学
诺贝尔文学奖
风湿性关节炎
首都医科大学
首都师范大学
香港中文大学
香港理工大学
高级人民法院
麻省理工学院
address
airport
alphago
america
android
anthony
arduino
autocad
balance
bigbang
blogger
capital
central
channel
chapter
charles
charlie
chicago
chinese
classic
college
company
connect
contact
content
control
cookies
cosplay
country
crystal
culture
digital
display
dropbox
eclipse
english
express
factory
fantasy
fashion
fintech
firefox
francis
friends
gartner
general
history
hitachi
holiday
hotmail
install
iphone6
iphone7
iso9001
jackson
jessica
johnson
journal
limited
macbook
machine
manager
message
michael
morning
mozilla
natural
netflix
network
october
outlook
pacific
patrick
philips
pokemon
popular
powered
premium
private
process
product
profile
program
project
reading
rebecca
release
request
richard
running
russell
samsung
science
service
session
society
special
spotify
station
stephen
support
supreme
surface
systems
thunder
tiffany
twitter
unicode
version
village
vincent
virtual
welcome
william
windows
youtube
zenfone
上海人民出版社
上海古籍出版社
上海市人民政府
上海市浦东新区
上海证券交易所
中共中央办公厅
中共中央政治局
中华人民共和国
中国书法家协会
中国人民志愿军
中国人民解放军
中国农业科学院
中国医学科学院
中国社会科学院
中国美术家协会
中国艺术研究院
中国青年出版社
中国音乐家协会
中央政治局常委
人民教育出版社
人民文学出版社
人民美术出版社
人民邮电出版社
全国人大常委会
北京中医药大学
北京人民大会堂
北京外国语大学
北京大学出版社
北京市人民政府
十一届三中全会
吉尼斯世界纪录
哈尔滨工业大学
国家知识产权局
奥林匹克运动会
宁夏回族自治区
山东省人民政府
工商行政管理局
巴布亚新几内亚
广西壮族自治区
最高人民检察院
深圳证券交易所
澳门特别行政区
第一次世界大战
第二次世界大战
经济科学出版社
药品监督管理局
诺贝尔经济学奖
质量技术监督局
香港特别行政区
马克思列宁主义
高等教育出版社
advanced
american
burberry
business
campaign
category
children
continue
creative
download
exchange
explorer
facebook
function
givenchy
internet
jennifer
jonathan
language
learning
linkedin
magazine
mountain
national
netscape
qualcomm
research
security
services
shopping
software
standard
thinkpad
victoria
whatsapp
williams
windows7
中南财经政法大学
中央人民广播电台
全国人民代表大会
北京航空航天大学
国务院学位委员会
国家中医药管理局
国家自然科学基金
国际货币基金组织
对外经济贸易大学
新疆生产建设兵团
新疆维吾尔自治区
清华大学美术学院
联合国教科文组织
西北农林科技大学
西安电子科技大学
alexander
beautiful
bloomberg
cambridge
christian
copyright
discovery
education
evolution
financial
instagram
institute
lifestyle
marketing
messenger
microsoft
panasonic
photoshop
pinterest
salvatore
singapore
something
structure
universal
wordpress
中华人民共和国宪法
中华人民共和国政府
中国人民大学出版社
中国共产主义青年团
中国社会科学出版社
华东师范大学出版社
国务院发展研究中心
社会科学文献出版社
angelababy
california
collection
electronic
foundation
javascript
management
mastercard
powerpoint
technology
university
washington
中华人民共和国国务院
中国人民政治协商会议
北京市工商行政管理局
外语教学与研究出版社
application
association
development
information
playstation
中国社会科学院研究生院
中国证券监督管理委员会
人民代表大会常务委员会
朝鲜民主主义人民共和国
entertainment
international
全国人民代表大会常务委员会
##0
##1
##2
##3
##4
##5
##6
##7
##8
##9
##a
##b
##c
##d
##e
##f
##g
##h
##i
##j
##k
##l
##m
##n
##o
##p
##q
##r
##s
##t
##u
##v
##w
##x
##y
##z
##00
##01
##02
##03
##04
##05
##06
##07
##08
##09
##0m
##10
##11
##12
##13
##14
##15
##16
##17
##18
##19
##20
##21
##22
##23
##24
##25
##26
##27
##28
##29
##2c
##2d
##2f
##30
##31
##32
##33
##34
##35
##36
##37
##38
##39
##3c
##3d
##40
##41
##42
##43
##44
##45
##46
##47
##48
##49
##50
##51
##52
##53
##54
##55
##56
##57
##58
##59
##5s
##60
##61
##62
##63
##64
##65
##66
##67
##68
##69
##70
##71
##72
##73
##74
##75
##76
##77
##78
##79
##80
##81
##82
##83
##84
##85
##86
##87
##88
##89
##90
##91
##92
##93
##94
##95
##96
##97
##98
##99
##a1
##a2
##a5
##aa
##ab
##ac
##ad
##ae
##af
##ag
##ah
##ai
##ak
##al
##am
##an
##ao
##ap
##ar
##as
##at
##au
##av
##aw
##ax
##ay
##ba
##bb
##bc
##be
##bi
##bo
##bs
##bt
##bu
##by
##ca
##cc
##cd
##ce
##cg
##ch
##ci
##ck
##cl
##cm
##cn
##co
##cp
##cr
##cs
##ct
##cy
##da
##db
##dc
##dd
##de
##di
##dk
##dm
##dn
##do
##dp
##dr
##ds
##dt
##du
##dy
##ea
##ec
##ed
##ee
##ef
##eg
##eh
##ei
##ek
##el
##em
##en
##eo
##ep
##er
##es
##et
##ev
##ew
##ex
##ey
##ez
##fa
##fc
##fe
##ff
##fi
##fl
##fo
##fr
##fs
##ft
##fu
##fw
##fx
##ga
##gb
##gc
##ge
##gg
##gh
##gi
##gl
##gm
##gn
##go
##gp
##gs
##gt
##gy
##ha
##hc
##hd
##he
##hg
##hi
##hk
##hl
##hm
##hn
##ho
##hp
##hr
##hs
##ht
##hu
##hy
##hz
##ia
##ic
##id
##ie
##if
##ig
##ii
##ik
##il
##im
##in
##io
##ip
##ir
##is
##it
##iu
##ix
##ja
##ji
##jo
##js
##ju
##jy
##ka
##kb
##ke
##kg
##ki
##kk
##km
##ko
##ks
##ku
##kv
##kw
##ky
##la
##lc
##ld
##le
##lf
##li
##lk
##ll
##lm
##lo
##lp
##lr
##ls
##lt
##lu
##lv
##ly
##m2
##ma
##mb
##mc
##md
##me
##mg
##mi
##ml
##mm
##mn
##mo
##mp
##ms
##mu
##mv
##mw
##my
##n1
##n2
##na
##nc
##nd
##ne
##ng
##ni
##nk
##nm
##nn
##no
##np
##ns
##nt
##ny
##o2
##oa
##ob
##oc
##od
##oe
##of
##og
##oh
##oi
##ok
##ol
##om
##on
##oo
##op
##or
##os
##ot
##ou
##ov
##ow
##ox
##oy
##oz
##pa
##pc
##pd
##pe
##ph
##pi
##pl
##pm
##pn
##po
##pp
##pr
##ps
##pt
##pu
##px
##py
##qi
##ql
##qq
##r3
##r4
##ra
##rc
##rd
##re
##rf
##ri
##rk
##rl
##rm
##rn
##ro
##rp
##rr
##rs
##rt
##ru
##ry
##sa
##sc
##sd
##se
##sh
##si
##sk
##sl
##sm
##sn
##so
##sp
##ss
##st
##su
##sy
##ta
##tb
##tc
##te
##tf
##th
##ti
##tl
##tm
##to
##tp
##tr
##ts
##tt
##tu
##tv
##tw
##ty
##tz
##ua
##ub
##uc
##ud
##ue
##ug
##ui
##uk
##ul
##um
##un
##uo
##up
##ur
##us
##ut
##ux
##uy
##v4
##va
##vc
##vd
##ve
##vg
##vi
##vm
##vo
##vr
##vs
##vy
##wa
##wd
##we
##wf
##wi
##wn
##wo
##ws
##wt
##wu
##x2
##x5
##xi
##xp
##xt
##xx
##xy
##ya
##ye
##yi
##ym
##yn
##yo
##ys
##yu
##yy
##za
##ze
##zi
##zl
##zo
##zu
##zy
##zz
##000
##001
##007
##009
##010
##011
##012
##013
##014
##015
##016
##017
##0mm
##100
##101
##110
##120
##123
##150
##160
##163
##168
##200
##250
##300
##340
##360
##365
##370
##400
##470
##480
##500
##520
##580
##600
##700
##750
##800
##888
##900
##999
##abc
##ace
##ach
##ack
##act
##ada
##ade
##ads
##aft
##age
##aid
##ail
##ain
##air
##aka
##ake
##ala
##ald
##ale
##alk
##all
##als
##ama
##ame
##ana
##and
##ane
##ang
##ani
##ann
##ano
##ans
##ant
##ape
##app
##ara
##ard
##are
##ari
##ark
##art
##ary
##ase
##ash
##ass
##ast
##ata
##ate
##ath
##ats
##ave
##bar
##bat
##bay
##bbs
##bby
##bee
##bel
##ber
##bet
##bia
##bin
##bit
##ble
##bon
##bor
##bot
##bow
##box
##boy
##bra
##bre
##bug
##bus
##cal
##cam
##can
##car
##cat
##cca
##cel
##cer
##ces
##cha
##che
##chi
##cia
##cil
##cks
##cky
##cle
##cms
##com
##con
##cts
##cus
##dan
##dar
##day
##ded
##del
##den
##deo
##der
##des
##dge
##dia
##die
##dio
##dog
##dom
##don
##dot
##dra
##ead
##eam
##ean
##ear
##ect
##een
##eep
##eet
##ein
##ell
##eme
##ena
##end
##ene
##eng
##ens
##ent
##era
##ere
##ern
##ers
##ert
##ery
##ese
##ess
##est
##ets
##ett
##ews
##fer
##fet
##fig
##fit
##fly
##ful
##fun
##gan
##gar
##gas
##ged
##gen
##ger
##get
##ght
##gin
##gio
##gle
##gma
##hai
##ham
##han
##hat
##hen
##her
##hia
##hin
##hip
##hoo
##hop
##how
##hua
##hur
##ial
##ian
##ias
##ica
##ice
##ich
##ick
##ico
##ics
##ida
##ide
##iel
##ien
##ier
##ies
##ift
##ign
##ika
##ike
##iki
##iko
##ile
##ill
##ils
##ily
##ima
##ime
##ina
##ine
##ing
##ini
##ink
##ino
##ins
##int
##ion
##ira
##ire
##isa
##ise
##ish
##ism
##ist
##ita
##ite
##ith
##iti
##ito
##its
##ity
##itz
##ium
##ius
##ive
##ize
##jia
##jie
##jin
##joy
##jun
##ken
##ker
##ket
##key
##khz
##kin
##kit
##lab
##lam
##lan
##lar
##las
##lax
##lay
##led
##lee
##len
##ler
##les
##let
##lex
##ley
##lia
##lic
##lie
##lin
##lio
##lis
##lla
##lle
##lli
##llo
##lls
##lly
##log
##lon
##lor
##lot
##low
##lts
##lus
##lux
##mah
##man
##map
##mar
##max
##may
##med
##men
##mer
##mes
##mhz
##mic
##min
##mit
##mix
##mma
##mmy
##mon
##mus
##nan
##nap
##nar
##nba
##nce
##nch
##ncy
##nda
##ndi
##ndy
##nel
##ner
##nes
##net
##new
##ney
##nge
##nia
##nic
##nie
##nis
##nix
##nne
##nny
##nor
##nos
##now
##nse
##nts
##nus
##ock
##ode
##oid
##oka
##ola
##ome
##ona
##ond
##one
##ong
##ons
##ood
##ook
##ool
##oon
##oot
##ope
##ora
##ore
##orm
##ors
##ort
##ory
##osa
##ose
##ost
##oto
##oud
##our
##ous
##out
##ova
##own
##pad
##pan
##per
##pin
##ple
##pop
##ppy
##pro
##pus
##put
##que
##ral
##ram
##ran
##rap
##ray
##rea
##red
##ree
##ren
##res
##rex
##rey
##rge
##ria
##ric
##rid
##rie
##rin
##rio
##rip
##ris
##rix
##rma
##rmb
##ron
##ros
##row
##rry
##rss
##rth
##rum
##rus
##san
##sch
##sco
##sen
##ser
##ses
##set
##sha
##shi
##sia
##sio
##sis
##sit
##sky
##sol
##son
##sse
##sta
##ste
##sue
##sun
##tag
##tal
##tan
##tar
##tax
##tch
##ted
##tee
##tel
##ten
##ter
##tes
##the
##tic
##tin
##tis
##tle
##tom
##ton
##top
##tor
##tos
##tra
##tro
##try
##tsu
##tta
##tte
##tti
##tto
##tty
##tus
##ual
##uan
##ube
##uce
##uch
##uck
##ude
##uel
##ugh
##uid
##ula
##ule
##ull
##ult
##uma
##ume
##und
##ung
##ura
##ure
##urg
##url
##urn
##urs
##urt
##ury
##use
##ush
##ust
##ute
##val
##van
##vas
##ved
##vel
##ven
##ver
##ves
##via
##vic
##vin
##vis
##wan
##way
##web
##wei
##wen
##wer
##win
##www
##xon
##xxx
##yan
##yer
##you
##zen
##zer
##zon
##zzi
##1000
##2000
##2007
##2008
##2009
##2010
##2011
##2012
##2013
##2014
##2015
##2016
##2017
##3000
##able
##ader
##ager
##ague
##aine
##ance
##anda
##asia
##atic
##ator
##atus
##baby
##back
##ball
##bank
##baru
##base
##bell
##berg
##bert
##beth
##bian
##bike
##blog
##body
##book
##burg
##cake
##card
##care
##cast
##cent
##cept
##chat
##chel
##chen
##cher
##cing
##city
##cker
##cket
##code
##coin
##come
##cord
##core
##ctor
##data
##dden
##desk
##dget
##ding
##dium
##down
##ella
##ello
##ence
##erry
##ette
##ever
##face
##file
##firm
##flow
##food
##ford
##fork
##form
##free
##gate
##ggle
##ging
##gion
##gnet
##hang
##head
##here
##hing
##home
##hone
##host
##http
##ible
##ical
##icon
##ider
##ight
##ince
##iner
##ings
##ions
##ious
##ique
##ison
##itor
##ject
##jing
##king
##kins
##lace
##land
##last
##late
##lean
##lent
##less
##life
##lina
##line
##ling
##link
##lish
##list
##live
##ller
##llow
##lmer
##load
##lock
##logy
##lone
##love
##lter
##lton
##lvin
##mail
##mall
##mand
##mann
##mark
##mate
##mber
##mbps
##ment
##mine
##ming
##mini
##mond
##moon
##more
##mple
##name
##nder
##ners
##ness
##news
##next
##nger
##ning
##nity
##nnis
##nome
##note
##nsis
##nter
##oman
##oper
##ough
##ould
##ound
##over
##pact
##page
##pass
##ping
##play
##plus
##port
##post
##pper
##ques
##rade
##rail
##rain
##rame
##rant
##raph
##rcle
##rder
##rdon
##read
##ream
##rect
##reen
##rent
##ress
##rial
##rian
##ries
##ring
##rite
##rity
##rley
##rman
##rmin
##rner
##room
##rris
##rtex
##said
##sday
##self
##sent
##ship
##shop
##shot
##side
##sion
##site
##sson
##star
##ster
##stin
##stle
##ston
##stro
##stry
##tail
##talk
##tant
##tech
##tein
##ters
##test
##text
##ther
##tics
##tier
##ties
##time
##tina
##ting
##tion
##tive
##tone
##tore
##tors
##tory
##town
##trix
##tter
##tton
##ture
##type
##uard
##ular
##unch
##unge
##vice
##view
##ving
##walk
##wang
##ward
##ware
##ways
##well
##west
##wing
##wood
##word
##work
##zone
##admin
##ather
##ation
##ature
##berry
##board
##count
##ction
##ctive
##cture
##dical
##drive
##ement
##ering
##ernel
##erson
##eting
##field
##force
##gence
##group
##house
##ience
##ified
##ision
##ition
##ivity
##jiang
##light
##lines
##lling
##media
##ments
##night
##ology
##orage
##ories
##other
##point
##press
##price
##rence
##right
##share
##shine
##space
##ssion
##stack
##stone
##style
##table
##thing
##tical
##times
##tings
##tions
##tment
##ument
##verse
##ville
##watch
##works
##world
##ations
##bility
##cation
##covery
##dragon
##graphy
##ground
##iginal
##lution
##master
##mobile
##public
##ration
##tation
##tional
##uality
##walker
##ference
##mporary
##ctionary
##facebook
##ification
