{"<|endoftext|>": 0, "<|padding|>": 1, "<|separator|>": 2, "!": 3, "\"": 4, "#": 5, "$": 6, "%": 7, "&": 8, "'": 9, "(": 10, ")": 11, "*": 12, "+": 13, ",": 14, "-": 15, ".": 16, "/": 17, "0": 18, "1": 19, "2": 20, "3": 21, "4": 22, "5": 23, "6": 24, "7": 25, "8": 26, "9": 27, ":": 28, ";": 29, "<": 30, "=": 31, ">": 32, "?": 33, "@": 34, "A": 35, "B": 36, "C": 37, "D": 38, "E": 39, "F": 40, "G": 41, "H": 42, "I": 43, "J": 44, "K": 45, "L": 46, "M": 47, "N": 48, "O": 49, "P": 50, "Q": 51, "R": 52, "S": 53, "T": 54, "U": 55, "V": 56, "W": 57, "X": 58, "Y": 59, "Z": 60, "[": 61, "\\": 62, "]": 63, "^": 64, "_": 65, "`": 66, "a": 67, "b": 68, "c": 69, "d": 70, "e": 71, "f": 72, "g": 73, "h": 74, "i": 75, "j": 76, "k": 77, "l": 78, "m": 79, "n": 80, "o": 81, "p": 82, "q": 83, "r": 84, "s": 85, "t": 86, "u": 87, "v": 88, "w": 89, "x": 90, "y": 91, "z": 92, "{": 93, "|": 94, "}": 95, "~": 96, "\u00a1": 97, "\u00a2": 98, "\u00a3": 99, "\u00a4": 100, "\u00a5": 101, "\u00a6": 102, "\u00a7": 103, "\u00a8": 104, "\u00a9": 105, "\u00aa": 106, "\u00ab": 107, "\u00ac": 108, "\u00ae": 109, "\u00af": 110, "\u00b0": 111, "\u00b1": 112, "\u00b2": 113, "\u00b3": 114, "\u00b4": 115, "\u00b5": 116, "\u00b6": 117, "\u00b7": 118, "\u00b8": 119, "\u00b9": 120, "\u00ba": 121, "\u00bb": 122, "\u00bc": 123, "\u00bd": 124, "\u00be": 125, "\u00bf": 126, "\u00c2": 127, "\u00c3": 128, "\u00c4": 129, "\u00c5": 130, "\u00c6": 131, "\u00c7": 132, "\u00c8": 133, "\u00c9": 134, "\u00ca": 135, "\u00cb": 136, "\u00cc": 137, "\u00cd": 138, "\u00ce": 139, "\u00cf": 140, "\u00d0": 141, "\u00d1": 142, "\u00d2": 143, "\u00d3": 144, "\u00d4": 145, "\u00d5": 146, "\u00d6": 147, "\u00d7": 148, "\u00d8": 149, "\u00d9": 150, "\u00da": 151, "\u00db": 152, "\u00dc": 153, "\u00dd": 154, "\u00de": 155, "\u00df": 156, "\u00e0": 157, "\u00e1": 158, "\u00e2": 159, "\u00e3": 160, "\u00e4": 161, "\u00e5": 162, "\u00e6": 163, "\u00e7": 164, "\u00e8": 165, "\u00e9": 166, "\u00ea": 167, "\u00eb": 168, "\u00ec": 169, "\u00ed": 170, "\u00ee": 171, "\u00ef": 172, "\u00f0": 173, "\u00f1": 174, "\u00f2": 175, "\u00f3": 176, "\u00f4": 177, "\u0100": 178, "\u0101": 179, "\u0102": 180, "\u0103": 181, "\u0104": 182, "\u0105": 183, "\u0106": 184, "\u0107": 185, "\u0108": 186, "\u0109": 187, "\u010a": 188, "\u010b": 189, "\u010c": 190, "\u010e": 191, "\u010f": 192, "\u0110": 193, "\u0111": 194, "\u0112": 195, "\u0113": 196, "\u0114": 197, "\u0115": 198, "\u0116": 199, "\u0117": 200, "\u0118": 201, "\u0119": 202, "\u011a": 203, "\u011b": 204, "\u011c": 205, "\u011d": 206, "\u011e": 207, "\u011f": 208, "\u0120": 209, "\u0121": 210, "\u0122": 211, "\u0123": 212, "\u0124": 213, "\u0125": 214, "\u0126": 215, "\u0127": 216, "\u0128": 217, "\u0129": 218, "\u012a": 219, "\u012b": 220, "\u012c": 221, "\u012d": 222, "\u012e": 223, "\u012f": 224, "\u0130": 225, "\u0131": 226, "\u0132": 227, "\u0133": 228, "\u0134": 229, "\u0135": 230, "\u0136": 231, "\u0137": 232, "\u0138": 233, "\u0139": 234, "\u013a": 235, "\u013b": 236, "\u013c": 237, "\u013d": 238, "\u013e": 239, "\u013f": 240, "\u0140": 241, "\u0141": 242, "\u0142": 243, "\u0143": 244, "\u0120\u0120": 245, "\u0120\u0120\u0120\u0120": 246, "\u0120\u0120\u0120\u0120\u0120\u0120\u0120\u0120": 247, "in": 248, "\u0120\u0120\u0120": 249, "er": 250, "re": 251, "on": 252, "st": 253, "at": 254, "\u0120t": 255, "de": 256, "\u01200": 257, "\u0120*": 258, "en": 259, "\u0120=": 260, "or": 261, "\u0120\u0109": 262, "\u0120\u010a": 263, "00": 264, "se": 265, "al": 266, ");": 267, "**": 268, "//": 269, "--": 270, "le": 271, "\u0120c": 272, "ar": 273, "ct": 274, "\u0120{": 275, "\u0120\u0120\u0120\u0120\u0120\u0120\u0120": 276, "it": 277, "an": 278, "ion": 279, "\u0120(": 280, "he": 281, "\u0120f": 282, "\u0120\u0120\u0120\u0120\u0120\u0120\u0120\u0120\u0120\u0120\u0120\u0120\u0120\u0120\u0120\u0120": 283, "ic": 284, "if": 285, "me": 286, "ur": 287, "is": 288, "\u0120p": 289, "\u0120}": 290, "int": 291, "ro": 292, "un": 293, "et": 294, "\u0120\u0109\u0109": 295, "ing": 296, "->": 297, "\u0120s": 298, "ed": 299, "ut": 300, "\u0120a": 301, "\u0120n": 302, "\u0120re": 303, "es": 304, "\u0120b": 305, "\u0120the": 306, "\u0120#": 307, "----": 308, "lo": 309, "****": 310, "id": 311, "\u0120\"": 312, "str": 313, "==": 314, "pe": 315, "ent": 316, "\u0120o": 317, "urn": 318, "def": 319, "mp": 320, "ac": 321, "\u0120//": 322, "turn": 323, "ex": 324, "\u0120v": 325, "ue": 326, "ad": 327, "\u0120m": 328, "ame": 329, "\u0120\u0120\u0120\u0120\u0120\u0120\u0120\u0120\u0120\u0120\u0120": 330, "\u0120S": 331, "as": 332, "tr": 333, "ate": 334, "ine": 335, "()": 336, "\u0120*/": 337, "ig": 338, "il": 339, "el": 340, "ag": 341, "\u0120T": 342, "ul": 343, "\u0120w": 344, "ff": 345, "co": 346, "\",": 347, "\u0120/": 348, "\u0120d": 349, "\u0109\u0109": 350, "th": 351, "\u01201": 352, "\u0120in": 353, "\u0120C": 354, "IN": 355, "ype": 356, "ce": 357, "::": 358, "\u0120\u0120\u0120\u0120\u0120": 359, "\u0120<": 360, "\u0120A": 361, "ap": 362, "0000": 363, "In": 364, "ol": 365, "define": 366, "ab": 367, "\u0120i": 368, "\u0120st": 369, "and": 370, "ER": 371, "get": 372, "ch": 373, "\u0120con": 374, "uct": 375, "ot": 376, "\u0120'": 377, "\u0120u": 378, "err": 379, "um": 380, "pt": 381, "\u0120th": 382, "iz": 383, "\u0120to": 384, "ub": 385, "\u0120l": 386, "set": 387, "\u0120int": 388, "ation": 389, "ck": 390, "__": 391, "\u0120if": 392, "struct": 393, "ode": 394, "iv": 395, "\u0120&": 396, "return": 397, "--------": 398, "),": 399, "ction": 400, "\u0120P": 401, "********": 402, "am": 403, "ist": 404, "RE": 405, "ort": 406, "////": 407, "ata": 408, "\u0120/*": 409, "Re": 410, "ss": 411, "cl": 412, "ST": 413, "ext": 414, "con": 415, "====": 416, "end": 417, "\u0120-": 418, "32": 419, "ize": 420, "te": 421, "ay": 422, "us": 423, "ON": 424, "\u0120is": 425, "\u0120\u0120\u0120\u0120\u0120\u0120\u0120\u0120\u0120\u0120\u0120\u0120\u0120\u0120\u0120": 426, "\u0120of": 427, "\u0120h": 428, "\u0120return": 429, "ase": 430, "\u0120+": 431, "ter": 432, "\u0120D": 433, "EN": 434, "(\"": 435, "dev": 436, "\u0120M": 437, "able": 438, "ile": 439, "ew": 440, "alue": 441, "\u0120L": 442, "op": 443, "\u01202": 444, "\u0120N": 445, "\u0120for": 446, "\u0120I": 447, "\u0120F": 448, "age": 449, "AT": 450, "lic": 451, "))": 452, "ect": 453, "up": 454, "\u0120@": 455, "oid": 456, "OR": 457, "ult": 458, "\u0120G": 459, "\u0120B": 460, "\u0120e": 461, "\u0120\u0109\u0109\u0109": 462, "',": 463, "SE": 464, "ert": 465, "all": 466, "IT": 467, "MA": 468, "od": 469, "\u0120r": 470, "ib": 471, "ass": 472, "ack": 473, "\u0120E": 474, "ers": 475, "om": 476, "\u0120:": 477, "\u0120stat": 478, "AL": 479, "im": 480, "ption": 481, "\u0120g": 482, "AR": 483, "ir": 484, "\u0120const": 485, "\u0120this": 486, "DE": 487, "fo": 488, "\u0120==": 489, "to": 490, "();": 491, "res": 492, "01": 493, "Con": 494, "LE": 495, "nt": 496, "\u0120err": 497, "par": 498, "ith": 499, "ow": 500, "\u0120void": 501, "unction": 502, "ment": 503, "\u0120!": 504, "ht": 505, "\u0120|": 506, "\u0120R": 507, "\u0120static": 508, "\u0120and": 509, "\u0120\u0109\u0109\u0109\u0109": 510, "St": 511, "ke": 512, "lock": 513, "qu": 514, "ign": 515, "sc": 516, "pr": 517, "ublic": 518, "},": 519, "UL": 520, "\u0120\u0120\u0120\u0120\u0120\u0120\u0120\u0120\u0120\u0120\u0120\u0120\u0120\u0120\u0120\u0120\u0120\u0120\u0120\u0120\u0120\u0120\u0120\u0120\u0120\u0120\u0120\u0120\u0120\u0120\u0120\u0120": 521, "bj": 522, "\u0120be": 523, "ite": 524, "\u0120O": 525, "ime": 526, "bu": 527, "ace": 528, "for": 529, "string": 530, "\u0120$": 531, "av": 532, "put": 533, "rr": 534, "64": 535, "ri": 536, "of": 537, "////////": 538, "der": 539, "sp": 540, "\u0120se": 541, "ice": 542, "ess": 543, "are": 544, "\u0120[": 545, "CT": 546, "\u0120_": 547, "FF": 548, "os": 549, "que": 550, "\u0120or": 551, "\u0120U": 552, "----------------": 553, "****************": 554, "ip": 555, "ang": 556, "\u0120un": 557, "type": 558, "16": 559, "out": 560, "ma": 561, "\u0120de": 562, "Type": 563, "art": 564, "ID": 565, "AN": 566, "/*": 567, "data": 568, "\u0120pro": 569, "tring": 570, "dr": 571, "========": 572, "est": 573, "pro": 574, "000": 575, "our": 576, "this": 577, "Ex": 578, "name": 579, "clu": 580, "ull": 581, "\u0120W": 582, "\u0120ch": 583, "\u0120imp": 584, "\u0120tr": 585, "pl": 586, "\u0120\u0120\u0120\u0120\u0120\u0120": 587, "10": 588, "oun": 589, "\u0120ex": 590, "ight": 591, "val": 592, "rom": 593, "12": 594, "clude": 595, "ain": 596, "ver": 597, "\u0120!=": 598, "else": 599, "\u0120\u0120\u0120\u0120\u0120\u0120\u0120\u0120\u0120\u0120\u0120\u0120\u0120\u0120\u0120\u0120\u0120\u0120\u0120": 600, "arg": 601, "IC": 602, "\u0120struct": 603, "bject": 604, "\u0120new": 605, "oc": 606, "yp": 607, "ath": 608, "\u0120>": 609, "ser": 610, "\u0120on": 611, "\u0120H": 612, "Name": 613, "dex": 614, "text": 615, "port": 616, "\u0120public": 617, "SI": 618, "));": 619, "ense": 620, "\u0120\u0120\u0120\u0120\u0120\u0120\u0120\u0120\u0120": 621, "ure": 622, "\u0120__": 623, "AD": 624, "ind": 625, "io": 626, "dd": 627, "param": 628, "lf": 629, "],": 630, "11": 631, "size": 632, "oint": 633, "em": 634, "len": 635, "ity": 636, "omp": 637, "\");": 638, "TR": 639, "\u0120type": 640, "iel": 641, "oo": 642, "fig": 643, "\u0120cl": 644, "sh": 645, "unc": 646, "De": 647, "include": 648, "PI": 649, "ield": 650, "ial": 651, "ire": 652, "per": 653, "\u0120)": 654, "\u0120not": 655, "\u0120it": 656, "ource": 657, "\u0120/**": 658, "\u0120V": 659, "\u0120,": 660, "..": 661, "act": 662, "\u0120\\": 663, "ide": 664, "Pro": 665, "\u0120an": 666, "\u0120me": 667, "vent": 668, "ME": 669, "\u0120with": 670, "ool": 671, "quest": 672, "loc": 673, "UT": 674, "CH": 675, "\u0120import": 676, "ree": 677, "\u01203": 678, "reg": 679, "icense": 680, "sign": 681, "ast": 682, "\u0120by": 683, "ms": 684, "cc": 685, "ak": 686, "SS": 687, "RO": 688, "key": 689, "\u0120%": 690, "\u0120uint": 691, "\u0120&&": 692, "ress": 693, "ULL": 694, "read": 695, "\u0120def": 696, "ator": 697, "ibut": 698, "(&": 699, "\u0120name": 700, "LO": 701, "PE": 702, "String": 703, "lag": 704, "ve": 705, "\u0120=>": 706, "\u0120},": 707, "ive": 708, "\u0120<<": 709, "\u01204": 710, "ly": 711, "\u0120///": 712, "code": 713, "ition": 714, "##": 715, "TI": 716, ").": 717, "ask": 718, "\u0120use": 719, "56": 720, "\u0120:=": 721, "20": 722, "ener": 723, "Err": 724, "atch": 725, "xff": 726, "\u0120j": 727, "ong": 728, "ail": 729, "\u0120else": 730, "value": 731, "AC": 732, "ore": 733, "\u0120value": 734, "signed": 735, "alse": 736, "form": 737, "ll": 738, "\u0120function": 739, "\u0120get": 740, "80": 741, "IS": 742, "CO": 743, "Res": 744, "low": 745, "rite": 746, "UN": 747, "\u0120wh": 748, "ault": 749, "ED": 750, "\u0120In": 751, "lement": 752, "ary": 753, "\u0120x": 754, "\u0120set": 755, "ix": 756, "AB": 757, "\u0120that": 758, "IF": 759, "gth": 760, "ost": 761, "En": 762, "\u0120res": 763, "ffer": 764, "pp": 765, "info": 766, "\u0120y": 767, "];": 768, "\u0120size": 769, "ans": 770, "row": 771, "MP": 772, "23": 773, "ber": 774, "++": 775, "\u0120string": 776, "ersion": 777, "one": 778, "opy": 779, "\u0120The": 780, "ename": 781, "ory": 782, "ated": 783, "\u0120as": 784, "CL": 785, "ient": 786, "ec": 787, "\":": 788, "ill": 789, "\u0120error": 790, "15": 791, "ffset": 792, "INT": 793, "\u0120sh": 794, "tp": 795, "ance": 796, "\u0120from": 797, "\u0120License": 798, "ust": 799, "EX": 800, "\u0120};": 801, "IG": 802, "\u0120al": 803, "reak": 804, "To": 805, "map": 806, "\u0120Re": 807, "heck": 808, "13": 809, "Id": 810, "ptr": 811, "add": 812, "ref": 813, "////////////////": 814, "GE": 815, "lin": 816, "com": 817, "ant": 818, "const": 819, "\u0120\u0120\u0120\u0120\u0120\u0120\u0120\u0120\u0120\u0120\u0120\u0120\u0120\u0120\u0120\u0120\u0120\u0120\u0120\u0120\u0120\u0120\u0120\u0120": 820, "arr": 821, "ception": 822, "pec": 823, "mpl": 824, "US": 825, "ord": 826, "\u0120NULL": 827, "var": 828, "ule": 829, "\u0120func": 830, "('": 831, "14": 832, "(),": 833, "rc": 834, "ern": 835, "\u0120char": 836, "\u0120file": 837, "ard": 838, "mo": 839, "\u0120null": 840, "\u0120pr": 841, "Value": 842, "ange": 843, "unt": 844, "\u0120Th": 845, "89": 846, "roup": 847, "ax": 848, "ache": 849, "\u0120\u0120\u0120\u0120\u0120\u0120\u0120\u0120\u0120\u0120\u0120\u0120\u0120\u0120\u0120\u0120\u0120\u0120\u0120\u0120\u0120\u0120\u0120": 850, "ister": 851, "Cl": 852, "Set": 853, "\u0120((": 854, "\u0120class": 855, "stat": 856, "\u0120en": 857, "function": 858, "\u0120data": 859, "ry": 860, "ee": 861, "List": 862, "reate": 863, "line": 864, "device": 865, "\")": 866, "by": 867, "\u0120true": 868, "\u0120nil": 869, "gr": 870, "ypename": 871, "SH": 872, "ies": 873, "ivate": 874, "\u0120||": 875, "lags": 876, "\u0120lo": 877, "\u0120.": 878, "\u0120(!": 879, "\u0120out": 880, "ader": 881, "\u0120at": 882, "Data": 883, "\u0120k": 884, "cp": 885, "\",\"": 886, "\u0120self": 887, "case": 888, "buf": 889, "sy": 890, "IO": 891, "CC": 892, "\u0120false": 893, "40": 894, "ork": 895, "Ch": 896, "endif": 897, "uint": 898, "ERR": 899, "cted": 900, "Get": 901, "ream": 902, "================": 903, "ING": 904, "ou": 905, "aw": 906, "HE": 907, "md": 908, "ann": 909, "00000000": 910, "urre": 911, "ret": 912, "].": 913, "Error": 914, "\u01205": 915, "\u0120do": 916, "PP": 917, "CON": 918, "xf": 919, "umber": 920, "ave": 921, "OP": 922, "\u0120);": 923, "24": 924, "\u0120var": 925, "OT": 926, "18": 927, "\u0120bu": 928, "vice": 929, "\u0120val": 930, "((": 931, "ound": 932, "file": 933, "pert": 934, "03": 935, "ount": 936, "TY": 937, "\u0120This": 938, "SK": 939, "tain": 940, "ph": 941, "inal": 942, "ument": 943, "ild": 944, "ens": 945, "array": 946, "oft": 947, "IP": 948, "REG": 949, "TH": 950, "CK": 951, "\";": 952, "25": 953, "its": 954, "\u0120are": 955, "state": 956, "ware": 957, "SY": 958, "\u0120case": 959, "Tr": 960, "ach": 961, "ifi": 962, "back": 963, "istr": 964, "Un": 965, "ther": 966, "********************************": 967, "IL": 968, "urrent": 969, "\u0120comp": 970, "Bu": 971, "stem": 972, "SC": 973, "\u0120par": 974, "mple": 975, "tro": 976, "Par": 977, "OL": 978, "orm": 979, "--------------------------------": 980, "void": 981, "At": 982, "ION": 983, "[]": 984, "19": 985, "list": 986, "\u0120typename": 987, "og": 988, "init": 989, "\u0120us": 990, "LA": 991, "\u0120reg": 992, "onse": 993, "ptions": 994, "andle": 995, "ef": 996, "\u0120le": 997, "UR": 998, "17": 999, "ock": 1000, "loat": 1001, "new": 1002, "nd": 1003, "date": 1004, "\u0120len": 1005, "=\"": 1006, "nc": 1007, "ey": 1008, "addr": 1009, "xb": 1010, "33": 1011, "CE": 1012, "\u01208": 1013, "ector": 1014, "ty": 1015, "bo": 1016, "</": 1017, "sk": 1018, "\u0120bool": 1019, "\u0120we": 1020, "qual": 1021, "tx": 1022, "rame": 1023, "DR": 1024, "04": 1025, "Object": 1026, "\u0120ass": 1027, "test": 1028, "MO": 1029, "STAT": 1030, "Key": 1031, "af": 1032, "().": 1033, "Info": 1034, "right": 1035, "Ser": 1036, "ash": 1037, "use": 1038, "uld": 1039, "SET": 1040, "app": 1041, "tribut": 1042, "count": 1043, "pc": 1044, "be": 1045, "omm": 1046, "\u0120can": 1047, "ger": 1048, "ould": 1049, "):": 1050, "ence": 1051, "02": 1052, "col": 1053, "lect": 1054, "ep": 1055, "ENT": 1056, "odel": 1057, "ORT": 1058, "ameter": 1059, "own": 1060, "55": 1061, "ere": 1062, "NE": 1063, "99": 1064, "print": 1065, "Exception": 1066, "iew": 1067, "face": 1068, "rit": 1069, "ery": 1070, "\u0120arg": 1071, "li": 1072, "Se": 1073, "no": 1074, "arget": 1075, "ystem": 1076, "OST": 1077, "ux": 1078, "Size": 1079, "());": 1080, "unsigned": 1081, "\u0120String": 1082, "\u0120`": 1083, "Col": 1084, "\u01206": 1085, "\u0120test": 1086, "Sc": 1087, "stance": 1088, "tes": 1089, "ABLE": 1090, "node": 1091, "comp": 1092, "AP": 1093, "cess": 1094, "\u0120add": 1095, "error": 1096, "istribut": 1097, "fer": 1098, "ken": 1099, "){": 1100, "MASK": 1101, "ml": 1102, "\u0120std": 1103, "\u0120long": 1104, "IM": 1105, "fs": 1106, "TE": 1107, "\u0120ext": 1108, "22": 1109, "CR": 1110, "\u0120?": 1111, "mem": 1112, "ined": 1113, "write": 1114, "space": 1115, "\u0120end": 1116, "ge": 1117, "._": 1118, "mt": 1119, "ccess": 1120, "oftware": 1121, "30": 1122, "son": 1123, "VAL": 1124, "xc": 1125, "index": 1126, "xa": 1127, "length": 1128, "xFF": 1129, "77": 1130, "\u0120Con": 1131, "Index": 1132, "odule": 1133, "self": 1134, "\u0120will": 1135, "Time": 1136, "28": 1137, "\u0120sc": 1138, "TYPE": 1139, "Test": 1140, "\u0120private": 1141, "State": 1142, "ual": 1143, "\u0120X": 1144, "\u0120\u0109\u0109\u0109\u0109\u0109": 1145, "\u0120result": 1146, "path": 1147, "ud": 1148, "time": 1149, "CM": 1150, "log": 1151, "perty": 1152, "ues": 1153, "num": 1154, "AS": 1155, "ART": 1156, "sum": 1157, "\u0120\u0120\u0120\u0120\u0120\u0120\u0120\u0120\u0120\u0120\u0120\u0120\u0120": 1158, "\u0120+=": 1159, "ilter": 1160, "ific": 1161, "ne": 1162, "($": 1163, "AM": 1164, "File": 1165, "BU": 1166, "ctx": 1167, "ointer": 1168, "mb": 1169, "ded": 1170, "ps": 1171, ":\"": 1172, "ations": 1173, "Comp": 1174, "Node": 1175, "break": 1176, "Pos": 1177, "tent": 1178, "valid": 1179, "\u0120K": 1180, "annel": 1181, "start": 1182, "quire": 1183, "db": 1184, "uth": 1185, "ponse": 1186, "opyright": 1187, "rray": 1188, "08": 1189, "\u0120Q": 1190, "min": 1191, "\u0120te": 1192, "andl": 1193, "irst": 1194, "mplate": 1195, "\u01207": 1196, "idth": 1197, "ify": 1198, "Context": 1199, "Reg": 1200, "vel": 1201, "())": 1202, "000000": 1203, "esc": 1204, "char": 1205, "ript": 1206, "lean": 1207, "Stat": 1208, "uble": 1209, "ake": 1210, "VE": 1211, "byte": 1212, "class": 1213, "\u0120list": 1214, "\u0120unsigned": 1215, "ZE": 1216, "\u0120AN": 1217, "\u0120he": 1218, "\u0120spec": 1219, "UE": 1220, "Field": 1221, "Request": 1222, "base": 1223, "Config": 1224, "SP": 1225, "\u0120under": 1226, "ions": 1227, "entry": 1228, "SR": 1229, "OUT": 1230, "config": 1231, "By": 1232, "IR": 1233, "\u0120\u0120\u0120\u0120\u0120\u0120\u0120\u0120\u0120\u0120": 1234, "trol": 1235, "88": 1236, "\u0120call": 1237, "ww": 1238, "indow": 1239, "work": 1240, "\u0120OR": 1241, "','": 1242, "Met": 1243, "dent": 1244, "ttp": 1245, "50": 1246, "\u0120time": 1247, "pos": 1248, "\u0120/*!": 1249, "NO": 1250, "lay": 1251, "27": 1252, "UP": 1253, "\u0120per": 1254, "\u0120key": 1255, "\u0120J": 1256, "\u0120sy": 1257, "\u0120using": 1258, "dis": 1259, "mpty": 1260, ")(": 1261, "FA": 1262, "\u0109\u0109\u0109\u0109": 1263, "max": 1264, "pre": 1265, "NU": 1266, "\u0120assert": 1267, "thod": 1268, "\u0120\u0120\u0120\u0120\u0120\u0120\u0120\u0120\u0120\u0120\u0120\u0120": 1269, "://": 1270, "bug": 1271, "ffff": 1272, "arent": 1273, "try": 1274, "result": 1275, "sw": 1276, "44": 1277, "])": 1278, "RL": 1279, "OOST": 1280, "load": 1281, "\u0120THE": 1282, "rg": 1283, "Event": 1284, "link": 1285, "26": 1286, "sub": 1287, "xe": 1288, "\u0120ret": 1289, "21": 1290, "net": 1291, "SIZE": 1292, "move": 1293, "['": 1294, "\u0120code": 1295, "ES": 1296, "\u0120up": 1297, "Th": 1298, "\u0120object": 1299, "Len": 1300, "\u0120Get": 1301, "sed": 1302, "uration": 1303, "####": 1304, "DAT": 1305, "upport": 1306, "VER": 1307, "priv": 1308, "29": 1309, "gin": 1310, "Def": 1311, "PRO": 1312, "aa": 1313, "ting": 1314, "ait": 1315, "567": 1316, "ssage": 1317, "ush": 1318, "TO": 1319, "Add": 1320, "hed": 1321, "*/": 1322, "pi": 1323, "Map": 1324, "xd": 1325, "\u0120typedef": 1326, "PC": 1327, "\u0120\u0120\u0120\u0120\u0120\u0120\u0120\u0120\u0120\u0120\u0120\u0120\u0120\u0120\u0120\u0120\u0120\u0120\u0120\u0120\u0120\u0120\u0120\u0120\u0120\u0120\u0120": 1328, "SYS": 1329, "\u0120IN": 1330, "34": 1331, "FI": 1332, "////////////////////////////////": 1333, "\u0120field": 1334, "oto": 1335, "86": 1336, "di": 1337, "PL": 1338, "abel": 1339, "234": 1340, "status": 1341, "IFT": 1342, "andler": 1343, "rt": 1344, "!!": 1345, "\u0120final": 1346, "iver": 1347, "ved": 1348, "EXT": 1349, "iss": 1350, "\u0120If": 1351, "hw": 1352, "ject": 1353, "rap": 1354, "Int": 1355, "\u0120z": 1356, "verr": 1357, "imit": 1358, "')": 1359, "\u0120/*!<": 1360, "lete": 1361, "\u0120request": 1362, "36": 1363, "ypes": 1364, "flags": 1365, "\u0120St": 1366, "Sh": 1367, "\u0120so": 1368, "onent": 1369, "mm": 1370, "ise": 1371, "\u0120break": 1372, "\u012016": 1373, "uto": 1374, "TC": 1375, "Code": 1376, "pen": 1377, "DC": 1378, "ld": 1379, "ava": 1380, "pected": 1381, "mse": 1382, "arch": 1383, "He": 1384, "\u0120used": 1385, "item": 1386, "++)": 1387, "Text": 1388, "\u0120str": 1389, "fd": 1390, "AME": 1391, "essage": 1392, ">(": 1393, "ample": 1394, "54": 1395, "sg": 1396, "\u0120[]": 1397, "tribute": 1398, "mary": 1399, "Val": 1400, "\u0120any": 1401, "\u0120CON": 1402, "06": 1403, "LIN": 1404, "led": 1405, "verride": 1406, "\u0120pack": 1407, "\u0120all": 1408, "PR": 1409, "req": 1410, "&&": 1411, "table": 1412, "mode": 1413, "DB": 1414, "\u0120read": 1415, "56789": 1416, "Array": 1417, "desc": 1418, "\u0120id": 1419, "point": 1420, "31": 1421, "\u0120OF": 1422, "':": 1423, "\u0120dis": 1424, "itch": 1425, "ark": 1426, "mask": 1427, "lection": 1428, "\u0120Copyright": 1429, "\u0120BOOST": 1430, "offset": 1431, "bit": 1432, "\u0120array": 1433, "SU": 1434, "\u0120col": 1435, "})": 1436, "lob": 1437, "23456789": 1438, "\u0120you": 1439, "\u0120ad": 1440, "\u0120may": 1441, "ates": 1442, "event": 1443, "free": 1444, "util": 1445, "07": 1446, "\u0120have": 1447, "\u0120default": 1448, "37": 1449, "PO": 1450, "attr": 1451, "\u0120number": 1452, "Ite": 1453, "PIO": 1454, "mat": 1455, "ick": 1456, "\u01209": 1457, "LI": 1458, "msg": 1459, "\u0120state": 1460, "Path": 1461, "tern": 1462, "\u0120no": 1463, "comm": 1464, "05": 1465, "\u0120Set": 1466, "ces": 1467, "\u0120should": 1468, "66": 1469, "Class": 1470, "MAX": 1471, "\u0120ser": 1472, "KE": 1473, "\u0120>=": 1474, "SO": 1475, "irect": 1476, "cond": 1477, "\u0120version": 1478, "ote": 1479, "std": 1480, "\u0120\u0120\u0120\u0120\u0120\u0120\u0120\u0120\u0120\u0120\u0120\u0120\u0120\u0120\u0120\u0120\u0120": 1481, "anag": 1482, "38": 1483, "cur": 1484, "\u0120EX": 1485, "39": 1486, "35": 1487, "field": 1488, "DO": 1489, "ich": 1490, "ute": 1491, "AA": 1492, "ink": 1493, "FT": 1494, "buffer": 1495, "0123456789": 1496, "bl": 1497, "oolean": 1498, "xx": 1499, "\u0120q": 1500, "\"\"": 1501, "let": 1502, "\u0120sizeof": 1503, "py": 1504, "\u0120org": 1505, "BIT": 1506, "DI": 1507, "user": 1508, "default": 1509, "...": 1510, "ITY": 1511, "\u0120copy": 1512, "yle": 1513, "alloc": 1514, "']": 1515, "\u0120\u0120\u0120\u0120\u0120\u0120\u0120\u0120\u0120\u0120\u0120\u0120\u0120\u0120": 1516, "press": 1517, "\u0120offset": 1518, "tail": 1519, "\u0120distribut": 1520, "eturn": 1521, "ommand": 1522, "umn": 1523, "cs": 1524, "summary": 1525, "ernal": 1526, "TL": 1527, "WR": 1528, "\u0120ro": 1529, "XX": 1530, "CLK": 1531, "ont": 1532, "und": 1533, "\u0120Ex": 1534, "SHIFT": 1535, "\u0120index": 1536, "next": 1537, "Out": 1538, "irq": 1539, "\u0120http": 1540, "block": 1541, "\u0120*)": 1542, "CF": 1543, "play": 1544, "assert": 1545, "\u0120ne": 1546, "\u0120sub": 1547, "action": 1548, "\u0120Y": 1549, "\u0120throw": 1550, "09": 1551, "mage": 1552, "rl": 1553, "'s": 1554, "abled": 1555, "Is": 1556, "\"),": 1557, "};": 1558, "xF": 1559, "old": 1560, "BA": 1561, "DMA": 1562, "';": 1563, "Message": 1564, "\u0120</": 1565, "RAN": 1566, "Equal": 1567, "GL": 1568, "ERROR": 1569, "\u0120IS": 1570, "PU": 1571, "do": 1572, "\u0120GL": 1573, "Status": 1574, "\u0120node": 1575, "core": 1576, "ializ": 1577, "group": 1578, "\u0120app": 1579, "ning": 1580, "queue": 1581, "cept": 1582, "STR": 1583, "\u0120inter": 1584, "vm": 1585, "\u0120check": 1586, "org": 1587, "Element": 1588, "\u0120start": 1589, "\u0120has": 1590, "ell": 1591, "local": 1592, "iter": 1593, "01234567890123456789": 1594, "TX": 1595, "'t": 1596, "Response": 1597, "vert": 1598, "\u0120**": 1599, "so": 1600, "\u0120config": 1601, "cmd": 1602, "gle": 1603, "ok": 1604, "MC": 1605, "(){": 1606, "ULT": 1607, "cpu": 1608, "context": 1609, "ft": 1610, "\u0120pre": 1611, "\u0120Gener": 1612, "call": 1613, "linux": 1614, "87": 1615, "ocument": 1616, "client": 1617, "\u0120com": 1618, "SA": 1619, "Loc": 1620, "CTRL": 1621, "\u0120oper": 1622, "DATA": 1623, "input": 1624, "Desc": 1625, "xE": 1626, "Al": 1627, "\u0120input": 1628, "public": 1629, "clk": 1630, "================================": 1631, "Count": 1632, "proto": 1633, "create": 1634, "http": 1635, "Qu": 1636, "ors": 1637, "MB": 1638, "\u012010": 1639, "\u0120max": 1640, "MS": 1641, "For": 1642, "\u0120namespace": 1643, "upt": 1644, "\u0120\u0109\u0109\u0109\u0109\u0109\u0109": 1645, "ATE": 1646, "object": 1647, "ified": 1648, "DEV": 1649, "Of": 1650, "inter": 1651, "\u0120but": 1652, "An": 1653, "FIG": 1654, "\u0120when": 1655, "imer": 1656, "TA": 1657, "Result": 1658, "Up": 1659, "\u0120device": 1660, "59": 1661, "\u0120mem": 1662, "eb": 1663, "\u0120dr": 1664, "Group": 1665, "goto": 1666, "Ad": 1667, "\u0120Un": 1668, "ift": 1669, "ription": 1670, "PORT": 1671, "ages": 1672, "ie": 1673, "84": 1674, "\u0120only": 1675, "iled": 1676, "ume": 1677, "]);": 1678, "ics": 1679, "printf": 1680, "irt": 1681, "lear": 1682, "\u0120>>": 1683, "\u0120template": 1684, "scall": 1685, "\u0120must": 1686, "pack": 1687, "anager": 1688, "\u0120current": 1689, "ob": 1690, "HT": 1691, "ilder": 1692, "word": 1693, "END": 1694, "lat": 1695, "gram": 1696, "ook": 1697, "Buffer": 1698, "From": 1699, "Service": 1700, "\u0120context": 1701, "74": 1702, "request": 1703, "\u0120ANY": 1704, "afe": 1705, "(_": 1706, "Form": 1707, "\u0120mode": 1708, "ci": 1709, "\u0120event": 1710, "MODE": 1711, "\u0120bit": 1712, "ody": 1713, "\u0120(*": 1714, "miss": 1715, "Item": 1716, "(*": 1717, "not": 1718, "Str": 1719, ",-": 1720, "ply": 1721, "\u0120inline": 1722, "QU": 1723, "\u0120method": 1724, "ices": 1725, "GET": 1726, "tin": 1727, "ape": 1728, "ally": 1729, "0000000": 1730, "errupt": 1731, "CI": 1732, "stream": 1733, "\u0120buffer": 1734, "ifier": 1735, "\u0120require": 1736, "cf": 1737, "\u0120uintptr": 1738, "PA": 1739, "ible": 1740, "\u0120\u0120\u0120\u0120\u0120\u0120\u0120\u0120\u0120\u0120\u0120\u0120\u0120\u0120\u0120\u0120\u0120\u0120\u0120\u0120\u0120": 1741, "ALL": 1742, "si": 1743, "DL": 1744, "\u0120mod": 1745, "\u0120\u0120\u0120\u0120\u0120\u0120\u0120\u0120\u0120\u0120\u0120\u0120\u0120\u0120\u0120\u0120\u0120\u0120\u0120\u0120": 1746, "src": 1747, "With": 1748, "\u0120|=": 1749, "pect": 1750, "\u0120NOT": 1751, "RA": 1752, "the": 1753, "65": 1754, "\u0120defined": 1755, "\u0120source": 1756, "EL": 1757, "=>": 1758, "\u0120other": 1759, "43": 1760, "ton": 1761, "Or": 1762, "LOCK": 1763, "\u0120\u0120\u0120\u0120\u0120\u0120\u0120\u0120\u0120\u0120\u0120\u0120\u0120\u0120\u0120\u0120\u0120\u0120": 1764, "null": 1765, "\u0120Reg": 1766, "\u0120which": 1767, "ITH": 1768, "\u0120\u0109\u0120\u0120\u0120": 1769, "args": 1770, "Call": 1771, "ailed": 1772, "Stream": 1773, "ale": 1774, "CTION": 1775, "\u0120Pro": 1776, "\u0120init": 1777, "lose": 1778, "PH": 1779, "ins": 1780, "til": 1781, "\"},": 1782, "Log": 1783, "Client": 1784, "pu": 1785, "Inter": 1786, "\u0120float": 1787, "\u0120System": 1788, "\u0120->": 1789, "ops": 1790, "api": 1791, "mit": 1792, "Dis": 1793, "\u0120one": 1794, "Arg": 1795, "ner": 1796, "vide": 1797, "check": 1798, "apter": 1799, "ia": 1800, "100": 1801, "\u0120software": 1802, "enc": 1803, "ameters": 1804, "57": 1805, "uck": 1806, "\u0120See": 1807, "her": 1808, "\u0120flags": 1809, "lobal": 1810, "][": 1811, "dir": 1812, "TER": 1813, "version": 1814, "MI": 1815, "Property": 1816, "lease": 1817, "\u0120\"\\": 1818, "mut": 1819, "69": 1820, "nection": 1821, "tainer": 1822, "');": 1823, "Input": 1824, "BUG": 1825, "\u0120DE": 1826, "\u0120block": 1827, "ta": 1828, "ams": 1829, "query": 1830, "\u0120Public": 1831, "dma": 1832, "ys": 1833, "FO": 1834, "ND": 1835, "RX": 1836, "url": 1837, "ower": 1838, "Pr": 1839, "cord": 1840, "SB": 1841, "ifdef": 1842, "\u0120trans": 1843, "\u0120distributed": 1844, "\">": 1845, "frame": 1846, "fe": 1847, "page": 1848, "\"+": 1849, "fore": 1850, "\u0120output": 1851, "obj": 1852, "\u0120proto": 1853, "oost": 1854, "\u0120num": 1855, "\u0120base": 1856, "func": 1857, "PIN": 1858, "View": 1859, "OM": 1860, "CHAN": 1861, "\u0120log": 1862, "\u0120WAR": 1863, "format": 1864, "Ptr": 1865, "ider": 1866, "ET": 1867, "),(\"": 1868, "ical": 1869, "trans": 1870, "ature": 1871, "\u0120\u0120\u0120\u0120\u0120\u0120\u0120\u0120\u0120\u0120\u0120\u0120\u0120\u0120\u0120\u0120\u0120\u0120\u0120\u0120\u0120\u0120\u0120\u0120\u0120\u0120\u0120\u0120": 1872, "rix": 1873, "FLA": 1874, "Not": 1875, "67": 1876, "ding": 1877, "RES": 1878, "float": 1879, "ts": 1880, "Base": 1881, "48": 1882, "xC": 1883, "ero": 1884, "PER": 1885, "fc": 1886, "On": 1887, "New": 1888, "\u0120java": 1889, "FS": 1890, "amp": 1891, "current": 1892, "du": 1893, "json": 1894, "formation": 1895, "cm": 1896, "\u0120GNU": 1897, "\u0120201": 1898, "hod": 1899, "ater": 1900, "DU": 1901, "tot": 1902, "arsh": 1903, "conn": 1904, "97": 1905, "lib": 1906, "rx": 1907, "\u0120AR": 1908, "olic": 1909, "READ": 1910, "from": 1911, "cast": 1912, "over": 1913, "\\\\": 1914, "\u0120General": 1915, "cb": 1916, "host": 1917, "idx": 1918, "STATUS": 1919, "\u0120define": 1920, "irtual": 1921, "WA": 1922, "CN": 1923, "Model": 1924, "\u0120Return": 1925, "ative": 1926, "xB": 1927, "\u0120<=": 1928, "\u0120map": 1929, "Table": 1930, "\u0120WARRAN": 1931, "ause": 1932, "Read": 1933, "opt": 1934, "\u0120user": 1935, "ACK": 1936, "\u0120ST": 1937, "wh": 1938, "head": 1939, "order": 1940, "\u0120status": 1941, "INVAL": 1942, "raw": 1943, "\u0120path": 1944, "resent": 1945, "\u0120});": 1946, "\u0120values": 1947, "\u0120Software": 1948, "ference": 1949, "85": 1950, "Gener": 1951, ">::": 1952, "47": 1953, "itions": 1954, "Be": 1955, "\u0120double": 1956, "ql": 1957, "\u0120su": 1958, "60": 1959, "tings": 1960, "Le": 1961, "\u0120dev": 1962, "ACE": 1963, "lu": 1964, "itor": 1965, "\u0120\u0120\u0120\u0120\u0120\u0120\u0120\u0120\u0120\u0120\u0120\u0120\u0120\u0120\u0120\u0120\u0120\u0120\u0120\u0120\u0120\u0120": 1966, "\u0120desc": 1967, "PF": 1968, "yn": 1969, "ICE": 1970, "ML": 1971, "FOR": 1972, "omain": 1973, "TIM": 1974, "\u0120count": 1975, "iable": 1976, "\u0120resp": 1977, "49": 1978, "div": 1979, "untime": 1980, "ADDR": 1981, "\u0120pos": 1982, "Var": 1983, "||": 1984, "ollow": 1985, "safe": 1986, "ITE": 1987, "Mode": 1988, "params": 1989, "Ref": 1990, "\u0120first": 1991, "API": 1992, "rief": 1993, "Trans": 1994, "ndef": 1995, "Options": 1996, "NAME": 1997, "ng": 1998, "ns": 1999, "\u0120\u0120\u0120\u0120\u0120\u0120\u0120\u0120\u0120\u0120\u0120\u0120\u0120\u0120\u0120\u0120\u0120\u0120\u0120\u0120\u0120\u0120\u0120\u0120\u0120\u0120\u0120\u0120\u0120\u0120\u0120": 2000, "ome": 2001, "oogle": 2002, "width": 2003, "\u0120ab": 2004, "****************************************************************": 2005, "\u0120part": 2006, "Pointer": 2007, "ustom": 2008, "brief": 2009, "\u0120register": 2010, "ENABLE": 2011, "\u012032": 2012, "Version": 2013, "\u0120element": 2014, "\u0120more": 2015, "Write": 2016, "Length": 2017, "riptor": 2018, "Resource": 2019, "\u0120extern": 2020, "\u0120Tr": 2021, "FUN": 2022, "Token": 2023, "tl": 2024, "sl": 2025, "Init": 2026, "\u0120while": 2027, "\u0120writ": 2028, "br": 2029, "\u0120sk": 2030, "IB": 2031, "Sub": 2032, "UD": 2033, "ifndef": 2034, "go": 2035, "\u0120length": 2036, "MEM": 2037, "FLAG": 2038, "83": 2039, "GR": 2040, "CB": 2041, "ILITY": 2042, "\u0120net": 2043, "sync": 2044, "Manager": 2045, "\u0120sp": 2046, "unk": 2047, "45": 2048, "ENSE": 2049, "BASE": 2050, "Format": 2051, "\u0120right": 2052, "\u0120TH": 2053, "\u0109\u0109\u0109": 2054, "fl": 2055, ")),": 2056, "\u0120message": 2057, "sys": 2058, "ared": 2059, "tag": 2060, "\u0120line": 2061, "42": 2062, "ialize": 2063, "red": 2064, "\u0120without": 2065, "Query": 2066, "Override": 2067, "\u0120range": 2068, "handle": 2069, "\u0120De": 2070, "46": 2071, "ERT": 2072, "view": 2073, "Block": 2074, "\\\"": 2075, "OFF": 2076, "\u0120table": 2077, "ither": 2078, "MU": 2079, "po": 2080, "tected": 2081, "cr": 2082, "MT": 2083, "\u0120package": 2084, "ses": 2085, "options": 2086, "igh": 2087, "81": 2088, "\u0120write": 2089, "we": 2090, "cache": 2091, "FAULT": 2092, "\u0120pub": 2093, "SD": 2094, "200": 2095, "ived": 2096, "End": 2097, "ren": 2098, "sm": 2099, "lan": 2100, "rypt": 2101, "\u0120\u0120\u0120\u0120\u0120\u0120\u0120\u0120\u0120\u0120\u0120\u0120\u0120\u0120\u0120\u0120\u0120\u0120\u0120\u0120\u0120\u0120\u0120\u0120\u0120": 2102, "ox": 2103, "gh": 2104, "ATION": 2105, "PRE": 2106, "[\"": 2107, "\u0120follow": 2108, "Source": 2109, "www": 2110, "parent": 2111, "}}": 2112, "\u0120WITH": 2113, "PAR": 2114, "Lo": 2115, "User": 2116, "\u0120Err": 2117, "tmp": 2118, "ui": 2119, "\u0120enum": 2120, "utton": 2121, "\u0120gener": 2122, "place": 2123, "has": 2124, "LL": 2125, "\u0120target": 2126, "sd": 2127, "\u0120mm": 2128, "defined": 2129, "\u0120act": 2130, "\u0120port": 2131, "DIT": 2132, "\u0120cal": 2133, "\u0120need": 2134, ")))": 2135, "\u0120instance": 2136, "ormal": 2137, "82": 2138, "\u0120support": 2139, "\u0120MA": 2140, "SION": 2141, "fr": 2142, "olicy": 2143, "lp": 2144, "Line": 2145, "Instance": 2146, "++;": 2147, "open": 2148, "\u0120create": 2149, "/**": 2150, "\u0120point": 2151, "Method": 2152, "last": 2153, "wait": 2154, "\u0120ap": 2155, "actory": 2156, "box": 2157, "ILE": 2158, "AND": 2159, "ension": 2160, "store": 2161, "troll": 2162, "Start": 2163, "cap": 2164, "KEY": 2165, "ICENSE": 2166, "\u0120detail": 2167, "LINE": 2168, "way": 2169, "OC": 2170, "Mem": 2171, "RT": 2172, "update": 2173, "\u0120ag": 2174, "DIS": 2175, "ASS": 2176, "pa": 2177, "bool": 2178, "\u0120Res": 2179, "\u0120Z": 2180, "push": 2181, "message": 2182, "\u0120returns": 2183, "Register": 2184, "128": 2185, "bytes": 2186, "perties": 2187, "flow": 2188, "App": 2189, "\u0120work": 2190, "lot": 2191, "\u0120free": 2192, "\u0120Register": 2193, "private": 2194, "atrix": 2195, "\u0120===": 2196, "fter": 2197, "\u0120next": 2198, "xD": 2199, "URE": 2200, "Handler": 2201, "\u0120You": 2202, "EV": 2203, "hs": 2204, "register": 2205, "ync": 2206, "model": 2207, "CMD": 2208, "CA": 2209, ",\"": 2210, "Point": 2211, "adata": 2212, "target": 2213, "\u0120Test": 2214, "\u0120sw": 2215, "ONE": 2216, "lication": 2217, "refix": 2218, "lis": 2219, "iven": 2220, "output": 2221, "pm": 2222, "RD": 2223, "USE": 2224, "xA": 2225, "Oper": 2226, "\u0120ter": 2227, ")->": 2228, "Window": 2229, "\u0120ID": 2230, "skb": 2231, "\u0120ac": 2232, "\u0120Ch": 2233, "ict": 2234, "\u0120address": 2235, "cd": 2236, "Util": 2237, "\u0120last": 2238, "true": 2239, "SW": 2240, "\u0120src": 2241, "\u0120~": 2242, "\u0120module": 2243, "debug": 2244, "\u0120boolean": 2245, "System": 2246, "copy": 2247, "\u0120text": 2248, "\u0120valid": 2249, "OF": 2250, "\u0120interface": 2251, "CTL": 2252, "EE": 2253, "ORD": 2254, "\u0120;": 2255, "_,": 2256, "\u0120was": 2257, "ateg": 2258, "\u0120auto": 2259, "\u0120rece": 2260, "orage": 2261, "spec": 2262, "angu": 2263, "79": 2264, "\u0120None": 2265, "\u0120min": 2266, "hema": 2267, "vector": 2268, "lem": 2269, "PT": 2270, "Action": 2271, "Create": 2272, "da": 2273, "(__": 2274, "75": 2275, "element": 2276, "DEBUG": 2277, "<<": 2278, "ized": 2279, "Color": 2280, "\u0120\u0120\u0120\u0120\u0120\u0120\u0120\u0120\u0120\u0120\u0120\u0120\u0120\u0120\u0120\u0120\u0120\u0120\u0120\u0120\u0120\u0120\u0120\u0120\u0120\u0120\u0120\u0120\u0120\u0120\u0120\u0120\u0120\u0120\u0120\u0120\u0120\u0120\u0120\u0120\u0120\u0120\u0120\u0120\u0120\u0120\u0120\u0120\u0120\u0120\u0120\u0120\u0120\u0120\u0120\u0120\u0120\u0120\u0120\u0120\u0120\u0120\u0120\u0120": 2281, "63": 2282, "Output": 2283, "troller": 2284, "\u0120let": 2285, "sb": 2286, "\u0120\"\"\"": 2287, "append": 2288, "ctrl": 2289, "itle": 2290, "arshal": 2291, "\u0120byte": 2292, "\u0120format": 2293, "INFO": 2294, "\u0120try": 2295, "dm": 2296, "expected": 2297, "\u0120bytes": 2298, "\u0120List": 2299, "fn": 2300, "tinue": 2301, "ABILITY": 2302, "nown": 2303, "CONFIG": 2304, "mod": 2305, "module": 2306, "gl": 2307, "SEL": 2308, "parse": 2309, "----------------------------------------------------------------": 2310, "\u0120make": 2311, "CHE": 2312, "TIME": 2313, "68": 2314, "{\"": 2315, "\u0120++": 2316, "ender": 2317, "\u0120\u0120\u0120\u0120\u0120\u0120\u0120\u0120\u0120\u0120\u0120\u0120\u0120\u0120\u0120\u0120\u0120\u0120\u0120\u0120\u0120\u0120\u0120\u0120\u0120\u0120": 2318, "Function": 2319, "Default": 2320, "coder": 2321, "pression": 2322, "OK": 2323, "VI": 2324, "BO": 2325, "\u0120200": 2326, "\u0120implement": 2327, "00000": 2328, "===": 2329, "IND": 2330, "location": 2331, "SL": 2332, "channel": 2333, "70": 2334, "mbol": 2335, "\u0120provide": 2336, "256": 2337, "temp": 2338, "ends": 2339, "\u0120handle": 2340, "\u0120tmp": 2341, "anc": 2342, "Tag": 2343, "leg": 2344, "ctl": 2345, "////////////////////////////////////////////////////////////////": 2346, "rate": 2347, "Number": 2348, "switch": 2349, "GPIO": 2350, "remove": 2351, "ank": 2352, "raph": 2353, "Sp": 2354, "201": 2355, "\u0120FOR": 2356, "\u0120av": 2357, "\u0120buf": 2358, "\u0120either": 2359, "mutex": 2360, "MAP": 2361, "Builder": 2362, "auth": 2363, "uid": 2364, ">>": 2365, "\u0120match": 2366, "uper": 2367, "VM": 2368, "Per": 2369, "90": 2370, "\u0100\u0100": 2371, "\u0120include": 2372, "child": 2373, "\u0120program": 2374, "ures": 2375, "\u0120ref": 2376, "Attribute": 2377, "STATE": 2378, "\u0120contain": 2379, "match": 2380, "ification": 2381, "61": 2382, "anguage": 2383, "ility": 2384, "vis": 2385, "CD": 2386, "Access": 2387, "Te": 2388, "78": 2389, "\u0120THIS": 2390, "Offset": 2391, "LEN": 2392, "\u0120client": 2393, "Range": 2394, "Image": 2395, "\u0120following": 2396, "41": 2397, "ocket": 2398, "FFFF": 2399, "\u0120{@": 2400, "72": 2401, "duct": 2402, "Msk": 2403, "\u0120reser": 2404, "\u0120info": 2405, "ssert": 2406, "\u0120information": 2407, "MM": 2408, "annot": 2409, "chip": 2410, "\";})": 2411, "(),(": 2412, "The": 2413, "95": 2414, "\u0120hi": 2415, "bits": 2416, "cre": 2417, "\";})(),(": 2418, "riter": 2419, "mac": 2420, "hash": 2421, "ailable": 2422, "\u0120options": 2423, "\u0120En": 2424, "FE": 2425, "\u0120_,": 2426, "filter": 2427, "ments": 2428, "\u0120All": 2429, "\u0120required": 2430, "ending": 2431, "Handle": 2432, "rib": 2433, "\u0120io": 2434, "Check": 2435, "mark": 2436, "header": 2437, "tra": 2438, "MAT": 2439, "Ro": 2440, "unlock": 2441, "CP": 2442, "\u0120run": 2443, "msemse": 2444, "vider": 2445, "MD": 2446, "FR": 2447, "THER": 2448, "\u0120into": 2449, "enu": 2450, "Null": 2451, "ingle": 2452, "\u0120option": 2453, "Filter": 2454, "Ed": 2455, "\u0120given": 2456, "Frame": 2457, "phy": 2458, "Max": 2459, "\u0120WITHOUT": 2460, "\u0120\u0120\u0120\u0120\u010a": 2461, "bt": 2462, "\"+\"": 2463, "REQ": 2464, "\u0120HAL": 2465, "hdr": 2466, "53": 2467, "\u0120response": 2468, "\u0120op": 2469, "########": 2470, "\u0120print": 2471, "cfg": 2472, "ade": 2473, "\u0120does": 2474, "{}": 2475, "apache": 2476, "az": 2477, "\u0120{}": 2478, "hes": 2479, "Char": 2480, "\u0120Add": 2481, "level": 2482, "stant": 2483, "52": 2484, "96": 2485, "bus": 2486, "No": 2487, "TP": 2488, "///": 2489, "Address": 2490, "off": 2491, "ssion": 2492, "ecut": 2493, "first": 2494, "present": 2495, "OS": 2496, "unit": 2497, "TEST": 2498, "\u0120DMA": 2499, "ensor": 2500, "76": 2501, "less": 2502, "\u0120resource": 2503, "long": 2504, "NULL": 2505, "\u0120group": 2506, "],[": 2507, "dest": 2508, "As": 2509, "wo": 2510, "\u0120ent": 2511, "\u0120non": 2512, "\u0120item": 2513, "SON": 2514, "Spec": 2515, "inary": 2516, "rq": 2517, "rows": 2518, "\":\"": 2519, "\u0120pointer": 2520, "regs": 2521, "cope": 2522, "pio": 2523, "\u0120TO": 2524, "Content": 2525, "\u0120reserved": 2526, "\u0120LL": 2527, "ten": 2528, "\u0120page": 2529, "lice": 2530, "800": 2531, "Num": 2532, "Act": 2533, "aint": 2534, "\u0120msg": 2535, "ating": 2536, "\"`": 2537, "spin": 2538, "CS": 2539, "Header": 2540, "FP": 2541, "any": 2542, "false": 2543, "\u0120Comp": 2544, "\u0120sign": 2545, "oundation": 2546, "\u0120cond": 2547, "adapter": 2548, "\u0120specific": 2549, "lied": 2550, "uments": 2551, "802": 2552, "enable": 2553, "COMP": 2554, "see": 2555, "\u0120expected": 2556, "\u0120limit": 2557, "\u0120syscall": 2558, "sa": 2559, "pk": 2560, "BE": 2561, "CFG": 2562, "\u012012": 2563, "card": 2564, "ntity": 2565, "ernel": 2566, "ultip": 2567, "iff": 2568, "58": 2569, "1000": 2570, "0001": 2571, "control": 2572, "\u0120ob": 2573, "Update": 2574, "EP": 2575, "ful": 2576, "\u0120command": 2577, "\u0120],": 2578, "\u0120For": 2579, "\u0120DO": 2580, "\u0120fail": 2581, "94": 2582, "Date": 2583, "MENT": 2584, "SIG": 2585, "\u0120Free": 2586, "../": 2587, "ixel": 2588, "\u0120ev": 2589, "BL": 2590, "\u0120implied": 2591, "Nd": 2592, "Vector": 2593, "source": 2594, "equal": 2595, "CODE": 2596, "\u0120--": 2597, "}},": 2598, "typename": 2599, "\u0120cre": 2600, "\u0120Object": 2601, "PD": 2602, "WN": 2603, "Entry": 2604, "top": 2605, "And": 2606, "NEL": 2607, "\u0120entry": 2608, "udio": 2609, "\u0120()": 2610, "='": 2611, "ixed": 2612, "ACT": 2613, "ATTR": 2614, "Op": 2615, "tributes": 2616, "TRY": 2617, "\u0120memory": 2618, "TIES": 2619, "reen": 2620, "Lay": 2621, "\u0120Foundation": 2622, "\u0120lib": 2623, "dst": 2624, "find": 2625, "\u0120RE": 2626, "method": 2627, "td": 2628, "pth": 2629, "xy": 2630, "\u0120frame": 2631, "cal": 2632, "73": 2633, "icro": 2634, "IGHT": 2635, "\u0120gl": 2636, "!!!!": 2637, "ternal": 2638, "driver": 2639, "label": 2640, "51": 2641, "LOG": 2642, "resh": 2643, "olume": 2644, "\u0120specified": 2645, "\"))": 2646, "\u0120args": 2647, "double": 2648, "\u0120its": 2649, "run": 2650, "attern": 2651, "\u0120Int": 2652, "round": 2653, "xffffff": 2654, "\u0120GPIO": 2655, "\u0120back": 2656, "\u0120process": 2657, "oin": 2658, "Level": 2659, "Component": 2660, "\u0120then": 2661, "ources": 2662, "FB": 2663, "internal": 2664, "quence": 2665, "Ag": 2666, "Ident": 2667, "Device": 2668, "\u0120::": 2669, "common": 2670, "doc": 2671, "\u0120mask": 2672, "\u0120PRO": 2673, "NdEx": 2674, "LOW": 2675, "expr": 2676, "\u0120API": 2677, "\"]": 2678, "license": 2679, "\u0120Returns": 2680, "\u0120WARRANTIES": 2681, "ba": 2682, "resource": 2683, "\u0120protected": 2684, "lected": 2685, "Interface": 2686, "DA": 2687, "MAC": 2688, "\u0120license": 2689, "\u0120stream": 2690, "\u0120Cl": 2691, "\u0120'\\": 2692, "root": 2693, "ward": 2694, "(!": 2695, "tract": 2696, "62": 2697, "\u0120exp": 2698, "All": 2699, "\u0120TIM": 2700, "anged": 2701, "\u0120Sh": 2702, "bi": 2703, "token": 2704, "rary": 2705, "\u0120Se": 2706, "\u0120channel": 2707, "0123456789012345678901234567890123456789": 2708, "____": 2709, "Command": 2710, "\u0120Al": 2711, "down": 2712, "den": 2713, "lector": 2714, "Pack": 2715, "Valid": 2716, "\u0120permiss": 2717, "\u0120AT": 2718, "ready": 2719, "irectory": 2720, "\u0120found": 2721, "\u0120ph": 2722, "\u0120bits": 2723, "oll": 2724, "idget": 2725, "fuck": 2726, "totype": 2727, "struction": 2728, "gn": 2729, "\u0120tag": 2730, "({": 2731, "color": 2732, "98": 2733, "\u0120after": 2734, "google": 2735, "91": 2736, "my": 2737, "INTER": 2738, "OD": 2739, "LOC": 2740, "\u0120SO": 2741, "main": 2742, "igger": 2743, "Equals": 2744, "Sy": 2745, "DEVICE": 2746, "oper": 2747, "Pre": 2748, "\u0120gr": 2749, "\u0120local": 2750, "NOT": 2751, "pdev": 2752, ".,": 2753, "left": 2754, "\u0120cur": 2755, "License": 2756, "DULE": 2757, "PHY": 2758, "vo": 2759, "image": 2760, "\u0120Def": 2761, "exp": 2762, "fmt": 2763, "\u0120fmt": 2764, "\u0120BY": 2765, "93": 2766, "gener": 2767, "ENER": 2768, "number": 2769, "92": 2770, "\u0120We": 2771, "aaaa": 2772, "coding": 2773, "ports": 2774, "_(": 2775, "imum": 2776, "Configuration": 2777, "Style": 2778, "fp": 2779, "ENO": 2780, "ines": 2781, "Factory": 2782, "mote": 2783, "MSG": 2784, "Target": 2785, "BY": 2786, "content": 2787, "andom": 2788, "\u0120Par": 2789, "fin": 2790, "\u0120USB": 2791, "\u0120throws": 2792, "bar": 2793, "71": 2794, "\u0120opt": 2795, "\u0120cor": 2796, "\u012064": 2797, "begin": 2798, "\u0120/**<": 2799, "\u0120iter": 2800, "\u0120ar": 2801, "IX": 2802, "mi": 2803, "PUT": 2804, "Row": 2805, "usb": 2806, "cv": 2807, "Ext": 2808, "inition": 2809, "KER": 2810, "sec": 2811, "\u0120internal": 2812, "Hel": 2813, "PECT": 2814, "FN": 2815, "apt": 2816, "imp": 2817, "\u012015": 2818, "AGE": 2819, "types": 2820, "soft": 2821, "FL": 2822, "Width": 2823, "\u0120AND": 2824, "\u0120FILE": 2825, "************************************************************************": 2826, "Server": 2827, "response": 2828, "EC": 2829, "\u0120over": 2830, "COUN": 2831, "wr": 2832, "\u0120interrupt": 2833, "ring": 2834, "\u0120parameter": 2835, "send": 2836, "gine": 2837, "arning": 2838, "server": 2839, "\u0120override": 2840, "\u0120there": 2841, "\u0120SH": 2842, "dic": 2843, "\u0120here": 2844, "TION": 2845, "]=": 2846, "thread": 2847, "``": 2848, "EQ": 2849, "\u0120allow": 2850, "post": 2851, "fb": 2852, "roll": 2853, "ump": 2854, "\u0120before": 2855, "address": 2856, "boost": 2857, "ince": 2858, "EM": 2859, "SER": 2860, "ca": 2861, "\u0120terms": 2862, "chan": 2863, "rect": 2864, "\u0120document": 2865, "\u0120update": 2866, "\",\"\"+\"": 2867, "sn": 2868, "ority": 2869, "FILE": 2870, "teger": 2871, "omic": 2872, "\u0120Version": 2873, "Cache": 2874, "ron": 2875, "\u0120Ap": 2876, "\u0120Check": 2877, "\u0120header": 2878, "\u0120virtual": 2879, "PM": 2880, "UB": 2881, "ATED": 2882, "Iter": 2883, "\u012020": 2884, "reset": 2885, "layer": 2886, "\u0120\u0109\u0120": 2887, "pci": 2888, "MIN": 2889, "\u0120alloc": 2890, "*)": 2891, "VALUE": 2892, "ONG": 2893, "stats": 2894, "\u0120...": 2895, "OFFSET": 2896, "cnt": 2897, "True": 2898, "Column": 2899, "Callback": 2900, "gen": 2901, "\u0120order": 2902, "INIT": 2903, "height": 2904, "\u0120inst": 2905, "\u0120snd": 2906, "style": 2907, "IRQ": 2908, "\u0120rights": 2909, "AtA": 2910, "Params": 2911, "empty": 2912, "\u0120same": 2913, "....": 2914, "Task": 2915, "\u0120An": 2916, "seq": 2917, "Invalid": 2918, "process": 2919, "ansp": 2920, "tree": 2921, "LINK": 2922, ")]": 2923, "\u0120shift": 2924, "\u0120parent": 2925, "refer": 2926, "RC": 2927, "sr": 2928, "env": 2929, "rop": 2930, "\u0120\u0109\u0109\u0120\u0120\u0120": 2931, "\u0120\"%": 2932, "php": 2933, "range": 2934, "Location": 2935, "\u0120($": 2936, "Parameter": 2937, "ithub": 2938, "Option": 2939, "INE": 2940, "static": 2941, "ular": 2942, "\u0120ed": 2943, "\"));": 2944, "\u0120provided": 2945, "df": 2946, "\u0120access": 2947, "Label": 2948, "\u0120each": 2949, "ilename": 2950, "older": 2951, "\u0120ctx": 2952, "\u0120modify": 2953, "sor": 2954, "asic": 2955, "Box": 2956, "lex": 2957, "Min": 2958, "WARE": 2959, "\u0120callback": 2960, "resp": 2961, "\u0120Type": 2962, "Types": 2963, "\u0120cache": 2964, "gress": 2965, "apping": 2966, "ious": 2967, "WRITE": 2968, "ENTRY": 2969, "MAND": 2970, "\u0120except": 2971, "cent": 2972, "Flags": 2973, "_.": 2974, "bs": 2975, "Control": 2976, "option": 2977, "Child": 2978, "DEFAULT": 2979, "clear": 2980, "\u0120called": 2981, "COL": 2982, "ffect": 2983, "ds": 2984, "\u0120failed": 2985, "\u0120Inc": 2986, "ization": 2987, "\u0120co": 2988, "instance": 2989, "RAY": 2990, "\u0120cpu": 2991, "\u0120expect": 2992, "DEF": 2993, "other": 2994, "LIST": 2995, "Sign": 2996, "\u0120packet": 2997, "DM": 2998, "Su": 2999, "ulti": 3000, "FC": 3001, "\u0120token": 3002, "Page": 3003, "active": 3004, "NC": 3005, "\u0120Data": 3006, "\u0120some": 3007, "Case": 3008, "\u012011": 3009, "task": 3010, "alar": 3011, "close": 3012, "\u0120extends": 3013, "prototype": 3014, "={": 3015, "\u0120than": 3016, "ied": 3017, "pha": 3018, "EINVAL": 3019, "\u0120filter": 3020, "\u0120(\"": 3021, "with": 3022, "AG": 3023, "Collection": 3024, "wise": 3025, "\u0120CHE": 3026, "\u0120catch": 3027, "NT": 3028, "MPL": 3029, "used": 3030, "\u0120level": 3031, "SUPP": 3032, "'),": 3033, "Co": 3034, "OB": 3035, "NESS": 3036, "\u0120addr": 3037, ".</": 3038, "otal": 3039, "Bytes": 3040, "\u0120\u0120\u010a": 3041, "_;": 3042, "ipe": 3043, "ev": 3044, "\u0120CHECK": 3045, "atab": 3046, "Bit": 3047, "gt": 3048, "iginal": 3049, "itional": 3050, "ries": 3051, "Part": 3052, "HAL": 3053, "This": 3054, "iterator": 3055, "ynam": 3056, "su": 3057, "Enum": 3058, "Net": 3059, "js": 3060, "structor": 3061, "tach": 3062, "\u0120obj": 3063, "ULAR": 3064, "\u0120rc": 3065, "del": 3066, "IMIT": 3067, "START": 3068, "mail": 3069, "html": 3070, "aces": 3071, "PLL": 3072, "only": 3073, "inding": 3074, "air": 3075, "FD": 3076, "\u0120EV": 3077, "ists": 3078, "~~": 3079, "\u0120CONFIG": 3080, "Rule": 3081, "Param": 3082, "IVE": 3083, "roid": 3084, "\u0120\u0120\u0120\u0120\u0120\u0120\u0120\u0120\u0120\u0120\u0120\u0120\u0120\u0120\u0120\u0120\u0120\u0120\u0120\u0120\u0120\u0120\u0120\u0120\u0120\u0120\u0120\u0120\u0120\u010a": 3085, "Button": 3086, "\u0120red": 3087, "erge": 3088, "peed": 3089, "cle": 3090, "POSE": 3091, "cpy": 3092, "\u0120LI": 3093, "\u0120fn": 3094, "ted": 3095, "TEXT": 3096, "\u0120model": 3097, "Addr": 3098, ">,": 3099, "stamp": 3100, "\").": 3101, "inode": 3102, "Run": 3103, "\u0120It": 3104, "\u0120content": 3105, "\u0120File": 3106, "\u0120PCI": 3107, "roy": 3108, "cmp": 3109, "\u0120By": 3110, "Entity": 3111, "\u0120FIT": 3112, "\u0120image": 3113, "part": 3114, "\u0120bo": 3115, "body": 3116, "\u0120PART": 3117, "\u0120\u0120\u0120\u0120\u0120\u0120\u0120\u0120\u0120\u0120\u0120\u0120\u0120\u0120\u0120\u0120\u0120\u0120\u0120\u0120\u0120\u0120\u0120\u0120\u0120\u0120\u0120\u0120\u0120": 3118, "\u0120FT": 3119, "\u0120MER": 3120, "latform": 3121, "\u0120Create": 3122, "CAP": 3123, "?:": 3124, "TROL": 3125, "enum": 3126, "LICENSE": 3127, "\u0120operator": 3128, "\u0120RCC": 3129, "\u0120MC": 3130, "ADD": 3131, "handler": 3132, "URPOSE": 3133, "\u0120]": 3134, "oci": 3135, "Ac": 3136, "\u0120obtain": 3137, "medi": 3138, "CHANT": 3139, "github": 3140, "USB": 3141, "\u0120see": 3142, "\u0120COM": 3143, "NUM": 3144, "xml": 3145, "\u0120FITNESS": 3146, "thing": 3147, "ches": 3148, "OLD": 3149, "Sec": 3150, "vec": 3151, "ARD": 3152, "\u0120clock": 3153, "Back": 3154, "CHANTABILITY": 3155, "bove": 3156, "UM": 3157, "ose": 3158, "\u0120old": 3159, "\u0120Ser": 3160, "\u0120flag": 3161, "Link": 3162, "irection": 3163, "\u0120ok": 3164, "\u012024": 3165, "\u0120Error": 3166, "Process": 3167, "80211": 3168, "\u0120temp": 3169, "\u0120MERCHANTABILITY": 3170, "ities": 3171, "Module": 3172, "\u0120ADC": 3173, "Do": 3174, "\u0120PURPOSE": 3175, "IV": 3176, "ommon": 3177, "acter": 3178, "command": 3179, "\u0120dest": 3180, "\u00e3\u0123": 3181, "ster": 3182, "atabase": 3183, "usion": 3184, "()->": 3185, "comple": 3186, "gpio": 3187, "\u0120control": 3188, "atal": 3189, "\u0120empty": 3190, "AF": 3191, "licenses": 3192, "\u0120operation": 3193, "Copy": 3194, "\u0120Red": 3195, "\u0120your": 3196, "\u0120PARTIC": 3197, "0008": 3198, "Hash": 3199, "\u0120\u0120\u0120\u0120\u0120\u0120\u0120\u0120\u0120\u0120\u0120\u0120\u0120\u0120\u0120\u0120\u0120\u0120\u0120\u0120\u0120\u0120\u0120\u0120\u0120\u0120\u0120\u0120\u0120\u0120\u0120\u0120\u0120\u0120\u0120": 3200, "WORD": 3201, "sv": 3202, "\u0120PARTICULAR": 3203, "ribe": 3204, "ounter": 3205, "\u0120&=": 3206, "sizeof": 3207, "\u0120IO": 3208, "PS": 3209, "CNTL": 3210, "Byte": 3211, "xffff": 3212, "\u0120details": 3213, "CHECK": 3214, "ipher": 3215, "build": 3216, "\u0120vector": 3217, "\u0120window": 3218, "Next": 3219, "dc": 3220, "\u0120EXPECT": 3221, "\u00e4\u00b8": 3222, "\u0120server": 3223, "writ": 3224, "\u0120link": 3225, "anges": 3226, "GB": 3227, "Auth": 3228, "Channel": 3229, "Mod": 3230, "\u0120been": 3231, "ways": 3232, "\u0120available": 3233, "ely": 3234, "gment": 3235, "\u0120above": 3236, "region": 3237, "LAN": 3238, "EVENT": 3239, "Provider": 3240, "timer": 3241, "\u0120pass": 3242, "TABLE": 3243, "Proto": 3244, "\u0120switch": 3245, "\u0120REG": 3246, "ELD": 3247, "\u0120load": 3248, "items": 3249, "None": 3250, "\u012014": 3251, "\u0120publis": 3252, "imple": 3253, "ique": 3254, "ROM": 3255, "================================================================": 3256, "crypt": 3257, "iler": 3258, "\u0120pl": 3259, "ALSE": 3260, "\u0120thread": 3261, "\u0120short": 3262, "conf": 3263, "ynamic": 3264, "ency": 3265, "ws": 3266, "\u0120Block": 3267, "\u0120enable": 3268, "\u0120Bu": 3269, "Gr": 3270, "angle": 3271, "\u0120Apache": 3272, "\u0120dst": 3273, "Empty": 3274, "Descriptor": 3275, "\u0120store": 3276, "TS": 3277, "IE": 3278, "SIS": 3279, "\u0120returned": 3280, "FTWARE": 3281, "\u0120property": 3282, "\u0120hash": 3283, "&&(": 3284, "\u0120TR": 3285, "ayload": 3286, "support": 3287, "RCC": 3288, "DP": 3289, "\u0120width": 3290, "hpp": 3291, "Match": 3292, "shape": 3293, "auto": 3294, "andard": 3295, "\u0120*,": 3296, "(\"%": 3297, "uster": 3298, "property": 3299, "Listener": 3300, "\u0120\u0120\u0120\u0120\u0120\u0120\u0120\u0120\u0120\u0120\u0120\u0120\u0120\u0120\u0120\u0120\u0120\u0120\u0120\u0120\u0120\u0120\u0120\u0120\u0120\u0120\u0120\u0120\u0120\u0120": 3301, "\u0120On": 3302, "\u0120lock": 3303, "\u0120represent": 3304, "sert": 3305, "\u0120configuration": 3306, "MAGE": 3307, "\u0120even": 3308, "\u0120EDIT": 3309, "stack": 3310, "bb": 3311, "\u0120system": 3312, "domain": 3313, "interface": 3314, "CONTROL": 3315, "\u0120{\"": 3316, "asm": 3317, "buff": 3318, "tt": 3319, "\u0120Value": 3320, "\u0120Array": 3321, "]]": 3322, "\u0120super": 3323, "mon": 3324, "\u0120//!": 3325, "ategory": 3326, "Port": 3327, "Errno": 3328, "aph": 3329, "VERSION": 3330, "unsafe": 3331, "dp": 3332, "ov": 3333, "ping": 3334, "\u0120cmd": 3335, "\u0120success": 3336, "ped": 3337, "impl": 3338, "\u0120task": 3339, "window": 3340, "\u0120fe": 3341, "known": 3342, "\u0120append": 3343, "\u0120host": 3344, "loud": 3345, "mc": 3346, "actor": 3347, "ialog": 3348, "\u0120parameters": 3349, "\u0120driver": 3350, "\u0120conditions": 3351, "\u0120find": 3352, "flag": 3353, "LAY": 3354, "\u0120),": 3355, "ove": 3356, "\u0120SOFTWARE": 3357, "drv": 3358, "\u0120MO": 3359, "Policy": 3360, "met": 3361, "\u0120copyright": 3362, "fa": 3363, "lang": 3364, "><": 3365, "connect": 3366, "\u0120Or": 3367, "ARE": 3368, "Position": 3369, "SCR": 3370, "vol": 3371, "------------": 3372, "Current": 3373, "eger": 3374, "iod": 3375, "\u0120Sy": 3376, "system": 3377, "very": 3378, "bd": 3379, "ination": 3380, "uple": 3381, "URL": 3382, "nect": 3383, "dbg": 3384, "ialized": 3385, "\u0120TE": 3386, "QL": 3387, "tore": 3388, "\u0120WM": 3389, "access": 3390, "select": 3391, "attribute": 3392, "dAtA": 3393, "cor": 3394, "\u0120-=": 3395, "\u0120qu": 3396, "PTR": 3397, "rag": 3398, "Func": 3399, "Struct": 3400, "Kind": 3401, "IST": 3402, "\u0120structure": 3403, "\u0120received": 3404, "\u0120export": 3405, "stop": 3406, "\u0120where": 3407, "packet": 3408, "\u0120New": 3409, "ASSERT": 3410, "\u0120language": 3411, "\u0120column": 3412, "\u0120row": 3413, "\u0120variable": 3414, "\u0120fuck": 3415, "ARG": 3416, "exception": 3417, "rel": 3418, "DED": 3419, "400": 3420, "\u0120prev": 3421, "ADER": 3422, "licit": 3423, "retval": 3424, "\u0120Dis": 3425, "\u0120label": 3426, "\u0120types": 3427, "\u0120root": 3428, "\u0120LO": 3429, "achine": 3430, "UX": 3431, "URCE": 3432, "bp": 3433, "RIGHT": 3434, "iction": 3435, "\u0120IP": 3436, "Local": 3437, "Impl": 3438, "\u0120(_": 3439, "wn": 3440, "\u0120functions": 3441, ")));": 3442, "change": 3443, "cket": 3444, "show": 3445, "Json": 3446, "values": 3447, "377": 3448, "\u0120100": 3449, "Vis": 3450, "NS": 3451, "\".": 3452, "oss": 3453, "UI": 3454, "\u0120child": 3455, "returns": 3456, "while": 3457, "ane": 3458, "Thread": 3459, "([": 3460, "\u0120NO": 3461, "ln": 3462, "},{": 3463, "Msg": 3464, "\u0120errno": 3465, "\u0120im": 3466, "(-": 3467, "Debug": 3468, "DS": 3469, "\u0120el": 3470, "Height": 3471, "\u0120writing": 3472, "np": 3473, "save": 3474, "ecute": 3475, "\u0120gover": 3476, "Float": 3477, "tc": 3478, "\u0120bet": 3479, "\u0120reset": 3480, "\u0120To": 3481, "NG": 3482, "ignore": 3483, "\u0120',": 3484, "\u0120INT": 3485, "component": 3486, "Container": 3487, "hether": 3488, ")}": 3489, "can": 3490, "\u0120service": 3491, "ead": 3492, "=%": 3493, ".*": 3494, "Det": 3495, "disable": 3496, "aver": 3497, "Stack": 3498, "Return": 3499, "\u0120boost": 3500, "pool": 3501, "lugin": 3502, "Lock": 3503, "yy": 3504, "BUS": 3505, "SOURCE": 3506, "\u0120open": 3507, "\u0120acc": 3508, "\u0120BA": 3509, "hi": 3510, "erved": 3511, "Mask": 3512, "WIN": 3513, "stract": 3514, "AUT": 3515, "\u0120KIND": 3516, "MAR": 3517, "\u0120parse": 3518, "nr": 3519, "exit": 3520, "__,": 3521, "anel": 3522, "\u0120color": 3523, "\u0120req": 3524, "\u0120\",": 3525, "AV": 3526, "\u0120\u0109\u010a": 3527, "\u0120GENER": 3528, "\u0120notice": 3529, "abs": 3530, "FUNC": 3531, "Settings": 3532, "DBG": 3533, "fw": 3534, "aster": 3535, "\u0120action": 3536, "dt": 3537, "FUNCTION": 3538, "\u0120position": 3539, "SPE": 3540, "patch": 3541, "ession": 3542, "\u0120Is": 3543, "vices": 3544, "lt": 3545, "Utils": 3546, "\u0120Col": 3547, "acle": 3548, "ian": 3549, "FIL": 3550, "conds": 3551, "\u0120USE": 3552, "\u0120ident": 3553, "delete": 3554, "Open": 3555, "rtc": 3556, "\u0120https": 3557, "RESET": 3558, "Dir": 3559, "COM": 3560, "ah": 3561, "ertex": 3562, "\u0120\u0120\u0120\u0120\u0120\u0120\u0120\u0120\u010a": 3563, "pd": 3564, "PAT": 3565, "Args": 3566, "icrosoft": 3567, "\u0120met": 3568, "iNdEx": 3569, "ADC": 3570, "./": 3571, "fg": 3572, "Core": 3573, "plat": 3574, "lit": 3575, "\u0120Init": 3576, "graph": 3577, "Com": 3578, "Body": 3579, "Connection": 3580, "sole": 3581, "\u0120already": 3582, "limit": 3583, "cul": 3584, "),(": 3585, "ason": 3586, "Errorf": 3587, "\u0120auth": 3588, "Values": 3589, "Matrix": 3590, "MUX": 3591, "\u0120express": 3592, "Delete": 3593, "now": 3594, "ialization": 3595, "Identifier": 3596, "HW": 3597, "board": 3598, "\u0120query": 3599, "BLOCK": 3600, "igned": 3601, "tom": 3602, "DIV": 3603, "ivity": 3604, "\u0120COMMAND": 3605, "Unit": 3606, "protobuf": 3607, "require": 3608, "\u0120OP": 3609, "\u0120DA": 3610, "Reference": 3611, "prev": 3612, "\u0120off": 3613, "\u012013": 3614, "\u0120Stat": 3615, "NV": 3616, "UTE": 3617, "FIELD": 3618, "NONE": 3619, "trace": 3620, "Cur": 3621, "\u0120\u0109\u0109\u0109\u0109\u0109\u0109\u0109\u0109": 3622, "\u0120['": 3623, "\u0120TOP": 3624, "\u0120^": 3625, "\u0120applic": 3626, "service": 3627, "Record": 3628, "Layout": 3629, "session": 3630, "Operation": 3631, "ish": 3632, "typeof": 3633, "\u0120Licensed": 3634, "\u0120main": 3635, "rapper": 3636, "Ar": 3637, "\u0120Read": 3638, "\u0120os": 3639, "man": 3640, "Generated": 3641, "SUPPORT": 3642, "SPI": 3643, "\u0120>::": 3644, "Load": 3645, "insert": 3646, "search": 3647, "pg": 3648, "\u0120WARRANTY": 3649, "timeout": 3650, "SN": 3651, "global": 3652, "\u0120low": 3653, "\u0120params": 3654, "ween": 3655, "RECT": 3656, "SM": 3657, ".$": 3658, "Properties": 3659, "etch": 3660, "straint": 3661, "ily": 3662, "iag": 3663, "COUNT": 3664, "reed": 3665, "/'": 3666, "\u0120json": 3667, "SSL": 3668, "Exp": 3669, "Render": 3670, "bc": 3671, "NET": 3672, "\u00d0\u00b0": 3673, "ugh": 3674, "Imp": 3675, "\u0120{{": 3676, "ai": 3677, "px": 3678, "SG": 3679, "\u0120GENERATED": 3680, "Url": 3681, "\u0120fields": 3682, "LOAD": 3683, "\u0120Assert": 3684, "column": 3685, "spi": 3686, "Helper": 3687, "GA": 3688, "\u0120left": 3689, "cause": 3690, "continue": 3691, "\u0120zero": 3692, "\u0120permissions": 3693, "\u0120queue": 3694, "final": 3695, "detail": 3696, "UID": 3697, "ear": 3698, "Host": 3699, "\u0120Enable": 3700, "sing": 3701, "sz": 3702, "atures": 3703, "Que": 3704, "oly": 3705, "Order": 3706, "aders": 3707, "\u0120also": 3708, "mission": 3709, "CLUD": 3710, "Obj": 3711, "olve": 3712, "CLUDING": 3713, "\u0120done": 3714, "Reader": 3715, "Ap": 3716, "\u0120IR": 3717, "\u0120form": 3718, "\u0120don": 3719, "Document": 3720, "():": 3721, "inst": 3722, "full": 3723, "Writer": 3724, "ls": 3725, "\u0120tx": 3726, "\u0120component": 3727, "ignment": 3728, "\u0120Name": 3729, "Parameters": 3730, "\u0120Time": 3731, "BUF": 3732, "ultiple": 3733, "\u0120exception": 3734, "Tree": 3735, "ECT": 3736, "\u0120redistribut": 3737, "callback": 3738, "\u0120sm": 3739, "delay": 3740, "\u0120useful": 3741, "\u0120Use": 3742, "\u012019": 3743, "arn": 3744, "\u0120RTC": 3745, "\u0120Exception": 3746, "display": 3747, "ground": 3748, "release": 3749, "pop": 3750, "\u0120wait": 3751, "web": 3752, "ycle": 3753, "ensions": 3754, "SYNC": 3755, "zero": 3756, "icon": 3757, "BYTE": 3758, "\u0120mat": 3759, "Change": 3760, "\u0120go": 3761, "512": 3762, "orld": 3763, "\u0120published": 3764, "liance": 3765, "\u0120send": 3766, "Graph": 3767, "\u0120'',": 3768, "ORY": 3769, "eg": 3770, "Constant": 3771, "CPU": 3772, "\u0120\u0109\u0109\u0109\u0109\u0109\u0109\u0109": 3773, "HY": 3774, "tool": 3775, "IFO": 3776, "001": 3777, "Fields": 3778, "light": 3779, "HA": 3780, "FW": 3781, "Rect": 3782, "\u0120\u0109\u0109\u0109\u0120\u0120\u0120": 3783, "\u0120})": 3784, "****************************************************************************": 3785, "\u0120ip": 3786, "Meta": 3787, "BR": 3788, "txt": 3789, "DITION": 3790, "clock": 3791, "\u0120BIT": 3792, "\u0120want": 3793, "ncy": 3794, "izer": 3795, "Work": 3796, "anch": 3797, "LY": 3798, "\u0120MAX": 3799, "\u0120Py": 3800, "bind": 3801, "eth": 3802, "ging": 3803, "title": 3804, "normal": 3805, "\u0120two": 3806, "\u0120LICENSE": 3807, "RF": 3808, "\u0120aut": 3809, "rough": 3810, "\u0120global": 3811, "eft": 3812, "printk": 3813, "INVALID": 3814, "AAAA": 3815, "replace": 3816, ")\\": 3817, "\u0120Log": 3818, "2000": 3819, "position": 3820, "PAD": 3821, "Async": 3822, "proc": 3823, "\u0120vis": 3824, "ESS": 3825, "gor": 3826, "\u0120full": 3827, "TLS": 3828, "tains": 3829, "shift": 3830, "MOD": 3831, "ouse": 3832, "TypeDef": 3833, "iant": 3834, "Store": 3835, ".\\": 3836, "Has": 3837, "`,": 3838, "coun": 3839, "\u0120fl": 3840, "ansport": 3841, "ials": 3842, "ra": 3843, "Fe": 3844, "\u0120redistribute": 3845, "__)": 3846, "pipe": 3847, "\u0120height": 3848, "parser": 3849, "Cre": 3850, "ik": 3851, "\u0120compliance": 3852, "riority": 3853, "vb": 3854, "\u0120constexpr": 3855, "foo": 3856, "\u0120RT": 3857, "ias": 3858, "\u0120connection": 3859, "BPF": 3860, "\u012017": 3861, "\u0120No": 3862, "\u0120Vector": 3863, "\u0120!==": 3864, "Integer": 3865, "setup": 3866, "\u0120goto": 3867, "sample": 3868, "ideo": 3869, "aml": 3870, "template": 3871, "[:": 3872, "\u0120Do": 3873, "Web": 3874, "\u0120decl": 3875, "\u0120change": 3876, "REF": 3877, "eq": 3878, "asses": 3879, "adding": 3880, "\u0120nullptr": 3881, "\u0120Up": 3882, "side": 3883, "dl": 3884, "utils": 3885, "\u0120debug": 3886, "BUFF": 3887, "\u0120continue": 3888, ">();": 3889, "\u0120lay": 3890, "Iterator": 3891, "lx": 3892, "mount": 3893, "Schema": 3894, "atile": 3895, "Attr": 3896, "Enabled": 3897, "marshal": 3898, "UND": 3899, "Ph": 3900, "---": 3901, "dict": 3902, "Decl": 3903, "shut": 3904, "ROUP": 3905, "Description": 3906, "istance": 3907, "\u0120files": 3908, "/>": 3909, "vc": 3910, "Last": 3911, "\u0120stack": 3912, "power": 3913, "\u0120CO": 3914, "runtime": 3915, "JSON": 3916, "Assert": 3917, "\u0120invalid": 3918, "\u0120reference": 3919, "\u0120whether": 3920, "\u0120ho": 3921, "\u0120Code": 3922, "imal": 3923, "scale": 3924, "rd": 3925, "total": 3926, "MR": 3927, "dim": 3928, "late": 3929, "gorith": 3930, "\u0120CAN": 3931, "101": 3932, "rs": 3933, "\u0120Bit": 3934, "WAR": 3935, "\u0120contains": 3936, "okup": 3937, "\u0120Config": 3938, "java": 3939, "iron": 3940, "\u0120later": 3941, "\u0120post": 3942, "Template": 3943, "\u0120Per": 3944, "Draw": 3945, "\u0120\u0120\u0120\u0120\u0120\u0120\u0120\u0120\u0120\u0120\u0120\u0120\u0120\u0120\u0120\u0120\u0120\u0120\u0120\u0120\u0120\u0120\u0120\u0120\u0120\u0120\u0120\u0120\u0120\u0120\u0120\u0120\u0120\u0120\u0120\u0120\u0120\u0120\u0120": 3946, "\u0120Desc": 3947, "\u0120applicable": 3948, "each": 3949, "DEX": 3950, "ability": 3951, "ision": 3952, "arge": 3953, "irm": 3954, "\u0120errors": 3955, "PAGE": 3956, "chron": 3957, "\u0120because": 3958, "Names": 3959, "bers": 3960, "ids": 3961, "OPY": 3962, "leted": 3963, "\u0120SY": 3964, "\u0120now": 3965, "\u0120AD": 3966, "Non": 3967, "\u0120Auth": 3968, "Menu": 3969, "\u0120just": 3970, "HI": 3971, "\u0120dif": 3972, "PARAM": 3973, "nil": 3974, "Expression": 3975, "\u0120mac": 3976, "Internal": 3977, "255": 3978, "eta": 3979, "prop": 3980, "\u0120skip": 3981, "\u0120top": 3982, "igin": 3983, "ENABLED": 3984, "\u0120\"\"": 3985, "hedule": 3986, "INLINE": 3987, "isters": 3988, "ram": 3989, "\u0120idx": 3990, "DISABLE": 3991, "\u0120\u0109\u0120\u0120\u0120\u0120": 3992, "\u0120errnoErr": 3993, "\u0120Function": 3994, "\u0120view": 3995, "\u0120delete": 3996, "arrant": 3997, "ous": 3998, "STRING": 3999, "\u0120wire": 4000, "Session": 4001, "author": 4002, "\"\\": 4003, "\u0120warrant": 4004, "RET": 4005, "BB": 4006, "pair": 4007, "leep": 4008, "CHAR": 4009, "\u0120(((": 4010, "\u0120supported": 4011, "\u0120binary": 4012, "ottom": 4013, "\u0120limitations": 4014, "\u0120Wh": 4015, "enter": 4016, "pass": 4017, "FORMAT": 4018, "\u0120governing": 4019, "\u0120Out": 4020, "\u0120handler": 4021, "LS": 4022, "plus": 4023, "\u0120cons": 4024, "WI": 4025, "\u0120tree": 4026, "\u0120space": 4027, "nx": 4028, "\u0120COPY": 4029, "valu": 4030, "\u0120Base": 4031, "REE": 4032, "Top": 4033, "toString": 4034, "Long": 4035, "pb": 4036, "aded": 4037, "DF": 4038, "join": 4039, "\u0120irq": 4040, "make": 4041, "pare": 4042, "posit": 4043, "hal": 4044, "DIR": 4045, "vision": 4046, "CALL": 4047, "Api": 4048, "CUR": 4049, "platform": 4050, "\u0120Pr": 4051, "\u0120CONDITION": 4052, "\u0120indic": 4053, "\u0120sys": 4054, "\u0120Default": 4055, "dec": 4056, "equals": 4057, "rec": 4058, "PK": 4059, "sock": 4060, "\u0120convert": 4061, "ution": 4062, "\u0120CONTR": 4063, "ric": 4064, "CAN": 4065, "pf": 4066, "keys": 4067, "Metadata": 4068, "NAL": 4069, "\u0120ver": 4070, "\u0120Trans": 4071, "\u0120bl": 4072, "aws": 4073, "\u0120warranty": 4074, "short": 4075, "decl": 4076, "\u0100\u0100\u0100\u0100": 4077, "urity": 4078, "LP": 4079, "tbl": 4080, "invalid": 4081, "soc": 4082, "\u0120attribute": 4083, "\u0120BASIS": 4084, "prec": 4085, "4000": 4086, "\u0120Te": 4087, "TRAN": 4088, "\u0120remove": 4089, "\u0120CONDITIONS": 4090, "ua": 4091, "\u0120exist": 4092, "Memory": 4093, "ifo": 4094, "\u0120IMP": 4095, "CLASS": 4096, "\u0120argument": 4097, "arm": 4098, "tk": 4099, "fail": 4100, "CCESS": 4101, "Script": 4102, "\u0120clear": 4103, "\u0120single": 4104, "Flag": 4105, "AI": 4106, "{{": 4107, "rb": 4108, "Controller": 4109, "\u0120attr": 4110, "GEN": 4111, "RESULT": 4112, "Del": 4113, "\u0120\"\",": 4114, "Over": 4115, "\u00d0\u00be": 4116, "\u0120build": 4117, "https": 4118, "wm": 4119, "Http": 4120, "\u0120mut": 4121, "509": 4122, "\u0120OTHER": 4123, "DT": 4124, "pose": 4125, "BUFFER": 4126, "verse": 4127, "\u0120env": 4128, "istry": 4129, "boolean": 4130, "step": 4131, "WM": 4132, "ike": 4133, "memory": 4134, "PROC": 4135, "\u0120Handle": 4136, ":%": 4137, "\u0120Im": 4138, "\u0120vec": 4139, "ounds": 4140, "uc": 4141, "If": 4142, "SUB": 4143, "\u0120unit": 4144, "POL": 4145, "\u0120SDL": 4146, "eee": 4147, "semb": 4148, "sel": 4149, "ene": 4150, "eeded": 4151, "\u0120TEST": 4152, "uch": 4153, "OW": 4154, "Parent": 4155, "eff": 4156, "\u0120255": 4157, "\u0120HT": 4158, "\u0120At": 4159, "Left": 4160, "tact": 4161, "Pool": 4162, "False": 4163, "\u0120associ": 4164, "cn": 4165, "Storage": 4166, "term": 4167, "\u0120Open": 4168, "Print": 4169, "xfe": 4170, "cel": 4171, "=(": 4172, "requ": 4173, "0040": 4174, ".\",": 4175, "\u0120#[": 4176, "erson": 4177, "></": 4178, "TIMER": 4179, "urface": 4180, "pri": 4181, "cell": 4182, "%%": 4183, "\u0120rel": 4184, "BACK": 4185, "Tool": 4186, "done": 4187, "uture": 4188, "ERV": 4189, "8000": 4190, "\")]": 4191, "RB": 4192, "VD": 4193, "ATA": 4194, "ences": 4195, "pid": 4196, "\u0120display": 4197, "Sw": 4198, "\u0120AL": 4199, "\u0120mp": 4200, "itempty": 4201, "acity": 4202, "ertific": 4203, "\u0120law": 4204, "Expr": 4205, "Argument": 4206, "\u0120record": 4207, "plu": 4208, "\u0120container": 4209, "button": 4210, "'],": 4211, "\u0120\u0120\u0120\u0120\u0120\u0120\u0120\u0120\u0120\u0120\u0120\u0120\u0120\u0120\u0120\u0120\u0120\u0120\u0120\u0120\u0120\u0120\u0120\u0120\u0120\u0120\u0120\u0120\u0120\u0120\u0120\u0120\u0120\u0120\u0120\u0120\u0120\u0120\u0120\u0120\u0120\u0120\u0120": 4212, "omitempty": 4213, "\u0120arguments": 4214, "legal": 4215, "WS": 4216, "pin": 4217, "Role": 4218, "kernel": 4219, "sql": 4220, "\u0120br": 4221, "container": 4222, "sort": 4223, "////////////////////////////////////////////////////////////////////////////////////////////////////////////////////////////////": 4224, "mov": 4225, "\u0120usb": 4226, "Parse": 4227, "la": 4228, "pend": 4229, "cat": 4230, "\u0120url": 4231, "loy": 4232, "JECT": 4233, "\u0120timeout": 4234, "ips": 4235, "\u0120along": 4236, "section": 4237, "\u0120Unless": 4238, "split": 4239, "ibility": 4240, "counter": 4241, ">&": 4242, "\u0120db": 4243, "fields": 4244, "\u0120agreed": 4245, "});": 4246, "bin": 4247, "tm": 4248, "\u0120ptr": 4249, "\u0120enabled": 4250, "\u00e3\u0125": 4251, "TAG": 4252, "\u0120await": 4253, "fx": 4254, "Custom": 4255, "Cond": 4256, "olver": 4257, "Failed": 4258, "au": 4259, "\u0120between": 4260, "PB": 4261, "Queue": 4262, "\u0120hope": 4263, "font": 4264, "\u0120mark": 4265, "Cmd": 4266, "agma": 4267, "SEQ": 4268, "!!!!!!": 4269, "shot": 4270, "\u0120sample": 4271, "mother": 4272, "\u0120\"/": 4273, "idden": 4274, "ested": 4275, "\u0120names": 4276, "\u0120MODULE": 4277, "Items": 4278, "\"],": 4279, "Timeout": 4280, "\u0120style": 4281, "ights": 4282, "fucking": 4283, "motherfucking": 4284, "################": 4285, "codec": 4286, "xis": 4287, "scan": 4288, "probe": 4289, "\u0120Interrupt": 4290, "reference": 4291, "gorithm": 4292, "Root": 4293, "ORS": 4294, "atomic": 4295, "\u00e5\u0131": 4296, "sig": 4297, "amily": 4298, "\u0120vol": 4299, "reshold": 4300, "\u0120Val": 4301, "CHANNEL": 4302, "\u0120Note": 4303, "tab": 4304, "OV": 4305, "STAN": 4306, "\u0120DB": 4307, "PCI": 4308, "/**/'": 4309, "003": 4310, "ecution": 4311, "ha": 4312, "\u0120US": 4313, "\u0120Not": 4314, "\u0120elements": 4315, "Display": 4316, "Job": 4317, "CRE": 4318, "\u0120total": 4319, "GROUP": 4320, "SRC": 4321, "\u0120exit": 4322, "\u0120custom": 4323, "BITS": 4324, "cho": 4325, "\u0120Input": 4326, "inline": 4327, "\u00e3\u0124": 4328, "\u00d0\u00b5": 4329, "Inst": 4330, "\u0120HW": 4331, "Only": 4332, "entic": 4333, "iteral": 4334, "SOC": 4335, "\u0120App": 4336, ")},": 4337, "dat": 4338, "Mon": 4339, "\u0120Redistribut": 4340, "\u0120Byte": 4341, "testing": 4342, "\u0120Status": 4343, "\u0120(__": 4344, "\u0120Key": 4345, "icode": 4346, "css": 4347, "prefix": 4348, "cla": 4349, "WID": 4350, "\u0120Class": 4351, "pll": 4352, "\u0120SD": 4353, "Dr": 4354, "ferent": 4355, "ossible": 4356, "IZ": 4357, "blk": 4358, "Bar": 4359, "\u0120platform": 4360, "plit": 4361, "\u0120Arg": 4362, "ACCE": 4363, "{},": 4364, "Send": 4365, "GP": 4366, "Math": 4367, "Support": 4368, "clip": 4369, "WARN": 4370, "LIED": 4371, "\u0120rt": 4372, "na": 4373, "acy": 4374, "wner": 4375, "wl": 4376, "RS": 4377, "rule": 4378, "\u0120my": 4379, "\u0120Map": 4380, "USER": 4381, "Runtime": 4382, "errors": 4383, "\u0120Option": 4384, "FFFFFF": 4385, "\u0120DAMAGE": 4386, "\u0120\u00d0": 4387, "pcm": 4388, "\u012018": 4389, "hel": 4390, "MODULE": 4391, "\u0120Ad": 4392, "Wh": 4393, "elf": 4394, ")\",": 4395, "erm": 4396, "shared": 4397, "\u0120IMPLIED": 4398, "\u0120[[": 4399, "\u0120Node": 4400, "FAIL": 4401, "apped": 4402, "ired": 4403, "ARB": 4404, "ironment": 4405, "ializer": 4406, "ulator": 4407, "coded": 4408, "\u0120Sc": 4409, "\u012030": 4410, "\u0120drm": 4411, "freq": 4412, "\u0120OUT": 4413, "Down": 4414, "win": 4415, "non": 4416, "Instruction": 4417, "SUCCESS": 4418, "should": 4419, "lick": 4420, "\u0120original": 4421, "qp": 4422, "\u0120they": 4423, "INDEX": 4424, "description": 4425, "\u0120del": 4426, "HER": 4427, "\u0120library": 4428, "imary": 4429, "TRACE": 4430, "uring": 4431, "RTC": 4432, "avi": 4433, "\u0120SC": 4434, "rad": 4435, "\u0120results": 4436, "'\\": 4437, "just": 4438, "assed": 4439, "\u0120strings": 4440, "\u0120objects": 4441, "Pl": 4442, "3333": 4443, "\u0120pci": 4444, "points": 4445, "Widget": 4446, "METH": 4447, "\u0120undefined": 4448, "\u0120loop": 4449, "vs": 4450, "Account": 4451, "\u0120clk": 4452, "\u0120async": 4453, "\u0120UINT": 4454, "RI": 4455, "enabled": 4456, "\u0120SPI": 4457, "duce": 4458, "pository": 4459, "USED": 4460, "AST": 4461, "ured": 4462, "eric": 4463, "Pass": 4464, "ancel": 4465, "Active": 4466, "ENOMEM": 4467, "ctor": 4468, "ersist": 4469, "ressed": 4470, "GER": 4471, "\u0120matrix": 4472, "\u0120LIMIT": 4473, "snd": 4474, "\u0120Call": 4475, "amer": 4476, "edia": 4477, "Volume": 4478, "\u0120BE": 4479, "\u0120CL": 4480, "IGN": 4481, "kens": 4482, "dump": 4483, "ometry": 4484, "MPLE": 4485, "alk": 4486, "Are": 4487, "destroy": 4488, "Ret": 4489, "KERNEL": 4490, "Parser": 4491, "->_": 4492, "settings": 4493, "document": 4494, "Env": 4495, "\u0120Event": 4496, "\u0120being": 4497, "script": 4498, "300": 4499, "\u0120generated": 4500, "\u0120additional": 4501, "\u0120session": 4502, "med": 4503, "\u0120assertEquals": 4504, "heme": 4505, "FG": 4506, "BC": 4507, "RESS": 4508, "voke": 4509, "VAR": 4510, "INPUT": 4511, "\u0120directory": 4512, "\u0120ren": 4513, "\u0120otherwise": 4514, "gs": 4515, "gpu": 4516, "bf": 4517, ")).": 4518, "emit": 4519, "IPV": 4520, "UART": 4521, "\u0120example": 4522, "Cap": 4523, "\u0120direct": 4524, "{};": 4525, "\u0120word": 4526, "MBOL": 4527, "\u0120IRQ": 4528, "ISC": 4529, "\u0120equal": 4530, "DAC": 4531, "\u0120dir": 4532, "\u0120\u0120\u0120\u0120\u0120\u0120\u0120\u0120\u0120\u0120\u0120\u0120\u0120\u0120\u0120\u0120\u0120\u0120\u0120\u0120\u0120\u0120\u0120\u0120\u0120\u0120\u0120\u0120\u0120\u0120\u0120\u0120\u0120": 4533, "FLAGS": 4534, "CSR": 4535, "ordin": 4536, "\u0120ignore": 4537, "\u0120pin": 4538, "DESC": 4539, "eek": 4540, "\u0120COPYRIGHT": 4541, "Im": 4542, "\u0120fin": 4543, "\u0120Write": 4544, "inc": 4545, "\u0120BUT": 4546, "note": 4547, "uff": 4548, "ioc": 4549, "___": 4550, "\u0120param": 4551, "tf": 4552, "__(": 4553, "Ste": 4554, "\u0120\\\"": 4555, "\u0120wr": 4556, "pointer": 4557, "BM": 4558, "\u0120Update": 4559, "undle": 4560, "Gui": 4561, "\u0120sets": 4562, "dated": 4563, "Bits": 4564, "apshot": 4565, "fill": 4566, "FIX": 4567, "01234567890123456789012345678901234567890123456789012345678901234567890123456789": 4568, "!==": 4569, "BT": 4570, "ardware": 4571, "Close": 4572, "opts": 4573, "filename": 4574, "SED": 4575, "Symbol": 4576, "\u0120CPU": 4577, "PERF": 4578, "Font": 4579, "\u0120second": 4580, "eer": 4581, "DRV": 4582, "\u0120location": 4583, "\u0120created": 4584, "leanup": 4585, "SSERT": 4586, "IA": 4587, "\u0120xml": 4588, "\u0120FALSE": 4589, "CLE": 4590, "\u0120Oracle": 4591, "00000001": 4592, "\u0120fd": 4593, "ertificate": 4594, "fff": 4595, "ARM": 4596, "ged": 4597, "\u0120about": 4598, "kfree": 4599, "\u0120always": 4600, "span": 4601, "curity": 4602, "Network": 4603, "pending": 4604, "allow": 4605, "names": 4606, ")*": 4607, "respon": 4608, "Br": 4609, "connection": 4610, "\u0120UN": 4611, "render": 4612, "\u0120cap": 4613, "\u0120----------------------------------------------------------------": 4614, "SYMBOL": 4615, "apply": 4616, "\u0120cannot": 4617, "Track": 4618, "Definition": 4619, "\u0120implementation": 4620, "UINT": 4621, "Us": 4622, "aise": 4623, "utf": 4624, "chunk": 4625, "\u0120these": 4626, "Ass": 4627, "rtl": 4628, "\u0120documentation": 4629, "day": 4630, "\u0120cop": 4631, "trl": 4632, "ENC": 4633, "\u0120render": 4634, "FX": 4635, "Cell": 4636, "Space": 4637, "xffffffff": 4638, "\u0120\u0109\u0109\u0109\u0120\u0120": 4639, "\u0120unsafe": 4640, "nv": 4641, "\u0120reflect": 4642, "throw": 4643, "rm": 4644, "\u00e7\u013c": 4645, "\u0120them": 4646, "Marshal": 4647, "Search": 4648, "\u0120down": 4649, "TRUE": 4650, "Ab": 4651, "\u0120''": 4652, "pad": 4653, "supported": 4654, "Py": 4655, "\u0120CH": 4656, "ier": 4657, "Attributes": 4658, "xCC": 4659, "\u0120LIMITED": 4660, "([]": 4661, "osition": 4662, "Vec": 4663, "\u0120Met": 4664, "\u0120man": 4665, "\u0120integer": 4666, "\u0120previous": 4667, "\u0120np": 4668, "\u0120ARRAY": 4669, "\u00e7\u013c\u0126": 4670, "meta": 4671, "Changed": 4672, "mux": 4673, "!=": 4674, "\u0120CA": 4675, "eep": 4676, "ENCE": 4677, "\u0120actual": 4678, "\u0120vm": 4679, "\u00d0\u00b8": 4680, "CG": 4681, "second": 4682, "Select": 4683, "Scalar": 4684, "Uint": 4685, "ANDLE": 4686, "BOOST": 4687, "png": 4688, "keep": 4689, "Vertex": 4690, "\u0120project": 4691, "\u0120written": 4692, "\u0120occ": 4693, "Variable": 4694, "\u0120since": 4695, "Cal": 4696, ")?": 4697, "\u0120step": 4698, "Ge": 4699, "pragma": 4700, "PATH": 4701, "COLOR": 4702, "slot": 4703, "\u0120associated": 4704, "Src": 4705, "\u0120Qu": 4706, "\u0120body": 4707, "\u0120SCB": 4708, "\u0120LIABILITY": 4709, "ced": 4710, ":[": 4711, "\u0120instead": 4712, "Global": 4713, "\u0120True": 4714, "(((": 4715, "Rel": 4716, "LECT": 4717, "\u0120JSON": 4718, "wrap": 4719, "project": 4720, "Extension": 4721, "-.": 4722, "YPE": 4723, "\u0120points": 4724, "\u0120bus": 4725, "record": 4726, ".__": 4727, "Mock": 4728, "sure": 4729, "HR": 4730, "\u0120\u0120\u0120\u0120\u0120\u0120\u0120\u0120\u0120\u0120\u0120\u0120\u0120\u0120\u0120\u0120\u0120\u0120\u0120\u0120\u0120\u0120\u0120\u0120\u0120\u0120\u0120\u0120\u0120\u0120\u0120\u0120\u0120\u0120": 4731, "\u0120prefix": 4732, "EOF": 4733, "\u0120Lo": 4734, "Windows": 4735, "\u0120through": 4736, "havi": 4737, "erived": 4738, "One": 4739, "LD": 4740, "ETH": 4741, "Alloc": 4742, "\u012025": 4743, "First": 4744, "RATE": 4745, "imation": 4746, "import": 4747, "adow": 4748, "vid": 4749, "',/**/'": 4750, "\u0120select": 4751, "APP": 4752, "Sample": 4753, "Selector": 4754, "Scope": 4755, "\\\":": 4756, "Tx": 4757, "[$": 4758, "letion": 4759, "\u0120\u0109\u0109\u0120": 4760, "Limit": 4761, "hci": 4762, "draw": 4763, "Rout": 4764, "abc": 4765, "\u0120div": 4766, "mapping": 4767, "()));": 4768, "Fail": 4769, "\u0120parser": 4770, "aved": 4771, "\u0120search": 4772, "\u0120Mem": 4773, "\u0120normal": 4774, "MAL": 4775, "fi": 4776, "ARY": 4777, "\u0120USA": 4778, "Member": 4779, "URN": 4780, "Unexpected": 4781, "idge": 4782, "high": 4783, "ings": 4784, "WIDTH": 4785, "\u0120active": 4786, "dig": 4787, "\u0120\u0100": 4788, "\u0120signal": 4789, "mock": 4790, "ances": 4791, "master": 4792, "alt": 4793, "moved": 4794, "Opt": 4795, "uri": 4796, "loor": 4797, "\u0120TODO": 4798, ":{": 4799, "ended": 4800, "virtual": 4801, "icle": 4802, "ga": 4803, "scription": 4804, "IDX": 4805, "alpha": 4806, "\u0120put": 4807, "WER": 4808, "\u0120sl": 4809, "\u0120product": 4810, "xba": 4811, "Project": 4812, "Man": 4813, "\u0120TX": 4814, "]->": 4815, "We": 4816, "\u0120close": 4817, "\u0120stop": 4818, "VEL": 4819, "\u0120USART": 4820, "<?": 4821, "\u0120implements": 4822, "ched": 4823, "APB": 4824, "\u0120Number": 4825, "\u0120different": 4826, "mitted": 4827, "VALID": 4828, "bed": 4829, "\u0120//----------------------------------------------------------------": 4830, "member": 4831, "Bl": 4832, "flush": 4833, "\u0120description": 4834, "pkt": 4835, "chain": 4836, "NX": 4837, "PWR": 4838, "Auto": 4839, "DECL": 4840, "depth": 4841, "crement": 4842, "Security": 4843, "ually": 4844, "MON": 4845, "tv": 4846, "\u0120instanceof": 4847, "\u0120multiple": 4848, "Texture": 4849, "\u0120Control": 4850, "\u0120timer": 4851, "sets": 4852, "pages": 4853, "\u0120Index": 4854, "\u0120show": 4855, "ITER": 4856, "real": 4857, "memcpy": 4858, "\u0120AC": 4859, "ictionary": 4860, "istory": 4861, "\u0120bcm": 4862, "arshall": 4863, "Unknown": 4864, "ummy": 4865, "ERRUP": 4866, "fix": 4867, "network": 4868, "CU": 4869, "tect": 4870, "ij": 4871, "Right": 4872, "amera": 4873, "\u0120\u0109\u0109\u0120\u0120": 4874, "urb": 4875, "olution": 4876, "\u0120counter": 4877, "\u0120own": 4878, "\u0120AV": 4879, "\u0120TRUE": 4880, "Dest": 4881, "\u0120comm": 4882, "entity": 4883, "ident": 4884, "\u0120character": 4885, "\u0120rule": 4886, "EB": 4887, "\u0120sn": 4888, "\u0120apply": 4889, "MX": 4890, "\u0120rx": 4891, "\u0120hw": 4892, "GT": 4893, "\u0120et": 4894, "Transform": 4895, "\u00e2\u0136": 4896, "acing": 4897, "bh": 4898, "\u0120SPD": 4899, "\u0120Syscall": 4900, "\u0120included": 4901, "RM": 4902, "metadata": 4903, "\u0120ASSERT": 4904, "requency": 4905, "plugin": 4906, "\u0120\u0109\u0109\u0109\u0120": 4907, "\u0120connect": 4908, "\u0120settings": 4909, "exist": 4910, "\u0120Source": 4911, "\u0120(!(": 4912, "CORE": 4913, "Free": 4914, "sta": 4915, "\u0120jav": 4916, "agement": 4917, "Double": 4918, "ross": 4919, "\u0120begin": 4920, "SF": 4921, "restore": 4922, "SHA": 4923, "oot": 4924, "interrupt": 4925, "GPL": 4926, "Mark": 4927, "ives": 4928, "\u0120nv": 4929, "aj": 4930, "\u0120passed": 4931, "Doc": 4932, "Require": 4933, "track": 4934, "\u0120section": 4935, "\u0120Cor": 4936, "argin": 4937, "../../": 4938, "\u0120gen": 4939, "ERS": 4940, "REAM": 4941, "dw": 4942, "pende": 4943, "\u0120subject": 4944, "SEC": 4945, "Use": 4946, ".\");": 4947, "HP": 4948, "\u0120rout": 4949, "writel": 4950, "\u0120disable": 4951, "rev": 4952, "Packet": 4953, "exports": 4954, "]+": 4955, "\u0120inode": 4956, "\u0120Mask": 4957, "\u0120199": 4958, "socket": 4959, "110": 4960, "zz": 4961, "\u0120sum": 4962, "Full": 4963, "math": 4964, "EY": 4965, "\u0120inv": 4966, "throws": 4967, "beta": 4968, "\u0120both": 4969, "boot": 4970, "\u0120raw": 4971, "report": 4972, "skip": 4973, "Dialog": 4974, "Sk": 4975, "img": 4976, "amb": 4977, "\u0120mon": 4978, "xbf": 4979, "\u0120methods": 4980, "Lib": 4981, "QUE": 4982, "\u0120\u0109\u0109\u010a": 4983, "framework": 4984, "Prefix": 4985, "\u0120insert": 4986, "Lenum": 4987, "Enable": 4988, "Cluster": 4989, "HS": 4990, "events": 4991, "\",\"__": 4992, "Report": 4993, "custom": 4994, "Detail": 4995, "PROTO": 4996, "\u0120\u0109\u0109\u0109\u0109\u0120\u0120\u0120": 4997, "\u0120*);": 4998, "undef": 4999, "\u00e3\u0122": 5000, "owner": 5001, "RING": 5002, "~~~~": 5003, "Buf": 5004, "cx": 5005, "\u0120selected": 5006, "SCRIP": 5007, "BI": 5008, "\u0120Loc": 5009, "\u012021": 5010, "itive": 5011, "\u0120NE": 5012, "...)": 5013, "serv": 5014, "protocol": 5015, "\u0120such": 5016, "\u0120mapping": 5017, "PY": 5018, "\u00e1\u0125": 5019, "ae": 5020, "Xml": 5021, "\u0120skb": 5022, "\u0120png": 5023, "],[-": 5024, "aut": 5025, "zon": 5026, "Scale": 5027, "rv": 5028, "\u0120sort": 5029, "\u00d1\u0124": 5030, "\u0120dma": 5031, "\u0120DIS": 5032, "nl": 5033, "complete": 5034, "iph": 5035, "nb": 5036, "()))": 5037, "CID": 5038, "DATE": 5039, "ARRAY": 5040, "files": 5041, "\u0120\u0120\u0120\u0120\u0120\u0120\u0120\u0120\u0120\u0120\u0120\u0120\u0120\u0120\u0120\u0120\u0120\u0120\u0120\u0120\u0120\u0120\u0120\u0120\u0120\u0120\u0120\u0120\u0120\u0120\u0120\u0120\u0120\u0120\u0120\u0120": 5042, ")/": 5043, "\u0120///<": 5044, "ifies": 5045, "\u0120needed": 5046, "\u0120Date": 5047, "\u00e5\u012a": 5048, "sym": 5049, "DOWN": 5050, "\u0120power": 5051, "aaaaaaaa": 5052, "]),": 5053, "\u0120\u0109\u0120\u0120\u0120\u0120\u0120": 5054, "HB": 5055, "DIRECT": 5056, "apture": 5057, "()),": 5058, "\u0120GFP": 5059, "async": 5060, "\u0120SW": 5061, "PG": 5062, "\u0120date": 5063, "ssages": 5064, "greg": 5065, "ategy": 5066, "\u0120based": 5067, "\u0120doesn": 5068, "\u0120kernel": 5069, "slice": 5070, "sq": 5071, "\u0120ll": 5072, "ires": 5073, "ii": 5074, "\u0120/>": 5075, "\u0120lp": 5076, "props": 5077, "IAL": 5078, "LEVEL": 5079, ")[": 5080, "VOL": 5081, "\u00d0\u00bd": 5082, "\u0120events": 5083, "Logger": 5084, "!(": 5085, "engine": 5086, "+\"": 5087, "\u0120\u0109\u0109\u0109\u0120\u0120\u0120\u0120\u0120\u0120": 5088, "XG": 5089, "pkg": 5090, "loop": 5091, "Icon": 5092, "()).": 5093, "\u0120STM": 5094, "entries": 5095, "netdev": 5096, "\u0120domain": 5097, "\u0120our": 5098, "hell": 5099, "wd": 5100, "\u0120EVENT": 5101, "ius": 5102, "\u0120//#": 5103, "FIFO": 5104, "NR": 5105, "mediate": 5106, "ators": 5107, "ASE": 5108, "TF": 5109, "video": 5110, "\u0120Math": 5111, "\u012031": 5112, "STATIC": 5113, "Protocol": 5114, "\u0120dim": 5115, "\u0120initial": 5116, "Raw": 5117, "Keys": 5118, "\u0120\u0109\u0109\u0109\u0120\u0120\u0120\u0120": 5119, "\u0120once": 5120, "Domain": 5121, "II": 5122, "Region": 5123, "\u0120sure": 5124, "\u0120chunk": 5125, "\u0120128": 5126, "\u0120yy": 5127, "elem": 5128, "storage": 5129, "YP": 5130, "\u0120possible": 5131, "\u0120report": 5132, "tls": 5133, "POWER": 5134, "PRI": 5135, "FMT": 5136, "STD": 5137, "\u0120('": 5138, "Tick": 5139, "VC": 5140, "\u0120socket": 5141, "*(": 5142, "dup": 5143, "Props": 5144, "va": 5145, "dk": 5146, "\u0120RX": 5147, "inner": 5148, "Slice": 5149, "Binding": 5150, "\u0120again": 5151, "POS": 5152, "rdev": 5153, "\u0120sequence": 5154, "ntax": 5155, "initions": 5156, "NODE": 5157, "\u0120distribution": 5158, "\u0120User": 5159, "uart": 5160, "ished": 5161, "WD": 5162, "\u0120could": 5163, "\u0120opts": 5164, "Idx": 5165, "Tab": 5166, "Selection": 5167, "\u0120prob": 5168, "\u0120Output": 5169, "Generic": 5170, "\u0120Address": 5171, "Shape": 5172, "Application": 5173, "\u0120iNdEx": 5174, "\u0120permission": 5175, "\u0120entries": 5176, "failed": 5177, "\u0120CR": 5178, "\u0120constant": 5179, "**/": 5180, "HANDLE": 5181, "\u0120Size": 5182, "UNK": 5183, "ness": 5184, "}\\": 5185, "exec": 5186, "lane": 5187, "rypto": 5188, "STOP": 5189, "TIMEOUT": 5190, "\u0120Sub": 5191, "HOST": 5192, "'.": 5193, "\u0120PFN": 5194, "Av": 5195, "\u0120core": 5196, "UEST": 5197, "bound": 5198, "channels": 5199, "\u0120When": 5200, "\u0120scale": 5201, "ploy": 5202, "GTH": 5203, "aly": 5204, "600": 5205, "trigger": 5206, "192": 5207, "\u0120how": 5208, "pan": 5209, "=[": 5210, "\u012023": 5211, "MARK": 5212, "USH": 5213, "pixel": 5214, "example": 5215, "\u0120elem": 5216, "rf": 5217, "Ver": 5218, "atio": 5219, "\u0120expression": 5220, "compat": 5221, "\u0120added": 5222, "\u0120Message": 5223, "________": 5224, "\u0120like": 5225, "\u0120\u0109\u0109\u0120\u0120\u0120\u0120\u0120\u0120": 5226, "IGH": 5227, "ically": 5228, "\u0120symbol": 5229, "SQ": 5230, "gc": 5231, "\u0120keys": 5232, "VT": 5233, "CNT": 5234, "ernet": 5235, "\u0120Inter": 5236, "TIF": 5237, "\u0120sb": 5238, "\u0120EXPORT": 5239, "Rece": 5240, "Hz": 5241, "alle": 5242, "pol": 5243, "\u0120pipe": 5244, "ole": 5245, "Found": 5246, "legate": 5247, "arguments": 5248, "\u0120builder": 5249, "Boolean": 5250, "Layer": 5251, "\u0120would": 5252, "seg": 5253, "Editor": 5254, "\u0120registers": 5255, "ARCH": 5256, "pret": 5257, "GO": 5258, "VO": 5259, "idd": 5260, "\u01201000": 5261, "NEXT": 5262, "EXPORT": 5263, "CLOCK": 5264, "\u0120javax": 5265, "\u0120\u0120\u0120\u0120\u0120\u0120\u0120\u0120\u0120\u0120\u0120\u0120\u0120\u0120\u0120\u0120\u0120\u0120\u0120\u0120\u0120\u0120\u0120\u0120\u0120\u0120\u0120\u0120\u0120\u0120\u0120\u0120\u0120\u0120\u0120\u0120\u0120": 5266, "000001": 5267, "iltin": 5268, "\u012028": 5269, "schema": 5270, "nost": 5271, "diff": 5272, "Any": 5273, "\u0120\u0109\u0109\u0109\u0109\u0120": 5274, "speed": 5275, "ling": 5276, "KERN": 5277, "\u0120within": 5278, "Trace": 5279, "wire": 5280, "phys": 5281, "oriz": 5282, "Adapter": 5283, "\u0120DEF": 5284, "CTX": 5285, "\u0120high": 5286, "\u012022": 5287, "\u0120fusion": 5288, "println": 5289, "cluding": 5290, "book": 5291, "LIB": 5292, "]))": 5293, "irmware": 5294, "syscall": 5295, "\u0120\u0120\u0120\u0120\u0120\u0120\u0120\u0120\u0120\u0120\u0120\u0120\u0120\u0120\u0120\u0120\u0120\u0120\u0120\u0120\u0120\u0120\u0120\u0120\u0120\u0120\u0120\u0120\u0120\u0120\u0120\u0120\u0120\u0120\u0120\u0120\u0120\u0120\u0120\u0120": 5296, "esh": 5297, "\u0120State": 5298, "area": 5299, "hd": 5300, "\u0120SPDX": 5301, "abab": 5302, "defer": 5303, "ough": 5304, "\u0120Field": 5305, "rank": 5306, "\u0120android": 5307, "\u0120properties": 5308, "Namespace": 5309, "Generator": 5310, "Bool": 5311, "\u0120sim": 5312, "lookup": 5313, "uspend": 5314, "\u0120mlx": 5315, "SIGN": 5316, "EEE": 5317, ";\\": 5318, "\u0120FLA": 5319, "isc": 5320, "warn": 5321, "matrix": 5322, "Edit": 5323, "LOAT": 5324, "\u0120descriptor": 5325, "yph": 5326, "REC": 5327, "\u0120End": 5328, "TRI": 5329, "\u0120correct": 5330, "policy": 5331, "\u0120SSL": 5332, "\u00d1\u0122": 5333, "Plugin": 5334, "claimer": 5335, "ICAg": 5336, "Engine": 5337, "NON": 5338, "ges": 5339, "DD": 5340, "STRU": 5341, "tric": 5342, "Build": 5343, "signal": 5344, "\u0120Cal": 5345, "\u0120impl": 5346, "\u0120Op": 5347, "\u0120\u0109\u0109\u0109\u0109\u0120\u0120": 5348, "\u0120pixel": 5349, "\u0120dec": 5350, "\u0120Max": 5351, "002": 5352, "\u0120real": 5353, "Duration": 5354, "\u0120correspon": 5355, "FILTER": 5356, "\u0120Str": 5357, "heet": 5358, "ATURE": 5359, "\u0120bound": 5360, "\u0120sock": 5361, "tml": 5362, "ached": 5363, "audio": 5364, "Sequence": 5365, "tcp": 5366, "decode": 5367, "endor": 5368, "SPACE": 5369, "ivers": 5370, "SELECT": 5371, "zone": 5372, "Can": 5373, "FRAME": 5374, "\u0120accomp": 5375, "Mat": 5376, "\u0120rate": 5377, "\u0120GPL": 5378, "\u0120protocol": 5379, "-+": 5380, "ites": 5381, "--;": 5382, "romise": 5383, "\u0120items": 5384, "\u0120ON": 5385, "force": 5386, "Remove": 5387, "Profile": 5388, "akes": 5389, "\u0120application": 5390, "ression": 5391, "\u0120save": 5392, "scal": 5393, "thon": 5394, "\u0120XXX": 5395, "\u0120wx": 5396, "\u0120hold": 5397, "\u0120Request": 5398, "gb": 5399, "Post": 5400, "serialize": 5401, "MBER": 5402, "Package": 5403, "ragment": 5404, "\u012026": 5405, "losed": 5406, "\u0120track": 5407, "\u0120NV": 5408, "lm": 5409, "att": 5410, ">;": 5411, "\u0120definition": 5412, "issing": 5413, "LED": 5414, "${": 5415, "\u0120Some": 5416, "spr": 5417, "ture": 5418, "\u0120Cre": 5419, "acters": 5420, "nodes": 5421, "\u0120cfg": 5422, "TCP": 5423, "ENS": 5424, "Wait": 5425, "\u0120endpoint": 5426, "contains": 5427, "\u0120maximum": 5428, "\u0120ns": 5429, "CONF": 5430, "Player": 5431, "\u012051": 5432, "Transaction": 5433, "\u0120Start": 5434, "tection": 5435, "\u0120Form": 5436, "\u0120script": 5437, "acc": 5438, "Rate": 5439, "MOVE": 5440, "annotation": 5441, "STREAM": 5442, "intr": 5443, "}.": 5444, "\u0120priv": 5445, "frag": 5446, "direct": 5447, "MIX": 5448, "](": 5449, "llegal": 5450, "rowser": 5451, "xcc": 5452, "\u00e6\u013e": 5453, "Endpoint": 5454, "\u0120too": 5455, "Annot": 5456, "mf": 5457, "\u0120cref": 5458, "\u0120Text": 5459, "LENGTH": 5460, "xxx": 5461, "\u0120account": 5462, "Sum": 5463, "\u0120chain": 5464, "\u0120arch": 5465, "ssl": 5466, "\u0120printf": 5467, "\u0120until": 5468, "\u0120Integer": 5469, "SCAL": 5470, "\u0120<?": 5471, "STA": 5472, "layout": 5473, "kt": 5474, "covery": 5475, "transform": 5476, "CONTEXT": 5477, "ATCH": 5478, "ection": 5479, "vp": 5480, "\u0120..": 5481, "Apply": 5482, "\u0120disclaimer": 5483, "111": 5484, "Pattern": 5485, "Mapping": 5486, "verter": 5487, "Elements": 5488, "ARGET": 5489, "Title": 5490, "\u0120sent": 5491, "Proxy": 5492, "mazon": 5493, "{})": 5494, "500": 5495, "ru": 5496, "herit": 5497, "Short": 5498, "\u0120region": 5499, "PRINT": 5500, "alf": 5501, "ToString": 5502, "TM": 5503, "\u0120conf": 5504, "lines": 5505, "POINT": 5506, "HEADER": 5507, "\u0120Pack": 5508, "\u0120setting": 5509, "ISING": 5510, "TRA": 5511, "namespace": 5512, "faces": 5513, "xfc": 5514, "por": 5515, "idate": 5516, "\u0120Spec": 5517, "\u0120Reserved": 5518, "tim": 5519, "\u0109\u0109\u0109\u0109\u0109": 5520, "\u0120Mode": 5521, "CLU": 5522, "(\"\\": 5523, "\u0120neg": 5524, "Red": 5525, "\u0120loc": 5526, "IBUT": 5527, "\u0120Sw": 5528, "ICES": 5529, "\u0120network": 5530, "Mut": 5531, "Dim": 5532, "\u0120EXTI": 5533, "\u0120common": 5534, "STM": 5535, "DLT": 5536, "POST": 5537, "MUL": 5538, "WAIT": 5539, "inux": 5540, "argv": 5541, "Panel": 5542, "conv": 5543, "'))": 5544, "hook": 5545, "DEC": 5546, "NFT": 5547, "gg": 5548, "\u0120nodes": 5549, "parameters": 5550, "kw": 5551, "vas": 5552, "\u0120setup": 5553, "\u0120optional": 5554, "\u012048": 5555, "scope": 5556, "widget": 5557, "idi": 5558, "CONST": 5559, "lik": 5560, "\u0120Position": 5561, "\u0120\u0120\u0120\u0120\u0120\u0120\u0120\u0120\u0120\u0120\u0120\u0120\u0120\u0120\u0120\u0120\u0120\u0120\u0120\u0120\u0120\u0120\u0120\u0120\u0120\u0120\u0120\u0120\u0120\u0120\u0120\u0120\u0120\u0120\u0120\u0120\u0120\u0120": 5562, "\u0120macro": 5563, "crtc": 5564, "\u0120during": 5565, "\u0120wireType": 5566, "\u0120release": 5567, "\u0120raise": 5568, "groups": 5569, "hedul": 5570, "Timer": 5571, "rep": 5572, "\u0120fore": 5573, "menu": 5574, "prom": 5575, "ATOR": 5576, "0002": 5577, "\u0120KEY": 5578, "Dec": 5579, "QUAL": 5580, "5555": 5581, "Sn": 5582, "poll": 5583, "XML": 5584, "Sync": 5585, "SQL": 5586, "\u0120font": 5587, "super": 5588, "BUSY": 5589, "unique": 5590, "OPT": 5591, "\u0120metadata": 5592, "\u0120Reset": 5593, "ffers": 5594, "Power": 5595, "\u0120dig": 5596, "fifo": 5597, "\u0120SN": 5598, "ACTIVE": 5599, ")-": 5600, "HAS": 5601, "\u0120failure": 5602, "\u0120requests": 5603, "\u0120got": 5604, "mul": 5605, "fixed": 5606, "culate": 5607, "\u0120volatile": 5608, "COMM": 5609, "WITH": 5610, "NA": 5611, "\u00e4\u00bb": 5612, "cpi": 5613, "_->": 5614, "\u00bf\u00bd": 5615, "(%": 5616, "clone": 5617, "drvdata": 5618, "\u012050": 5619, "cg": 5620, "lative": 5621, "EF": 5622, "OBJECT": 5623, "\u0120disabled": 5624, "rot": 5625, "Multi": 5626, "\u0120member": 5627, "Click": 5628, "\u0120changed": 5629, "AUTH": 5630, "Directory": 5631, "AVE": 5632, "vcpu": 5633, "\u0120MB": 5634, "PRESS": 5635, "RESERV": 5636, "\u0120BCM": 5637, "BD": 5638, "GIN": 5639, "encode": 5640, "\u0120iterator": 5641, "lap": 5642, "adv": 5643, "').": 5644, "\u0120DAMAGES": 5645, "zure": 5646, "Prop": 5647, "------------------------------------------------": 5648, "=!": 5649, "###": 5650, "\u0120False": 5651, "SPEC": 5652, ".\"": 5653, "\u0120Redistributions": 5654, "constant": 5655, "FACE": 5656, "itu": 5657, "........": 5658, "VERT": 5659, "aff": 5660, "915": 5661, "iddle": 5662, "\u0120Channel": 5663, "Import": 5664, "tries": 5665, "EXIT": 5666, "AUD": 5667, "Step": 5668, "\u0120pattern": 5669, "\u0120\"-": 5670, "\u0120{};": 5671, "\u0120controller": 5672, "getName": 5673, "Socket": 5674, "havior": 5675, "\u0120SOC": 5676, "ACKE": 5677, "\u0120dw": 5678, "mu": 5679, "optional": 5680, "assertEquals": 5681, "\u0120accept": 5682, "\u0120attributes": 5683, "ALIGN": 5684, "\u0120PFNGL": 5685, "anaged": 5686, "\u0120encoding": 5687, "FALSE": 5688, "CACHE": 5689, "lim": 5690, "rw": 5691, "words": 5692, "gu": 5693, "road": 5694, "\u0120UART": 5695, "Sprintf": 5696, "Rep": 5697, "Signal": 5698, "Condition": 5699, "termin": 5700, "\u0120Result": 5701, "RESERVED": 5702, "Real": 5703, "\u0120pool": 5704, "sect": 5705, "headers": 5706, "random": 5707, "\u0120head": 5708, "\u0120256": 5709, "Common": 5710, "\u0120sup": 5711, "ever": 5712, "\u0120INCLUDING": 5713, "Word": 5714, "symbol": 5715, "Conn": 5716, "]*": 5717, "Section": 5718, "delta": 5719, "FORM": 5720, "\u0120(%": 5721, "anner": 5722, "ambda": 5723, "Pair": 5724, "\u0120transfer": 5725, "\u0120\u0109\u0109\u0109\u0120\u0120\u0120\u0120\u0120": 5726, "RETURN": 5727, "job": 5728, "-\\": 5729, "nchron": 5730, "iform": 5731, "Stop": 5732, "\u0120XML": 5733, "^^": 5734, "\u00ef\u00bf\u00bd": 5735, "xFFFFFFFF": 5736, "REQUEST": 5737, "precated": 5738, "Clear": 5739, "asure": 5740, "\u0120LOG": 5741, "Unmarshal": 5742, "\u0120fill": 5743, "\u0120avoid": 5744, "INCLUDING": 5745, "\u0120scope": 5746, "\u0120present": 5747, "\u0120Microsoft": 5748, "ks": 5749, "SEQU": 5750, "entication": 5751, "lv": 5752, "\u0120phy": 5753, "cover": 5754, "\u0120complete": 5755, "Constants": 5756, "\u0120slot": 5757, "memset": 5758, "encoder": 5759, "cu": 5760, "PACK": 5761, "ili": 5762, "drop": 5763, "\u0120entity": 5764, "properties": 5765, "\u0120trigger": 5766, "\u0120As": 5767, "\u0120warning": 5768, "gid": 5769, "manager": 5770, "pattern": 5771, "123": 5772, "80000000": 5773, "\u0120perform": 5774, "bat": 5775, "\u0120Context": 5776, "reflect": 5777, "+=": 5778, "since": 5779, "icient": 5780, "plied": 5781, "lation": 5782, "Wrapper": 5783, "HIGH": 5784, "tun": 5785, "package": 5786, "children": 5787, "\u0120below": 5788, "+'": 5789, "ErrUnexpected": 5790, "\u0120PORT": 5791, "***": 5792, "sembly": 5793, "Temp": 5794, "CTOR": 5795, "METHOD": 5796, "\u0120seq": 5797, "izes": 5798, "ffix": 5799, "wq": 5800, "\u0120typeof": 5801, "\u0120EN": 5802, "regmap": 5803, "trie": 5804, "\u012027": 5805, "\u0120'/": 5806, "Stats": 5807, "comment": 5808, "bm": 5809, "aration": 5810, "\u0120graph": 5811, "Off": 5812, "export": 5813, "Each": 5814, "sf": 5815, "egr": 5816, "\u0120DATA": 5817, "aterial": 5818, "dom": 5819, "\u0120Resource": 5820, "\u0120sql": 5821, "ErrUnexpectedEOF": 5822, "BN": 5823, "\u0120URL": 5824, "\u0120cause": 5825, "LEFT": 5826, "\u0120PROVI": 5827, "IFY": 5828, "zip": 5829, "Pixel": 5830, "scroll": 5831, "expect": 5832, "LETE": 5833, "]],": 5834, "OPEN": 5835, "\u0120ieee": 5836, "1111": 5837, "maining": 5838, "\u0120calls": 5839, "Fl": 5840, "\u0120way": 5841, "blocks": 5842, "\u0120allowed": 5843, "\u0120chip": 5844, "MAN": 5845, "Grid": 5846, "Des": 5847, "\u0120With": 5848, "cursor": 5849, "\u0120##": 5850, "drm": 5851, "helper": 5852, "application": 5853, "iagnost": 5854, "Product": 5855, "Private": 5856, "ands": 5857, "Lower": 5858, "\u0120move": 5859, "\u0120dat": 5860, "mer": 5861, "\u0120title": 5862, "\u0120means": 5863, "\u0120doc": 5864, "\u0120contribut": 5865, "sumer": 5866, "CFGR": 5867, "\u0120pop": 5868, "\u0120gu": 5869, "\u0120PHY": 5870, "]:": 5871, "validate": 5872, "Clock": 5873, "\u012040": 5874, "\u00e5\u0132": 5875, "feature": 5876, "screen": 5877, "\u0120SPE": 5878, "\u0120fr": 5879, "\u0120PROVIDED": 5880, "\u0120what": 5881, "RST": 5882, "ilt": 5883, "Nodes": 5884, "\u0120random": 5885, "found": 5886, "ROTO": 5887, "\u0120pair": 5888, "igen": 5889, "Normal": 5890, "controller": 5891, "resources": 5892, "ipheral": 5893, "\u0120runtime": 5894, "\u0120constructor": 5895, "malloc": 5896, "NOWN": 5897, "LOB": 5898, "104": 5899, "aft": 5900, "\u0120\u0109\u0109\u0109\u010a": 5901, "\u0120layer": 5902, "ENR": 5903, "likely": 5904, "\u0120readonly": 5905, "\u0120mock": 5906, "builder": 5907, "profile": 5908, "ISR": 5909, "\u0120extra": 5910, "none": 5911, "Events": 5912, "Me": 5913, "\u0120Disable": 5914, "payload": 5915, "\u0120SHALL": 5916, "qt": 5917, "HTTP": 5918, "\u0120edge": 5919, "\u0120DI": 5920, "\u0120their": 5921, "WISE": 5922, "SIOC": 5923, "ACCESS": 5924, "127": 5925, "gate": 5926, "ler": 5927, "STER": 5928, "\u0120execut": 5929, "\u0120cs": 5930, "\u0120SU": 5931, "Headers": 5932, "\u0120Window": 5933, "\u0120AUT": 5934, "bg": 5935, "\u0120Buffer": 5936, "operator": 5937, "bcm": 5938, "orizont": 5939, "\u0120transaction": 5940, "\u0120Hash": 5941, "ULONG": 5942, "STANCE": 5943, "Fatal": 5944, "product": 5945, "\u0120MT": 5946, "\u0120keep": 5947, "\u0120ix": 5948, "\u0120WHE": 5949, "mr": 5950, "RED": 5951, "ONLY": 5952, "mouse": 5953, "RAM": 5954, "align": 5955, "PIPE": 5956, "\u0120refer": 5957, "\u00ef\u00bf\u00bd\u00ef\u00bf\u00bd": 5958, "LOCAL": 5959, "\u0120Offset": 5960, "vf": 5961, "\u0120sec": 5962, "\u0120MAC": 5963, "\u0120every": 5964, "docs": 5965, "FIN": 5966, "cq": 5967, "ze": 5968, "notify": 5969, "\u0120filename": 5970, "\u0120conn": 5971, "olute": 5972, "convert": 5973, "eval": 5974, "Append": 5975, "peg": 5976, "ELE": 5977, "Activity": 5978, "\u00d1\u0123": 5979, "\u0120LIABLE": 5980, "\u0120Pre": 5981, "ANT": 5982, "urrency": 5983, "\u0120bt": 5984, "\u0120WHETHER": 5985, "OUTPUT": 5986, "\u0120Oper": 5987, "bad": 5988, "NL": 5989, "AX": 5990, "alet": 5991, "\u0120uses": 5992, "ENA": 5993, "\u0120href": 5994, "USART": 5995, "\u0120*(": 5996, "ifiers": 5997, "cy": 5998, "orest": 5999, "`.": 6000, "CAL": 6001, "\u0120generate": 6002, "admin": 6003, "\u0120storage": 6004, "\u0120pri": 6005, "\u0120ARISING": 6006, "istics": 6007, "========================================================================": 6008, "assign": 6009, "Media": 6010, "errno": 6011, "fusion": 6012, "\u0120AF": 6013, "FLOW": 6014, "front": 6015, "assertEqual": 6016, "xfb": 6017, "\u0120ImGui": 6018, "rout": 6019, "dn": 6020, "vers": 6021, "\u0120'%": 6022, "pear": 6023, "Constraint": 6024, "cipher": 6025, "ANK": 6026, "_)": 6027, "RANGE": 6028, "\u0120/****************************************************************************": 6029, "\u0120STAT": 6030, "ration": 6031, "Sort": 6032, "EDTLS": 6033, "Zero": 6034, "020": 6035, "AUTO": 6036, "INTERNAL": 6037, "PCM": 6038, "\u0120card": 6039, "\u0120[\"": 6040, "\u0120headers": 6041, "\u00e0\u00b8": 6042, "swap": 6043, "\u0120BO": 6044, "peer": 6045, "That": 6046, "\u0120prop": 6047, "\u0120sig": 6048, "traits": 6049, "\u0120Clear": 6050, "\u0120scan": 6051, "omat": 6052, "\u0120copies": 6053, ":!": 6054, "\u00e0\u00a4": 6055, "ASM": 6056, "\u0120button": 6057, "\u0120@{": 6058, "\u0120Process": 6059, "media": 6060, "TRIG": 6061, "\u0120CONTRACT": 6062, "\u0120help": 6063, "\u0120needs": 6064, "\u0120explicit": 6065, "IDE": 6066, "gnore": 6067, "descriptor": 6068, "\u0120He": 6069, "\u0120cb": 6070, "lower": 6071, "clipse": 6072, "attrs": 6073, "BS": 6074, "AE": 6075, "recv": 6076, "'re": 6077, "vt": 6078, "\u0120conversion": 6079, "ACKET": 6080, "\u0120ERR": 6081, "security": 6082, "\u012029": 6083, "\u0120operations": 6084, "Comm": 6085, "\u00e8\u00af": 6086, "Loader": 6087, "ison": 6088, "\u0120Less": 6089, "Files": 6090, "\u0120SDMA": 6091, "ggle": 6092, "\u0120EXPRESS": 6093, "mult": 6094, "Tri": 6095, "ocus": 6096, "HD": 6097, "SOCK": 6098, "CLI": 6099, "(?:": 6100, "cloud": 6101, "ecess": 6102, "Reset": 6103, "PLAY": 6104, "orizontal": 6105, "reply": 6106, "_);": 6107, "\u0120es": 6108, "RENT": 6109, "Scroll": 6110, "FLOAT": 6111, "Find": 6112, "Fr": 6113, "xt": 6114, "integer": 6115, "PEND": 6116, "\u0120cell": 6117, "pdata": 6118, "ony": 6119, "\u0120job": 6120, "catch": 6121, "Single": 6122, "NOR": 6123, "extra": 6124, "\u0120PR": 6125, "\u0120adapter": 6126, "After": 6127, "kind": 6128, "bose": 6129, "mpt": 6130, "\u0120extension": 6131, "\u0120database": 6132, "Pod": 6133, "\u0120box": 6134, "jo": 6135, "DY": 6136, "strings": 6137, "\u0120MX": 6138, "edge": 6139, "dentials": 6140, "\u0120Pointer": 6141, "CONNE": 6142, "ITS": 6143, "\u0120Net": 6144, "\u0120Go": 6145, "\u0120SET": 6146, "\u0120DEFAULT": 6147, "bitmap": 6148, "ETHER": 6149, "\u0120endif": 6150, "\u0120py": 6151, "Move": 6152, "tage": 6153, "*,": 6154, "AK": 6155, "dices": 6156, "uf": 6157, "\u0120via": 6158, "\u0120fs": 6159, "after": 6160, "ulate": 6161, "unknown": 6162, "rp": 6163, "\u0120schema": 6164, "RGB": 6165, "quires": 6166, "pub": 6167, "GLE": 6168, "attach": 6169, "}),": 6170, "ALLOC": 6171, "\u0120Google": 6172, "Flow": 6173, "PPROTO": 6174, "IOC": 6175, "FromString": 6176, "0000000000000000": 6177, "SV": 6178, "SING": 6179, "\u0120collection": 6180, "\u00e2\u0136\u0122": 6181, "cons": 6182, "\u0120logger": 6183, "Selected": 6184, "\u0120trace": 6185, "\u0120fix": 6186, "wp": 6187, "\u0120containing": 6188, "ampl": 6189, "\u0120compat": 6190, "=-": 6191, "\u0120pt": 6192, "\u0120Delete": 6193, "click": 6194, "xaa": 6195, "\u0120den": 6196, "\u0120look": 6197, "My": 6198, "variable": 6199, "\u0120shared": 6200, "\u0120Ab": 6201, "\u0120sync": 6202, "\u0120draw": 6203, "ISTER": 6204, "unregister": 6205, "category": 6206, "center": 6207, "ILED": 6208, "help": 6209, "serial": 6210, "LV": 6211, "Simple": 6212, "\u0120{\\": 6213, "\u0120SE": 6214, "TT": 6215, "\u0120\u00e6": 6216, "stderr": 6217, "etime": 6218, "Into": 6219, "\u0120characters": 6220, "QUEUE": 6221, "ENTI": 6222, "NI": 6223, "strict": 6224, "Success": 6225, "Effect": 6226, "ather": 6227, "aits": 6228, "004": 6229, "\u0120MSG": 6230, "HEAD": 6231, "pace": 6232, "Database": 6233, "\u0120CLK": 6234, "forms": 6235, "Gen": 6236, "LIMIT": 6237, "Audio": 6238, "Release": 6239, "\u0120Device": 6240, "\u0120feature": 6241, "------": 6242, "INS": 6243, "Ids": 6244, "\u0120encode": 6245, "account": 6246, "\u0120visit": 6247, "\u0120\u0109\u0120\u0120\u0120\u0120\u0120\u0120": 6248, "Ob": 6249, "batch": 6250, "prepare": 6251, "alette": 6252, "crypto": 6253, "\"/>": 6254, "Cursor": 6255, "\u0120existing": 6256, "Counter": 6257, "\u0120person": 6258, "amaz": 6259, "\u0120Method": 6260, "\u00d8\u00a7": 6261, "PIX": 6262, "-------------": 6263, "\u0120merge": 6264, "120": 6265, "\u0120IOException": 6266, "COUNTER": 6267, "Export": 6268, "\u00d0\u00be\u00d0": 6269, "EMP": 6270, "\u0120Gets": 6271, "__);": 6272, "\u0120hardware": 6273, "\u0120\u00e5": 6274, "ROW": 6275, "\u0120OTHERWISE": 6276, "AW": 6277, "\u0120er": 6278, "ilities": 6279, "poration": 6280, "[(": 6281, "watch": 6282, "edit": 6283, "ysis": 6284, "ulk": 6285, "hp": 6286, "resses": 6287, "istic": 6288, "compare": 6289, "Depth": 6290, "\u0120bar": 6291, "amazon": 6292, "avig": 6293, "ITERATION": 6294, "Tags": 6295, "\u0120Task": 6296, "\u0120Convert": 6297, "andlers": 6298, "EXEC": 6299, "Warning": 6300, "Before": 6301, "\u0120\u0109\u0120\u0120": 6302, "\u0120\u0109\u0109\u0109\u0109\u0120\u0120\u0120\u0120": 6303, "selected": 6304, "\u0120\u0120\u0120\u0120\u0120\u0120\u0120\u0120\u0120\u0120\u0120\u0120\u0120\u0120\u0120\u0120\u0120\u0120\u0120\u0120\u0120\u0120\u0120\u0120\u0120\u0120\u0120\u0120\u0120\u0120\u0120\u0120\u0120\u0120\u0120\u0120\u0120\u0120\u0120\u0120\u0120\u0120\u0120\u0120": 6305, "MISC": 6306, "ADDRESS": 6307, "forward": 6308, "interval": 6309, "scsi": 6310, "curs": 6311, "\u0120IF": 6312, "INTR": 6313, "acl": 6314, "\u0120Authors": 6315, "Bound": 6316, "ENDOR": 6317, "WOR": 6318, "Category": 6319, "imitive": 6320, "\u0120strict": 6321, "\u0120exists": 6322, "\u0120TORT": 6323, "\u0120Imp": 6324, "AIL": 6325, "aced": 6326, "\u0120Web": 6327, "alias": 6328, "\u0120delay": 6329, "\u0120blocks": 6330, "\u0120another": 6331, "\u0120Corporation": 6332, "union": 6333, "reser": 6334, "AY": 6335, ">.": 6336, "\u0120acpi": 6337, "(:": 6338, "alysis": 6339, "\u0120identifier": 6340, "\u0120lower": 6341, "\u0120pc": 6342, "dynamic": 6343, "\u0120@}": 6344, "weight": 6345, "\u0120Load": 6346, "logy": 6347, "GENER": 6348, "-+-+": 6349, "ube": 6350, "generic": 6351, "\u0120including": 6352, "\u0120foreach": 6353, "}/": 6354, "\u0120DAC": 6355, "MAIN": 6356, "\u0120payload": 6357, "\u0120GTEST": 6358, "getValue": 6359, "\u0120removed": 6360, "\u0120Core": 6361, "DIG": 6362, "mbed": 6363, "allel": 6364, "\u0120cp": 6365, "attributes": 6366, "\u0120Other": 6367, "\u0120depth": 6368, "success": 6369, "rpc": 6370, "\u0120*****************************************************************************": 6371, "sup": 6372, "umb": 6373, "\u012060": 6374, "Mouse": 6375, "HASH": 6376, "\u0120usage": 6377, "cpp": 6378, "\u0120still": 6379, "Game": 6380, "\u0120\".": 6381, "Registry": 6382, "oston": 6383, "THREAD": 6384, "ios": 6385, "rece": 6386, "Rad": 6387, "\u0120corresponding": 6388, "\u0120PB": 6389, "\u0120tests": 6390, "\u0120ge": 6391, "Sl": 6392, "\u00e3\u0122\u0124": 6393, "\"\"\"": 6394, "\u0120Make": 6395, "\u0120requested": 6396, "\u0120Iter": 6397, "\u0120EFI": 6398, "010": 6399, "\u0120Color": 6400, "Results": 6401, "007": 6402, "ea": 6403, "Pop": 6404, "\u0120rv": 6405, "Db": 6406, "\u0120\u0109\u0109\u0120\u0120\u0120\u0120": 6407, "\u0120times": 6408, "\u0120least": 6409, "\u0120might": 6410, "\u0120delta": 6411, "\u0120OB": 6412, "warning": 6413, "\u0120FROM": 6414, "210": 6415, "\u0120Boston": 6416, "tle": 6417, "gnu": 6418, "\u0120rad": 6419, "PKT": 6420, "\u0120representation": 6421, "\u0120\u0120\u0120\u0120\u0120\u0120\u0120\u0120\u0120\u0120\u0120\u0120\u0120\u0120\u0120\u0120\u0120\u0120\u0120\u0120\u0120\u0120\u0120\u0120\u0120\u0120\u0120\u0120\u0120\u0120\u0120\u0120\u0120\u0120\u0120\u0120\u0120\u0120\u0120\u0120\u0120\u0120": 6422, "Fix": 6423, "curr": 6424, "llvm": 6425, "\u0120HTTP": 6426, "Required": 6427, "Screen": 6428, "FORCE": 6429, "9999": 6430, "typ": 6431, "\u0120most": 6432, "\u0120Path": 6433, "\u0120PAGE": 6434, "mgr": 6435, "cogn": 6436, "agic": 6437, "exists": 6438, "\u0120ms": 6439, "WL": 6440, "\u0120abs": 6441, "\u0120stored": 6442, "\u0120running": 6443, "Rec": 6444, "features": 6445, "\u0120Act": 6446, "operation": 6447, "sid": 6448, "VF": 6449, "COPY": 6450, "alth": 6451, "Conf": 6452, "Show": 6453, "\u0120\"+": 6454, "Groups": 6455, "\u0120\u0120\u0120\u0120\u0120\u0120\u0120\u0120\u0120\u0120\u0120\u0120\u0120\u0120\u0120\u0120\u0120\u0120\u0120\u0120\u0120\u0120\u0120\u0120\u0120\u0120\u0120\u0120\u0120\u0120\u0120\u0120\u0120\u0120\u0120\u0120\u0120\u0120\u0120\u0120\u0120": 6456, "HTML": 6457, "AMETER": 6458, "hip": 6459, "Failure": 6460, "\u0120Lesser": 6461, "'])": 6462, "\u0120appro": 6463, ")+": 6464, "\u0120mpl": 6465, "\u0120place": 6466, "Total": 6467, "tip": 6468, "\u0120simple": 6469, "\u0120Point": 6470, "ookup": 6471, "FOLD": 6472, "Bean": 6473, "\u0120condition": 6474, "Repository": 6475, "ores": 6476, "Feature": 6477, "FIR": 6478, "jection": 6479, "FromRange": 6480, "\u0120Det": 6481, "VENDOR": 6482, "plane": 6483, "Metric": 6484, "EXP": 6485, "hc": 6486, "\u0120transform": 6487, "MATCH": 6488, "00000002": 6489, "\u00e2\u0122": 6490, "peat": 6491, "High": 6492, "FieldLocation": 6493, "0018": 6494, "LONG": 6495, "formed": 6496, "agent": 6497, "merge": 6498, "\u0120rhs": 6499, "\u0120cluster": 6500, "ordered": 6501, "NEW": 6502, "endar": 6503, "maskFromRange": 6504, "hr": 6505, "Static": 6506, "\u0120aff": 6507, "PASS": 6508, "cluster": 6509, "DV": 6510, "_<": 6511, "urpose": 6512, "Fixed": 6513, "ench": 6514, "structure": 6515, ":\\": 6516, "\u0120Char": 6517, "\u0120rtl": 6518, "DateTime": 6519, "00001": 6520, "axis": 6521, "pet": 6522, "\u0120'<": 6523, "GRP": 6524, "Fin": 6525, "Pipe": 6526, "\u0120ring": 6527, "mg": 6528, "Span": 6529, "itude": 6530, "\u0120'\"": 6531, "ecessary": 6532, "ANY": 6533, "encoding": 6534, "ONT": 6535, "Details": 6536, "\u00e6\u0137": 6537, "\u0120api": 6538, "emu": 6539, "sem": 6540, "ysical": 6541, "csi": 6542, "sun": 6543, "\u0120initialize": 6544, "come": 6545, "\u0120changes": 6546, "\u0120QString": 6547, "\u0120BSD": 6548, "iomem": 6549, "\u0120ui": 6550, "\u0120messages": 6551, "hl": 6552, "MIC": 6553, "LC": 6554, "\u0120Var": 6555, "0004": 6556, "\u0100\u0100\u0100\u0100\u0100\u0100\u0100\u0100": 6557, "Program": 6558, "FREE": 6559, "reater": 6560, "models": 6561, "\u0120allocate": 6562, "ulation": 6563, "IBUTORS": 6564, "Convert": 6565, "bucket": 6566, "Edge": 6567, "\u0120\");": 6568, "\u0120Service": 6569, "tb": 6570, "SCAN": 6571, "Interval": 6572, "Sup": 6573, "nn": 6574, "SIB": 6575, "Priority": 6576, "INSTANCE": 6577, "striction": 6578, "SUPPORTED": 6579, "\u0120happ": 6580, "ital": 6581, "Statement": 6582, "\u0120nr": 6583, "inv": 6584, "STRUCT": 6585, "\u0120grant": 6586, "\u0120effect": 6587, "\u0120``": 6588, "stride": 6589, "osite": 6590, "Video": 6591, "epi": 6592, "////////////////////////////////////////////////////////////////////////////////////////////////////////////////////////////////////////////////////////////////////////////////////////////////////////////////////////////////////////////////////////////////": 6593, "\u0120CONTRIBUTORS": 6594, ">\\": 6595, "\u0120Optional": 6596, "argument": 6597, "Sock": 6598, "multi": 6599, "ioctl": 6600, "\u0120Run": 6601, "proxy": 6602, "dx": 6603, "\u0120Parse": 6604, "usive": 6605, "UInt": 6606, "Connect": 6607, "gon": 6608, "\u0120\u0120\u0120\u0120\u0120\u0120\u0120\u0120\u0120\u0120\u0120\u0120\u0120\u0120\u0120\u0120\u0120\u0120\u0120\u0120\u0120\u0120\u0120\u0120\u0120\u0120\u0120\u0120\u0120\u0120\u0120\u0120\u0120\u0120\u0120\u0120\u0120\u0120\u0120\u0120\u0120\u0120\u0120\u0120\u0120\u0120\u0120": 6609, "\u0120Image": 6610, "\u0120separ": 6611, "nic": 6612, "remote": 6613, "fast": 6614, "endpoint": 6615, "\u0120small": 6616, "uest": 6617, "116": 6618, "VICE": 6619, "Collections": 6620, "\u0120caller": 6621, "\u0120\"<": 6622, "\u0120HE": 6623, "Owner": 6624, "\u0120receiver": 6625, "single": 6626, "\u0120Illegal": 6627, "\u0120reason": 6628, "\"}": 6629, "protected": 6630, "105": 6631, "\u0120SQL": 6632, "Sm": 6633, "Rx": 6634, "Area": 6635, "Shader": 6636, "coll": 6637, "UTF": 6638, "\u0120ul": 6639, "Save": 6640, "\u0120GLint": 6641, "ino": 6642, "lb": 6643, "\u0120PLL": 6644, "logger": 6645, "OPTION": 6646, "URI": 6647, "\u0120fprintf": 6648, "pcie": 6649, "\u0120currently": 6650, "CONT": 6651, "Inv": 6652, "\u0120Sk": 6653, "GroupName": 6654, "','\\": 6655, "UNKNOWN": 6656, "PEG": 6657, "kit": 6658, "basic": 6659, "HDR": 6660, "\u0120VM": 6661, "execute": 6662, "OVER": 6663, "modules": 6664, "Decoder": 6665, "RESOURCE": 6666, "\u01201024": 6667, "udit": 6668, "\u0120variables": 6669, "Progress": 6670, "required": 6671, "\u0120side": 6672, "\u0120tri": 6673, "\u0120Be": 6674, "Join": 6675, "Comment": 6676, "Visible": 6677, "Uri": 6678, "\u0120typ": 6679, "\u0120FLASH": 6680, "tty": 6681, "CRC": 6682, "Allow": 6683, "ARGS": 6684, "Day": 6685, "\u0120rect": 6686, "\u0120GET": 6687, "ota": 6688, "LAPI": 6689, "atter": 6690, "\u0120updated": 6691, "\u00e5\u00ae": 6692, "\u0120Invalid": 6693, "\u0120ep": 6694, "\u0120receive": 6695, "PRIV": 6696, "Insert": 6697, "then": 6698, "\u0120many": 6699, "dist": 6700, "FREQ": 6701, "Driver": 6702, "hid": 6703, "XXX": 6704, "\u00e7\u0136": 6705, "LT": 6706, "xbb": 6707, "\u0120calling": 6708, "tion": 6709, "(\"/": 6710, "period": 6711, "\u0120\u0109\u0109\u0120\u0120\u0120\u0120\u0120": 6712, "SEG": 6713, "\u0120DWORD": 6714, "XY": 6715, "FM": 6716, "DESCRIP": 6717, "CIAL": 6718, "\u0120union": 6719, "grp": 6720, "\u0120tool": 6721, "\u0120WIN": 6722, "accept": 6723, "trics": 6724, "IGEN": 6725, "))))": 6726, "insn": 6727, "variant": 6728, "EXTI": 6729, "\u0120PNG": 6730, "_[": 6731, "Binary": 6732, "\u0120Debug": 6733, "sequence": 6734, "\u0120sd": 6735, "roke": 6736, "holder": 6737, "\u0120pending": 6738, "\u0120libc": 6739, "usage": 6740, "bio": 6741, "112": 6742, "aterials": 6743, "CLR": 6744, "packed": 6745, "elif": 6746, "rier": 6747, "andling": 6748, "FULL": 6749, "reader": 6750, "\u0120HWIO": 6751, "Cloud": 6752, "++]": 6753, "irr": 6754, "SINGLE": 6755, "lots": 6756, "vmx": 6757, "\u0120Ed": 6758, "\u0120\u0109\u0109\u0109\u0109\u0120\u0120\u0120\u0120\u0120\u0120": 6759, "oom": 6760, "CLO": 6761, "unch": 6762, "\u0120decode": 6763, "resolve": 6764, "Play": 6765, "UPDATE": 6766, "\u0120elif": 6767, "\u0120];": 6768, "Usage": 6769, "\u0120destination": 6770, "AIN": 6771, "riteria": 6772, "IPS": 6773, "Go": 6774, "\u0120segment": 6775, "\u0120Amazon": 6776, "arshaller": 6777, "ryption": 6778, "\u0120md": 6779, "arp": 6780, "\u012000": 6781, "\u0120plugin": 6782, "\u0120special": 6783, "\u0120([]": 6784, "Mac": 6785, "\u0120CRC": 6786, "Operator": 6787, "Begin": 6788, "\u0120verify": 6789, "\u0120{'": 6790, "\u0120resources": 6791, "\u0120replace": 6792, "Bucket": 6793, "Arr": 6794, "ble": 6795, "\u0120remote": 6796, "\u0120atomic": 6797, "STO": 6798, "tick": 6799, "\u0120instruction": 6800, "ENUM": 6801, "Replace": 6802, "rics": 6803, "103": 6804, "RPC": 6805, "106": 6806, "Microsoft": 6807, "ond": 6808, "extension": 6809, "\u0120unique": 6810, "\u0120direction": 6811, "Rules": 6812, "bottom": 6813, "\u0120matches": 6814, "\u0120Port": 6815, "grid": 6816, "Forms": 6817, "\u0120*_": 6818, "cook": 6819, "Identity": 6820, "Platform": 6821, "wake": 6822, "ti": 6823, "GC": 6824, "strcmp": 6825, "\u0120();": 6826, "xef": 6827, "ILD": 6828, "ArgumentException": 6829, "imate": 6830, "\u0120TYPE": 6831, "\u0120GO": 6832, "\u0120flow": 6833, "ao": 6834, "cessed": 6835, "role": 6836, "\u0120lua": 6837, "actions": 6838, "\u0120video": 6839, "NotNull": 6840, "\u0120allocated": 6841, "\u0120Find": 6842, "\u0120cr": 6843, "XT": 6844, "\u0120ps": 6845, "\u0120wrong": 6846, "\u00e5\u0127": 6847, "INTERRUP": 6848, "uv": 6849, "kg": 6850, "intel": 6851, "LEEP": 6852, "Virtual": 6853, "ERO": 6854, "\u0120priority": 6855, "parameter": 6856, "INGS": 6857, "ICK": 6858, "\u0120lines": 6859, "alg": 6860, "para": 6861, "\u0120'.": 6862, "pv": 6863, ")|": 6864, "\u0120Raw": 6865, "ratch": 6866, "=\\\"": 6867, "IPPROTO": 6868, "\u0120\u0120\u0120\u0120\u0120\u0120\u0120\u0120\u0120\u0120\u0120\u0120\u010a": 6869, ".*;": 6870, "\u0120ssize": 6871, "\u0120[];": 6872, "STS": 6873, "RG": 6874, "\u0120HOLD": 6875, "\\\",": 6876, "\u0120Client": 6877, "Ali": 6878, "APIENTRY": 6879, "GPU": 6880, "\u0120foo": 6881, "\u0120axis": 6882, "Resources": 6883, "\u0120sz": 6884, "\u0120Alloc": 6885, "(/": 6886, "riend": 6887, "emon": 6888, "Acc": 6889, "ading": 6890, "atalog": 6891, "dot": 6892, "\u0120Initialize": 6893, "\u0120\u0109\u0109\u0109\u0109\u0120\u0120\u0120\u0120\u0120": 6894, "\u0120fixed": 6895, "Fn": 6896, "MESS": 6897, "tuple": 6898, "Cor": 6899, "\u0120dist": 6900, "caps": 6901, "Attach": 6902, "ories": 6903, "EXCE": 6904, "vi": 6905, "EW": 6906, "TOP": 6907, "Chain": 6908, "extend": 6909, "\u0120volume": 6910, "Vo": 6911, "\u0120bad": 6912, "adeon": 6913, "FEATURE": 6914, "\u0120crypto": 6915, "interpret": 6916, "LOT": 6917, "mar": 6918, "QUI": 6919, "dates": 6920, "abilities": 6921, "\u0120external": 6922, "\u0120speed": 6923, "iS": 6924, "@@": 6925, "\u0120ERROR": 6926, "\u0120PIN": 6927, "SAMPLE": 6928, "verify": 6929, "istration": 6930, "escape": 6931, "\u0120console": 6932, "connector": 6933, "Ctx": 6934, "GU": 6935, "\u0120Command": 6936, "NotFound": 6937, "\u0120compute": 6938, "vlan": 6939, "border": 6940, "\u0120selection": 6941, "Batch": 6942, "Proc": 6943, "\u012080": 6944, "\u0120LP": 6945, "Timestamp": 6946, "10000": 6947, "Machine": 6948, "\u0120standard": 6949, "\u0120Ne": 6950, "\u0120Matrix": 6951, "rand": 6952, "Compare": 6953, "\u0109\u0109\u0109\u0109\u0109\u0109\u0109\u0109": 6954, "compress": 6955, "Card": 6956, "\u0120modification": 6957, "\u0120retrie": 6958, "mix": 6959, "\u0120policy": 6960, "LOBAL": 6961, "STEM": 6962, "undefined": 6963, "heduler": 6964, "indexOf": 6965, "aligned": 6966, "ployment": 6967, "irqrestore": 6968, "\u0120!(": 6969, "\u0120Http": 6970, "ned": 6971, "/{": 6972, "Information": 6973, "\u00e8\u00bf": 6974, "plan": 6975, "\u0120alpha": 6976, "ffffff": 6977, "STATS": 6978, "\u00e4\u00ba": 6979, "PINCTRL": 6980, "neg": 6981, "']['": 6982, "adev": 6983, "before": 6984, "Zone": 6985, "GS": 6986, "TEMPL": 6987, "pendency": 6988, "\u0120prior": 6989, "\u0120force": 6990, "00007": 6991, "CONN": 6992, "km": 6993, "\u0120reader": 6994, "\u0120CM": 6995, "azy": 6996, "xaf": 6997, "Tests": 6998, "olygon": 6999, "\u0120Group": 7000, "ents": 7001, "fh": 7002, "available": 7003, "resume": 7004, "REGISTER": 7005, "\u0120cc": 7006, "bridge": 7007, "gra": 7008, "\u0120Tag": 7009, "ceed": 7010, "Rows": 7011, "commit": 7012, "RESH": 7013, "\u0120compiler": 7014, "Dig": 7015, "marks": 7016, "asc": 7017, "\u0120synchron": 7018, "\u0120These": 7019, "114": 7020, "\u0120dict": 7021, "RU": 7022, "\u0120Le": 7023, "velo": 7024, "MESSAGE": 7025, "\u0120omap": 7026, "160": 7027, "except": 7028, "\u0120ensure": 7029, "BAR": 7030, "timestamp": 7031, "rest": 7032, "cancel": 7033, "tags": 7034, "\u0120Deep": 7035, "RW": 7036, "Mess": 7037, ":`": 7038, "ATTRIB": 7039, "\u0120contents": 7040, "pix": 7041, "Strategy": 7042, "results": 7043, "\u0120FIX": 7044, "builtin": 7045, "\u0120HRESULT": 7046, "\u0120never": 7047, "Shared": 7048, "compiler": 7049, "\u0120ib": 7050, "zer": 7051, "El": 7052, "xbd": 7053, "Enumer": 7054, "olved": 7055, "Bundle": 7056, "\u0120DEBUG": 7057, "vertex": 7058, "\u0120Filter": 7059, "tinu": 7060, "XI": 7061, "\u0120ath": 7062, "Random": 7063, "\u0120SV": 7064, "\u0120yet": 7065, "\u0120extract": 7066, "\u0120area": 7067, "RUN": 7068, "\u0120meta": 7069, "Mesh": 7070, "MAG": 7071, "where": 7072, "ubernet": 7073, "ubernetes": 7074, "\u0120comput": 7075, "\u0120kind": 7076, "\u0120modified": 7077, "volatile": 7078, "\u0120ARM": 7079, "\u0120*=": 7080, "Standard": 7081, "1301": 7082, "BCM": 7083, "des": 7084, "\u0120SYS": 7085, "Main": 7086, "semse": 7087, "HO": 7088, "Const": 7089, "nf": 7090, "android": 7091, "\u0120AUTH": 7092, "\u0120~(": 7093, "\u0120specify": 7094, "Points": 7095, "Slot": 7096, "ival": 7097, "Public": 7098, "PROT": 7099, "\u00e2\u0136\u0122\u00e2\u0136\u0122": 7100, "Describe": 7101, "\u0120intel": 7102, "eclipse": 7103, "xfd": 7104, "\u0120(&": 7105, "direction": 7106, "\u0120medi": 7107, "\u0120negative": 7108, "roadcast": 7109, "\u0120yaml": 7110, "\u0120sv": 7111, "\u0120comment": 7112, "construct": 7113, "Merge": 7114, "Modified": 7115, "\u0120nfs": 7116, "arison": 7117, "\u0120Table": 7118, "\u0120vert": 7119, "READY": 7120, "\u0120basic": 7121, "\u0120split": 7122, "\u0120Min": 7123, "\u0120Any": 7124, "\u0120determ": 7125, "VIDE": 7126, "FAILURE": 7127, "tem": 7128, "\u0120ss": 7129, "EQUAL": 7130, "Ne": 7131, "AUX": 7132, "\u0120Runtime": 7133, "ads": 7134, "\u0120shape": 7135, "seed": 7136, "384": 7137, "tools": 7138, "fetch": 7139, "disk": 7140, "GATE": 7141, "\u0120Gr": 7142, "simple": 7143, "\u0120diff": 7144, "DELAY": 7145, "isEmpty": 7146, "actual": 7147, "\u0120dynamic": 7148, "\u0120enc": 7149, "PARAMETER": 7150, "Coord": 7151, "\u0120native": 7152, "ssi": 7153, "102": 7154, "Basic": 7155, "Services": 7156, "\u0120tab": 7157, "----------": 7158, "Tex": 7159, "VP": 7160, "\u0120Please": 7161, "\u0120echo": 7162, "FAILED": 7163, "\u0120compare": 7164, "\u0120%[": 7165, "\u0120Stream": 7166, "disabled": 7167, "WT": 7168, "\u0120pp": 7169, "unlikely": 7170, "VR": 7171, "changed": 7172, "ases": 7173, "Route": 7174, "sensor": 7175, "\u0120rows": 7176, "\u0120validate": 7177, "\u0120'./": 7178, "\u0120CS": 7179, "chor": 7180, "\u0120There": 7181, "\u0120writer": 7182, "gy": 7183, "\u0120il": 7184, "suspend": 7185, "TestCase": 7186, "orch": 7187, "\u0120assume": 7188, "\u0120bfin": 7189, "\u0120HAVE": 7190, "\u0120directly": 7191, "transfer": 7192, "\u0120*)(": 7193, "blob": 7194, ">=": 7195, "uplic": 7196, "MEMORY": 7197, "ets": 7198, "\u0120Access": 7199, "volume": 7200, "PACKET": 7201, ">)": 7202, "\u0120ic": 7203, "008": 7204, "xac": 7205, "xFFFF": 7206, "YY": 7207, "INTERFACE": 7208, "adc": 7209, "Encoding": 7210, "password": 7211, "\"===": 7212, "Dst": 7213, "sin": 7214, "Vert": 7215, "Gl": 7216, "\u0120OS": 7217, "\u0120know": 7218, "\u0120devices": 7219, "mv": 7220, "ively": 7221, "125": 7222, "\u0120round": 7223, "TEMP": 7224, "ENTIAL": 7225, "\u0120jQuery": 7226, "\u0120period": 7227, "132": 7228, "priority": 7229, "\u0120\"#": 7230, "ka": 7231, "\u0120materials": 7232, "\u0120postIndex": 7233, "fil": 7234, "\u0120derived": 7235, "ookie": 7236, "\u0120500": 7237, "\u0120Remove": 7238, "tw": 7239, "\u0120Frank": 7240, "ATOM": 7241, "Loop": 7242, "\u0120padding": 7243, "ReadWrite": 7244, "ersistent": 7245, "\u0120hel": 7246, "ICAL": 7247, "IFI": 7248, "ifth": 7249, "\u0120ArrayList": 7250, "\u0120EIGEN": 7251, "||(": 7252, "\u0120Only": 7253, "TARGET": 7254, "BF": 7255, "\u00c3\u00a9": 7256, "\u0120cursor": 7257, "Disable": 7258, "Hook": 7259, "2110": 7260, "BAD": 7261, "\u0120SUB": 7262, "loader": 7263, "\u0120ts": 7264, "icker": 7265, "\u0120were": 7266, "\u0120\u0120\u0120\u0120\u0120\u0120\u0120\u0120\u0120\u0120\u0120\u0120\u0120\u0120\u0120\u0120\u0120\u0120\u0120\u0120\u0120\u0120\u0120\u0120\u0120\u0120\u0120\u0120\u0120\u0120\u0120\u0120\u0120\u0120\u0120\u0120\u0120\u0120\u0120\u0120\u0120\u0120\u0120\u0120\u0120": 7267, "DX": 7268, "Certificate": 7269, "Execution": 7270, "CLEAR": 7271, "ENSOR": 7272, "\u0120gpio": 7273, "\u0120cx": 7274, "PtrFromString": 7275, "transport": 7276, "HZ": 7277, "Watch": 7278, "\u0120occur": 7279, "MG": 7280, "1234": 7281, "aN": 7282, "\u00e6\u0138": 7283, "108": 7284, "CY": 7285, "\u0120pages": 7286, "\u0120lookup": 7287, "need": 7288, "\u0120Send": 7289, "\u0120did": 7290, "Std": 7291, "IVER": 7292, "\u0120argv": 7293, "cert": 7294, "pte": 7295, "arator": 7296, "dai": 7297, "\u0120[],": 7298, "HandleTypeDef": 7299, "kwargs": 7300, "\u0120Project": 7301, "ORDER": 7302, "hidden": 7303, "\u0120ACPI": 7304, "CREATE": 7305, "\u0120emit": 7306, "\u0120SHA": 7307, "\u0120abstract": 7308, "yaml": 7309, "icast": 7310, "cleanup": 7311, "ordinate": 7312, "reserved": 7313, "\u00d0\u00b0\u00d0": 7314, "cee": 7315, "Objects": 7316, "\u0120retain": 7317, "CMP": 7318, "Axis": 7319, "Direction": 7320, "\u0120Memory": 7321, "ICR": 7322, "route": 7323, "390": 7324, "\u0120\u0109\u0109\u0109\u0109\u0109\u0120": 7325, "Elem": 7326, "reserve": 7327, "Literal": 7328, "LCD": 7329, "mmc": 7330, "DSP": 7331, "Operand": 7332, "Native": 7333, "WE": 7334, "World": 7335, "editor": 7336, "\u0120Dep": 7337, "\u0120Proto": 7338, "Remote": 7339, "\u0120Floor": 7340, "\u0120batch": 7341, "pendent": 7342, "\u0120Mod": 7343, "Overflow": 7344, "ipv": 7345, "duration": 7346, "\u0120pad": 7347, "schedule": 7348, "\u0120kvm": 7349, "sha": 7350, "Req": 7351, "tile": 7352, "134": 7353, "MED": 7354, "224": 7355, "\u0120COMP": 7356, "pn": 7357, "\u0120rot": 7358, "peated": 7359, "\u0120Description": 7360, "spring": 7361, ",&": 7362, "aux": 7363, "texture": 7364, "\u0120take": 7365, "AUDIO": 7366, "\u0120upper": 7367, "\u0120layout": 7368, "\u0120Current": 7369, "anced": 7370, "\u0120contact": 7371, "MSK": 7372, "\u0120dm": 7373, "\u0120strlen": 7374, "UNUSED": 7375, "MULTI": 7376, "AHB": 7377, "Ignore": 7378, "Encode": 7379, "lying": 7380, "vals": 7381, "locked": 7382, "clusive": 7383, "\u0120ML": 7384, "Varint": 7385, "Second": 7386, "original": 7387, "ven": 7388, "sess": 7389, "junit": 7390, "MEDI": 7391, "TEMPLATE": 7392, "trfs": 7393, "(()": 7394, "Rot": 7395, "ILL": 7396, "compute": 7397, "xbe": 7398, "acpi": 7399, "Own": 7400, "console": 7401, ".(": 7402, "PPC": 7403, "Background": 7404, "\u0120Line": 7405, "elo": 7406, "\u0120DeepCopy": 7407, "\u0120necessary": 7408, "\u0120Sets": 7409, "SYN": 7410, "fully": 7411, "\u0120Franklin": 7412, "SZ": 7413, "SES": 7414, "Expected": 7415, "\u0120MBEDTLS": 7416, "\u00e4\u00bd": 7417, "\u0109\u010a": 7418, "\u0120Dr": 7419, "padding": 7420, "band": 7421, "diag": 7422, "\u0120BytePtrFromString": 7423, "\u0120less": 7424, "xbc": 7425, "\u00e5\u00a4": 7426, "IDLE": 7427, "DEP": 7428, "vd": 7429, "HPP": 7430, "COMMAND": 7431, "dmi": 7432, "ACTION": 7433, "TIOC": 7434, "opcode": 7435, "wc": 7436, "BLK": 7437, "\u0120Co": 7438, "AES": 7439, "\u012002110": 7440, "mesh": 7441, "\u0120Fifth": 7442, "pwr": 7443, "\u0120Configuration": 7444, "OTG": 7445, "player": 7446, "\u0120Local": 7447, "\u0120amount": 7448, "\u0120ng": 7449, "RESP": 7450, "unused": 7451, "\u0120owner": 7452, "\u0120att": 7453, "\u0120serial": 7454, "INTERRUPT": 7455, "crc": 7456, "ETHERTYPE": 7457, "ationToken": 7458, "\u0120${": 7459, "PCIE": 7460, "\u0120Sec": 7461, "EA": 7462, "\u0120permitted": 7463, "Validation": 7464, "PROM": 7465, "rsp": 7466, "ajor": 7467, "sched": 7468, "WINDO": 7469, "?(": 7470, "\u012036": 7471, "\u0120Part": 7472, "TAIL": 7473, "\u0120arm": 7474, "lish": 7475, "\u0120BUS": 7476, "\u0120(-": 7477, "family": 7478, "ateway": 7479, "\u0120align": 7480, "lc": 7481, "regex": 7482, "EXPR": 7483, "%%%%": 7484, "condition": 7485, "leton": 7486, "\u0120Can": 7487, "lg": 7488, "mk": 7489, "\u0120na": 7490, "\u0120construct": 7491, "Segment": 7492, "Tensor": 7493, "}\",": 7494, "Agent": 7495, "xab": 7496, "ni": 7497, "UV": 7498, "Abstract": 7499, "sim": 7500, "\u0120GLenum": 7501, "Password": 7502, "HC": 7503, "train": 7504, "\u0120amd": 7505, "\u0120scal": 7506, "car": 7507, "segment": 7508, "gp": 7509, "\u0120evalu": 7510, "CLIENT": 7511, "omap": 7512, "lict": 7513, "PID": 7514, "JS": 7515, "\u0120describe": 7516, "prot": 7517, "\u0120flush": 7518, "\u0120execute": 7519, "\u0120buffers": 7520, "\u0120Frame": 7521, ",%": 7522, "It": 7523, "cplus": 7524, "ural": 7525, "\u0120Boolean": 7526, "YPTO": 7527, "Metrics": 7528, "zalloc": 7529, "\u0120Copy": 7530, "loaded": 7531, "\u0120PTR": 7532, "DN": 7533, "\u0120affili": 7534, "Supported": 7535, "\u0120Json": 7536, "ORM": 7537, "WORK": 7538, "\u0120partial": 7539, "ocation": 7540, "xFC": 7541, "'];": 7542, "InputStream": 7543, "OTE": 7544, "SIO": 7545, "Split": 7546, "language": 7547, "FileName": 7548, "Term": 7549, "\u012099": 7550, "\u0120DISCL": 7551, "VB": 7552, "\u0120kInstruction": 7553, "Self": 7554, "ROP": 7555, "writer": 7556, "!\\": 7557, "generated": 7558, "SDMA": 7559, "\u0120\u0120\u0120\u010a": 7560, "0080": 7561, "MTK": 7562, "\u0120Property": 7563, "\u0120&(": 7564, "Put": 7565, "resize": 7566, "ENODEV": 7567, "zM": 7568, "orig": 7569, "Bounds": 7570, "\u0120\u0120\u0120\u0120\u0120\u0120\u0120\u0120\u0120\u0120\u0120\u0120\u0120\u0120\u0120\u0120\u0120\u0120\u0120\u0120\u0120\u0120\u0120\u0120\u0120\u0120\u0120\u0120\u0120\u0120\u0120\u0120\u0120\u0120\u0120\u0120\u0120\u0120\u0120\u0120\u0120\u0120\u0120\u0120\u0120\u0120": 7571, "\u0120selector": 7572, "iffies": 7573, "CCR": 7574, "NUMBER": 7575, "\u0120unknown": 7576, "\u0120Print": 7577, "DONE": 7578, "CAST": 7579, "External": 7580, "\u0120peer": 7581, "DAP": 7582, "defgroup": 7583, "\u0120exports": 7584, "\u0120tick": 7585, "\u0120engine": 7586, "]\\": 7587, "\u0120automat": 7588, "\u0120//////////////////////////////////////////////////////////////////": 7589, "ISO": 7590, "\u0120tt": 7591, "Direct": 7592, "115": 7593, "\u0120Select": 7594, "hide": 7595, "irqsave": 7596, "\u0120,'": 7597, "email": 7598, "nel": 7599, "Processor": 7600, "\u00e2\u0138": 7601, "tensor": 7602, "indices": 7603, "[],": 7604, "Notification": 7605, "Language": 7606, "\u0120pm": 7607, "180": 7608, "(`": 7609, "]));": 7610, "xfa": 7611, "Graphics": 7612, "\u0120allows": 7613, "\u0120**/": 7614, "ICAgICAg": 7615, "ves": 7616, "cplusplus": 7617, "\u0120fall": 7618, "ifs": 7619, "SPEED": 7620, "\u0120\u0120\u0120\u0120\u0120\u0120\u0120\u0120\u0120\u0120\u0120\u0120\u0120\u0120\u0120\u0120\u0120\u0120\u0120\u0120\u0120\u0120\u0120\u0120\u0120\u0120\u0120\u0120\u0120\u0120\u0120\u0120\u0120\u0120\u0120\u0120\u0120\u0120\u0120\u0120\u0120\u0120\u0120\u0120\u0120\u0120\u0120\u0120": 7621, "\u0120Thread": 7622, "Delay": 7623, "dep": 7624, "\u0120requires": 7625, "***/": 7626, "ordinates": 7627, "Trigger": 7628, "\u0120\"[": 7629, "rst": 7630, "\u0120Token": 7631, "6666": 7632, "Errors": 7633, "Encoder": 7634, "duc": 7635, "\u0120crate": 7636, "\u0120enough": 7637, "\u0120optim": 7638, "\"==": 7639, "panic": 7640, "\u012045": 7641, "\u01202016": 7642, "LAB": 7643, "\u012042": 7644, "\u0120DECL": 7645, "\u0120util": 7646, "\u0120nothing": 7647, "MV": 7648, "Renderer": 7649, "Surface": 7650, "\u0120inner": 7651, "otion": 7652, "provider": 7653, "urnal": 7654, "CHANGE": 7655, "sizei": 7656, "\u0120Standard": 7657, "game": 7658, "Annotation": 7659, "NFTA": 7660, "Lookup": 7661, "Arch": 7662, "\u0120\u0109\u0109\u0109\u0109\u0109\u0120\u0120": 7663, "\u0120affiliates": 7664, "program": 7665, "uuid": 7666, "IMAGE": 7667, "\u0120timestamp": 7668, "details": 7669, "Exists": 7670, "SLEEP": 7671, "\u0120tf": 7672, "StatusCode": 7673, "Folder": 7674, "\u0120My": 7675, "Div": 7676, "ApplyConfiguration": 7677, "\u0120matching": 7678, "xFE": 7679, "\u00e6\u0137\u00b0": 7680, "uintptr": 7681, "\u00e5\u012c": 7682, "109": 7683, "Chunk": 7684, "\u0120cases": 7685, "RLC": 7686, "250": 7687, "Decode": 7688, "AAAAAAAA": 7689, "hex": 7690, "Unm": 7691, "264": 7692, "\u0120term": 7693, "OID": 7694, "ASN": 7695, "Throw": 7696, "LB": 7697, "ker": 7698, "isp": 7699, "\u0120represents": 7700, "selector": 7701, "\u0120Ass": 7702, "OPER": 7703, "Qual": 7704, "Vtbl": 7705, "\u0120ETH": 7706, "upper": 7707, "cred": 7708, "801": 7709, "GRA": 7710, "frames": 7711, "Java": 7712, "\u0120ErrInvalid": 7713, "\u0120FIFO": 7714, "\u0120\"_": 7715, "ons": 7716, "0000007": 7717, "\u0120partic": 7718, "\u0120Long": 7719, "107": 7720, "VIDEO": 7721, "UST": 7722, "cookie": 7723, "\u0120attemp": 7724, "Scan": 7725, "006": 7726, "\u0120users": 7727, "Deep": 7728, "\u0120Action": 7729, "\u0120Model": 7730, "\u0120tags": 7731, "bank": 7732, "\u0120fp": 7733, "\u0120forms": 7734, "\u0120So": 7735, "dog": 7736, "UPLE": 7737, "Fill": 7738, "bw": 7739, "Children": 7740, "\u0120those": 7741, "\u0120provides": 7742, "Sql": 7743, "\u0120processing": 7744, "ued": 7745, "compatible": 7746, "Gu": 7747, "\u0120pid": 7748, "DOM": 7749, "rees": 7750, "\u0120Query": 7751, "cls": 7752, "Syscall": 7753, "\u0120Link": 7754, "\u0120implemented": 7755, "\u0120des": 7756, "cut": 7757, "initial": 7758, "Exit": 7759, "\u012034": 7760, "collection": 7761, "\u0120Element": 7762, "amma": 7763, "rcu": 7764, "\u0120\"\";": 7765, "PINMUX": 7766, "aps": 7767, "Big": 7768, "Face": 7769, "\u012033": 7770, "CONNECT": 7771, "elements": 7772, "grade": 7773, "\u0120safe": 7774, "ecutor": 7775, "WARNING": 7776, "Bus": 7777, "\u0120bucket": 7778, "Messages": 7779, "\u0120mbed": 7780, "utable": 7781, "Signature": 7782, "xad": 7783, "Environment": 7784, "VLINK": 7785, "SMP": 7786, "SEQUENTIAL": 7787, "\u0120AS": 7788, "FROM": 7789, "Character": 7790, "Abs": 7791, "\u00e8\u00ae": 7792, "\u0120arr": 7793, "factory": 7794, "RV": 7795, "msemseQ": 7796, "inet": 7797, "Setup": 7798, "binary": 7799, "TD": 7800, "\u0120best": 7801, "oog": 7802, "padapter": 7803, "REGION": 7804, "\u0120factory": 7805, "uE": 7806, "\u0120algorithm": 7807, "Converter": 7808, "mx": 7809, "\u0120generic": 7810, "\u0120abort": 7811, "emitter": 7812, "\u0120CLA": 7813, "panel": 7814, "generate": 7815, "\u0120etc": 7816, "\u0120appear": 7817, "\u0120slice": 7818, "\u0120DIRECT": 7819, "AIF": 7820, "objects": 7821, "\u012056": 7822, "\u0120And": 7823, "TEXTURE": 7824, "services": 7825, "tid": 7826, "ership": 7827, "\u0120push": 7828, "IFF": 7829, "Azure": 7830, "ims": 7831, "which": 7832, "Io": 7833, "\u0120Graph": 7834, "ODE": 7835, "ISH": 7836, "\u0120$_": 7837, "\u0120Ret": 7838, "\u0120mov": 7839, "vars": 7840, ")&": 7841, "\u0120Item": 7842, "\u0120cls": 7843, "tests": 7844, "150": 7845, "\u0120channels": 7846, "\u0120origin": 7847, "\u0120GLAPI": 7848, "EVER": 7849, "foc": 7850, "\u00e6\u0139": 7851, "ium": 7852, "\u0120stats": 7853, "<>": 7854, "ITION": 7855, "chart": 7856, "Try": 7857, "\u0120indicates": 7858, "GLOBAL": 7859, "Snapshot": 7860, "iface": 7861, "CHED": 7862, "TIO": 7863, "\u0120Scal": 7864, "\u0120\u0109\u0109\u0109\u0109\u0109\u0120\u0120\u0120": 7865, "orary": 7866, "\u0120distribute": 7867, "KEN": 7868, "irror": 7869, "\u0120audio": 7870, "Unlock": 7871, "\u0120Sign": 7872, "\u0120*)&": 7873, "ulated": 7874, "\u0120machine": 7875, "\u0120PWR": 7876, "lif": 7877, "\u00e5\u0143": 7878, "\u0120Rights": 7879, "VID": 7880, "ceeded": 7881, "PWM": 7882, "Seconds": 7883, "ug": 7884, "Tuple": 7885, "\u0120','": 7886, "FLASH": 7887, "\u0120cn": 7888, "\u0120children": 7889, "expression": 7890, "\u0120View": 7891, "\u0120poll": 7892, "ighb": 7893, "\u0120STD": 7894, "\u0120retry": 7895, "flat": 7896, "\u0120rb": 7897, "idle": 7898, "\u0120boot": 7899, "\u0120Marshal": 7900, "TUN": 7901, "\u0120CC": 7902, "\u0120interrupts": 7903, "SDL": 7904, "\u0120Wait": 7905, "abcdef": 7906, "cout": 7907, "\u0120cert": 7908, "\u0120dump": 7909, "\u0120>>>": 7910, "\u0120'#": 7911, "\u0120<-": 7912, "\u0120NRF": 7913, "\u0120SPECIAL": 7914, "ational": 7915, "messageInfo": 7916, "SHORT": 7917, "\u0120termin": 7918, "1024": 7919, "SYSTEM": 7920, "virt": 7921, "ITCH": 7922, "COD": 7923, "ITEM": 7924, "Stub": 7925, "subsc": 7926, "Geometry": 7927, "\u0120accord": 7928, "FFF": 7929, "BOOL": 7930, "*>(": 7931, "alanc": 7932, "ErrorCode": 7933, ")){": 7934, "\u0120MPU": 7935, "\u0120\u0120\u0120\u0120\u0120\u0120\u010a": 7936, "buffers": 7937, "HCI": 7938, "SUM": 7939, "\u0120author": 7940, "CTR": 7941, "\u0120OMAP": 7942, "LAT": 7943, "processor": 7944, "\u0120menu": 7945, "\u0120seg": 7946, "labels": 7947, "Author": 7948, "\u0120ACTION": 7949, "\u0120ErrInvalidLength": 7950, "background": 7951, "subdev": 7952, "\u0120made": 7953, "\u0120------------------------------------------------": 7954, "139": 7955, "\u0120soc": 7956, "slave": 7957, "INTE": 7958, "DRM": 7959, "cccc": 7960, "240": 7961, "\u0120Build": 7962, "(\\": 7963, "aging": 7964, "(@": 7965, "\u0120chan": 7966, "structions": 7967, "\u0120fw": 7968, "BIG": 7969, ")&&": 7970, "\u0120day": 7971, "factor": 7972, "xample": 7973, "vif": 7974, "LOOP": 7975, "ofs": 7976, "BANK": 7977, "Contains": 7978, "\u0120multip": 7979, "\u0120rest": 7980, "\u0120Promise": 7981, "\u0120Support": 7982, "unic": 7983, "\u0120Lib": 7984, "\u0120future": 7985, "\u0120POS": 7986, "once": 7987, "IME": 7988, "grpc": 7989, "\u0120describ": 7990, "\u0120iss": 7991, "\u0120mbedtls": 7992, "stanti": 7993, "olar": 7994, "\u01202017": 7995, "seek": 7996, "Bt": 7997, "\u0120'-": 7998, "adient": 7999, "\u0120Float": 8000, "APIENTRYP": 8001, "005": 8002, "Ctrl": 8003, "TASK": 8004, "EMPTY": 8005, "Light": 8006, "IOS": 8007, "\u0120Simple": 8008, "\u0120img": 8009, "\u0120Author": 8010, "\u0120Example": 8011, "RELE": 8012, "\u0120Tx": 8013, "Material": 8014, "\u0120relative": 8015, "DES": 8016, "idual": 8017, "ghz": 8018, "\u0120DBG": 8019, "\u0120SERV": 8020, "Rest": 8021, "\u0120cm": 8022, "Functions": 8023, "native": 8024, "aving": 8025, "REGS": 8026, "\u0120UTF": 8027, "\u0120BT": 8028, "ACPI": 8029, "codes": 8030, "\u0120SNDRV": 8031, "isto": 8032, "xcf": 8033, "\u0120MIT": 8034, "\u0120granted": 8035, "\u0120initialized": 8036, "Enc": 8037, "\u0120LLVM": 8038, "\u0120NS": 8039, "\u0120defines": 8040, "metric": 8041, "Dict": 8042, "\u0120Java": 8043, "\u0120HOLDERS": 8044, "144": 8045, "same": 8046, "\u0120screen": 8047, "PRES": 8048, "Plan": 8049, "\u0120tuple": 8050, "\u0120Vk": 8051, "Setting": 8052, "\u0120Server": 8053, "hz": 8054, "\u0120face": 8055, "\u0120distance": 8056, "Help": 8057, "vma": 8058, "\u0120Vec": 8059, "inherit": 8060, "sleep": 8061, "124": 8062, "\u0120\u0109\u0120\u0120\u0120\u0120\u0109": 8063, "058": 8064, "flash": 8065, "130": 8066, "\u0120MD": 8067, "ynchron": 8068, "\u0120ims": 8069, "\u0120/************************************************************************": 8070, "lua": 8071, "\u0120master": 8072, "\u0120xfs": 8073, "Transport": 8074, "\u0120role": 8075, "matches": 8076, ")\"": 8077, "\u0120className": 8078, "\u0120prec": 8079, "SEND": 8080, "dy": 8081, "\u0120fc": 8082, "QM": 8083, "\u0120INDIRECT": 8084, "999": 8085, "\u0120'@": 8086, "\u0120Ver": 8087, "'));": 8088, "\u0120equ": 8089, "\u0120\u0120\u0120\u0120\u0120\u0120\u0120\u0120\u0120\u0120\u0120\u0120\u0120\u0120\u0120\u0120\u0120\u0120\u0120\u0120\u0120\u0120\u0120\u0120\u0120\u0120\u0120\u0120\u0120\u0120\u0120\u0120\u0120\u0120\u0120\u0120\u0120\u0120\u0120\u0120\u0120\u0120\u0120\u0120\u0120\u0120\u0120\u0120\u0120\u0120\u0120\u0120\u0120\u0120\u0120\u0120\u0120\u0120\u0120\u0120\u0120\u0120\u0120\u0120\u0120\u0120\u0120\u0120\u0120\u0120": 8090, "\u0120How": 8091, "\u0120netdev": 8092, "\u0120aws": 8093, "\u0120Work": 8094, "\u0120READ": 8095, "\u0120forward": 8096, "quent": 8097, "\u0120features": 8098, "DRAM": 8099, "Matcher": 8100, "\u0120/****************": 8101, "\u0120CG": 8102, "Origin": 8103, "SERVER": 8104, "Secret": 8105, "\u0120tc": 8106, "xdd": 8107, "substream": 8108, "MK": 8109, "Mill": 8110, "BIND": 8111, "\u0120[]*": 8112, "\u0120ULONG": 8113, "ifications": 8114, "ZERO": 8115, "ReadWriteAccess": 8116, "Locale": 8117, "\u0120CONSEQUENTIAL": 8118, "progress": 8119, "Resolver": 8120, "\u01202018": 8121, "LIT": 8122, "classes": 8123, "\u0120watch": 8124, "\u0120fb": 8125, "trim": 8126, "quot": 8127, "install": 8128, "\u0120\u0120\u0120\u0120\u0120\u0120\u0120\u0120\u0120\u0120\u0120\u0120\u0120\u0120\u0120\u0120\u0120\u0120\u0120\u0120\u0120\u0120\u0120\u0120\u0120\u0120\u0120\u0120\u0120\u0120\u0120\u0120\u0120\u0120\u0120\u0120\u0120\u0120\u0120\u0120\u0120\u0120\u0120\u0120\u0120\u0120\u0120\u0120\u0120\u0120\u0120": 8129, "Anim": 8130, "\u0120Windows": 8131, "Head": 8132, "168": 8133, "dirty": 8134, "\u0120drop": 8135, "RAW": 8136, "VS": 8137, "\u0120assign": 8138, "\u0120Ext": 8139, "Seq": 8140, "\u0120?>": 8141, "\u0120Enum": 8142, "FLUSH": 8143, "\u0120rec": 8144, "\u0120PROF": 8145, "Angle": 8146, "tended": 8147, "SIBILITY": 8148, "nop": 8149, "\u0120come": 8150, "big": 8151, "590": 8152, "\u012035": 8153, "\u0120stride": 8154, "correct": 8155, "Summary": 8156, "\u0120MPI": 8157, "Shell": 8158, "Ty": 8159, "ermin": 8160, "sdk": 8161, "\u0120dAtA": 8162, "always": 8163, "Admin": 8164, "unmap": 8165, "ysql": 8166, "============================================================================": 8167, "CESS": 8168, "*-": 8169, "\u0120deal": 8170, "\u0120DEFINE": 8171, "ERY": 8172, "\u0120Internal": 8173, "GV": 8174, "iw": 8175, "Now": 8176, "\u0120ready": 8177, "\u0120uv": 8178, "NB": 8179, "\u0120mt": 8180, "tokens": 8181, "endl": 8182, "aaaaaaaaaaaaaaaa": 8183, "pwm": 8184, "\u0120Ph": 8185, "\u00e6\u012a": 8186, "intf": 8187, "\u012044": 8188, "lour": 8189, "\u0120well": 8190, "\u0120ASN": 8191, "INV": 8192, "gol": 8193, "avail": 8194, "Hint": 8195, "\u0120columns": 8196, "EIO": 8197, "gbe": 8198, "\u0120SI": 8199, "Dynamic": 8200, "SMC": 8201, "specific": 8202, "Bind": 8203, "components": 8204, "\u0120inside": 8205, "\u0120';": 8206, "ird": 8207, "\u0120).": 8208, "\u0120listener": 8209, "\u0120regard": 8210, "\u0120factor": 8211, "\u0120proc": 8212, "GLenum": 8213, "NF": 8214, "\u0120bind": 8215, "aries": 8216, "ially": 8217, "Nil": 8218, "coming": 8219, "\u0120Abstract": 8220, "abort": 8221, "Period": 8222, "\u00e8\u00a1": 8223, "DIAN": 8224, "\u0120Len": 8225, "maj": 8226, "Prev": 8227, "\u0120Clock": 8228, "\u0120missing": 8229, "ieee": 8230, "\u0120expr": 8231, "sent": 8232, "Pub": 8233, "dispatch": 8234, "\u0120validation": 8235, "Cast": 8236, "Same": 8237, "Serialization": 8238, "mplates": 8239, "THRESH": 8240, "chr": 8241, "\u0120large": 8242, "amd": 8243, "\u0120retval": 8244, "vendor": 8245, "\u0120overflow": 8246, "\u0120frames": 8247, "\u0120Module": 8248, "\u0120starting": 8249, "Optional": 8250, "produce": 8251, "eners": 8252, "iop": 8253, "\u0120actually": 8254, "\u0120password": 8255, "\u0120PROFITS": 8256, "transaction": 8257, "toBe": 8258, "heap": 8259, "TRANS": 8260, "ncies": 8261, "117": 8262, "TON": 8263, "\u012059": 8264, "3308": 8265, "springframework": 8266, "\u0120Format": 8267, "\u0120texture": 8268, "-----": 8269, "Cancel": 8270, "\u0120LOSS": 8271, "\u0120[-": 8272, "\u0120dt": 8273, ".)": 8274, "220": 8275, "evt": 8276, "coord": 8277, "~~~~~~~~": 8278, "selection": 8279, "alance": 8280, "\u0120parsed": 8281, ")((": 8282, "andidate": 8283, "eration": 8284, "\u0120der": 8285, "EFF": 8286, "yper": 8287, "rules": 8288, "SCALE": 8289, "\u0120Ge": 8290, "parator": 8291, "urred": 8292, "\u0120signature": 8293, "WH": 8294, "MULT": 8295, "\u0120icon": 8296, "\u0120VAL": 8297, "Library": 8298, "[];": 8299, "efficient": 8300, "\u0120eq": 8301, "numeric": 8302, "aker": 8303, "\u0120Creates": 8304, "DEL": 8305, "\u00e7\u00bb": 8306, "\u0120tokens": 8307, "ommu": 8308, "ENTAL": 8309, "\u0120protobuf": 8310, "Pin": 8311, "\u0120supports": 8312, "\u0120SIG": 8313, "ters": 8314, "\u0120bin": 8315, "GLuint": 8316, "MAGIC": 8317, "\"></": 8318, "acon": 8319, "xec": 8320, "\u0120Num": 8321, "Focus": 8322, "\u012039": 8323, "\u0120Bytes": 8324, "##_": 8325, "Complete": 8326, "tok": 8327, "\u0120Target": 8328, "INED": 8329, "\u0120Collection": 8330, "margin": 8331, "\u0120prevent": 8332, "forEach": 8333, "INCLU": 8334, "uk": 8335, "Future": 8336, "\u0120Response": 8337, "\u0120tp": 8338, "LER": 8339, "dif": 8340, "IER": 8341, "asy": 8342, "Push": 8343, "\u0120sprintf": 8344, "\u0120checks": 8345, "ctp": 8346, "\u00e2\u0137": 8347, "0200": 8348, "FIRST": 8349, "\u0120props": 8350, "OBJ": 8351, "\u0120argc": 8352, "xdf": 8353, "BYTES": 8354, "ante": 8355, "\u0120IEEE": 8356, "\u0120interval": 8357, "\u01202015": 8358, "\u00d0\u00bb": 8359, "\u0120seconds": 8360, "IGENCE": 8361, "missions": 8362, "avlink": 8363, "Should": 8364, "Ip": 8365, "\u0120VK": 8366, "GLIGENCE": 8367, "\u0120ignored": 8368, "xce": 8369, "\u012037": 8370, "FieldValue": 8371, "\u0120NEGLIGENCE": 8372, "xae": 8373, "\u0120web": 8374, "\u0120big": 8375, "alog": 8376, "complex": 8377, "primary": 8378, "\u0120accompany": 8379, "configuration": 8380, "Factor": 8381, "0003": 8382, "STACK": 8383, "Switch": 8384, "locity": 8385, "\u0120behavior": 8386, "distance": 8387, "orth": 8388, "REV": 8389, "\u0120allocation": 8390, "Inner": 8391, "\u0120Shift": 8392, "\u0120Count": 8393, "Animation": 8394, "ensitive": 8395, ";}": 8396, "radio": 8397, "Hs": 8398, "Win": 8399, "RSA": 8400, "ancell": 8401, "Border": 8402, "\u0120progress": 8403, "2020": 8404, "\u0120PROC": 8405, "\u0120rs": 8406, "Diff": 8407, "STIT": 8408, "Fatalf": 8409, "'+'": 8410, "PED": 8411, "\u0120Permission": 8412, "\u0120creating": 8413, "STORE": 8414, "\u0120cast": 8415, "machine": 8416, "site": 8417, "KP": 8418, "\u0120proxy": 8419, "blank": 8420, "Aut": 8421, "Peer": 8422, "\u0120calcul": 8423, "\u0120isn": 8424, "\u0120ARE": 8425, "PHA": 8426, "164": 8427, "world": 8428, "ghij": 8429, "BOX": 8430, "Constructor": 8431, "\u0120accompanying": 8432, "\u0120END": 8433, "\u0120pod": 8434, "ros": 8435, "\u0120mean": 8436, "\u0120Packet": 8437, "\u0120memcpy": 8438, "Dictionary": 8439, "\u00d1\u0125": 8440, "libc": 8441, "bss": 8442, "Sys": 8443, "\u0120seed": 8444, "\u0120NOTE": 8445, "\u0109\u0109\u0109\u0109\u0109\u0109": 8446, "\u0120Ac": 8447, "\u0120profile": 8448, "Low": 8449, "\u0120perf": 8450, "\u0120Valid": 8451, "reason": 8452, "riptors": 8453, "\u0120frequency": 8454, "\u0120SND": 8455, "\u0120Constant": 8456, "\u0120determine": 8457, "\u0120React": 8458, "atom": 8459, "month": 8460, "_\\": 8461, "\u0120provider": 8462, "isset": 8463, "LABEL": 8464, "Drop": 8465, "kcontrol": 8466, "################################": 8467, "oice": 8468, "\u0120routine": 8469, "OLE": 8470, "calc": 8471, "BSD": 8472, "ecycle": 8473, "\u0120GLsizei": 8474, "Alpha": 8475, "\u0120multi": 8476, "DQ": 8477, "\u0120PyObject": 8478, "perf": 8479, "\u0120samples": 8480, "\u0120First": 8481, "quare": 8482, "\u0120llvm": 8483, "xed": 8484, "<>();": 8485, "\u012077": 8486, "\u0120%%": 8487, "\u0120numbers": 8488, "Nullable": 8489, "\u0120saved": 8490, "\u0120accompan": 8491, "\u0120definitions": 8492, "seud": 8493, "--)": 8494, "DRIVER": 8495, "\u0120Unit": 8496, "currency": 8497, "Sizeof": 8498, "\u0120stbi": 8499, "\u0120fast": 8500, "Fragment": 8501, "fprintf": 8502, "allocate": 8503, "kvm": 8504, "pell": 8505, "checked": 8506, "gain": 8507, "\u00e5\u013d": 8508, "\u0120classes": 8509, "Scheme": 8510, "\u0120duration": 8511, "\u0120COL": 8512, "ctr": 8513, "\u0120PM": 8514, "Diagnost": 8515, "\u0120Ste": 8516, "\u0120reading": 8517, "enerated": 8518, "lev": 8519, "\u0120noexcept": 8520, "\u0120immediate": 8521, "aybe": 8522, "priate": 8523, "135": 8524, "\u0120EC": 8525, "oracle": 8526, "\u0120minimum": 8527, "\u0120handling": 8528, "\u0120STRI": 8529, "Family": 8530, "++,": 8531, "UNIT": 8532, "\u0120signed": 8533, "\u0120PAR": 8534, "\u0120oc": 8535, "\u0120exact": 8536, "Bz": 8537, "170": 8538, "BQ": 8539, "constructor": 8540, "Uniform": 8541, "urst": 8542, "148": 8543, "Bad": 8544, "queues": 8545, "xcb": 8546, "\u0120shall": 8547, "SCSI": 8548, "xde": 8549, "\u0120PC": 8550, "\u0120bitmap": 8551, "Framework": 8552, "\u0120quest": 8553, "\u0120assertThat": 8554, "\u0120cycle": 8555, "\u0120Otherwise": 8556, "\u0120adjust": 8557, "some": 8558, "\u0120grid": 8559, "\u0120commands": 8560, "\u0120rep": 8561, "\u0120none": 8562, "using": 8563, "cos": 8564, "UBLE": 8565, "dential": 8566, "\u0120Redistribution": 8567, "\u0120peripheral": 8568, "xfs": 8569, "Ins": 8570, "\u0120deep": 8571, "threshold": 8572, "Dev": 8573, "VA": 8574, "\u0120FL": 8575, "\u0120agree": 8576, "\u0120INTERRUP": 8577, "Columns": 8578, "\u0120leg": 8579, "\u0120MP": 8580, "EXTEN": 8581, "ODS": 8582, "\u0120configured": 8583, "losing": 8584, "\u0120half": 8585, "\u00e7\u0136\u00a8": 8586, "\u0120PHP": 8587, "\u0120Double": 8588, "\u0120regs": 8589, ".'": 8590, "\u0120Struct": 8591, "\u0120qual": 8592, "focus": 8593, "\u0120GLuint": 8594, "Delegate": 8595, "\u0120\";": 8596, "\u0120due": 8597, "\u0120indent": 8598, "\u0120according": 8599, "hdev": 8600, "\u0120loaded": 8601, "xee": 8602, "vr": 8603, "ifest": 8604, "\u0120adv": 8605, "SND": 8606, "LF": 8607, "branch": 8608, "564": 8609, "()]": 8610, "\u0120edit": 8611, "abcdefghij": 8612, "UNC": 8613, "\u0120tcp": 8614, "backend": 8615, "Monitor": 8616, "pw": 8617, "cols": 8618, "\u0120execution": 8619, "Shift": 8620, "\u0120spi": 8621, "\u0120mis": 8622, "\u0120versions": 8623, "UG": 8624, "\u01202014": 8625, "Payload": 8626, "operations": 8627, "DEFINE": 8628, "Sim": 8629, "BOOT": 8630, "Mapper": 8631, "\u0120itself": 8632, "\u0120registered": 8633, "\u0120player": 8634, "rgb": 8635, "anit": 8636, "\u0120board": 8637, "Execute": 8638, "XXXX": 8639, "\u0120pg": 8640, "Reason": 8641, "\u0120invok": 8642, "\u0120lpfc": 8643, "binding": 8644, "iming": 8645, "\u0120Sys": 8646, "\u0120SUCH": 8647, "\u0120declare": 8648, "LAST": 8649, "erc": 8650, "irc": 8651, "ones": 8652, "--------------": 8653, "SLOT": 8654, "\u0120completion": 8655, "LK": 8656, "kb": 8657, "\u0120sym": 8658, "\u0120particular": 8659, "\u0120KC": 8660, "\u0120hook": 8661, "MCU": 8662, "year": 8663, "\u0120html": 8664, "setting": 8665, "\u0120vertex": 8666, "\u0120*/'\\": 8667, "\u0120Real": 8668, "IH": 8669, "wrapper": 8670, "ICATION": 8671, "\u0120Com": 8672, "DataType": 8673, "ENDIAN": 8674, "SETT": 8675, "MSI": 8676, "UREMENT": 8677, "pmd": 8678, "\u0120PER": 8679, "\u0120Uint": 8680, "\u0120proper": 8681, "258": 8682, "\u0120helper": 8683, "HAVE": 8684, "\u0120restriction": 8685, "Drawing": 8686, "303": 8687, "\u0120eth": 8688, "aring": 8689, "\u0120Ar": 8690, "fm": 8691, "xdb": 8692, "ship": 8693, "\u0120blk": 8694, "\u0120BPF": 8695, "?\"": 8696, "\u0120HEADER": 8697, "\u0120consider": 8698, "dap": 8699, "IOException": 8700, "POLL": 8701, "\u0120determin": 8702, "\u0120math": 8703, "\u0120Construct": 8704, "Asset": 8705, "\u0120reproduce": 8706, "\u0120unless": 8707, "pins": 8708, "154": 8709, "\u012067": 8710, "getType": 8711, ">()": 8712, "\u0120STR": 8713, "ek": 8714, "levels": 8715, "Named": 8716, "<=": 8717, "\u0120Su": 8718, "043": 8719, "\u0120constraint": 8720, "\u00d0\u00ba": 8721, "\u0120known": 8722, "vl": 8723, "oose": 8724, "\u0120OPEN": 8725, "-------": 8726, "ORITY": 8727, "limits": 8728, "\u0120works": 8729, "\u0120hdr": 8730, "Eq": 8731, "concat": 8732, "00000020": 8733, "History": 8734, "arry": 8735, "ATH": 8736, "netif": 8737, "former": 8738, "\u0120clean": 8739, "\u0120successful": 8740, "================================================================================================================================": 8741, "\u0120$.": 8742, "ayment": 8743, "ilar": 8744, "SCFG": 8745, "113": 8746, "STITUTE": 8747, "\u0120\u0120\u0120\u0120\u0120\u0120\u0120\u0120\u0120\u0120\u0120\u0120\u0120\u0120\u0120\u0120\u0120\u0120\u0120\u0120\u0120\u0120\u0120\u0120\u0120\u0120\u0120\u0120\u0120\u0120\u0120\u0120\u0120\u0120\u0120\u0120\u0120\u0120\u0120\u0120\u0120\u0120\u0120\u0120\u0120\u0120\u0120\u0120\u0120": 8748, "\u0120CMD": 8749, "\u0120win": 8750, "Mutex": 8751, "\u0120world": 8752, ")::": 8753, "Stmt": 8754, "401": 8755, "\u0120manager": 8756, "Variant": 8757, "\u0120takes": 8758, "}',": 8759, "\u0120HOW": 8760, "\u0120NON": 8761, "\u0120ax": 8762, "craft": 8763, "eh": 8764, "Permission": 8765, "DW": 8766, "Subject": 8767, "visible": 8768, "FAST": 8769, "AMP": 8770, "origin": 8771, "\u0120STRICT": 8772, "lier": 8773, "214": 8774, ".',": 8775, "DST": 8776, "losure": 8777, "\u0120((__": 8778, "PREFIX": 8779, "\u0120statement": 8780, "118": 8781, "\u0120bottom": 8782, "Clip": 8783, "parts": 8784, "\u00d9\u0126": 8785, "\u0120Ref": 8786, "Attrib": 8787, "SHARE": 8788, "otg": 8789, "Break": 8790, ":'": 8791, "STX": 8792, "compile": 8793, "angular": 8794, "HAN": 8795, "STEP": 8796, "\u0120Match": 8797, "\u0120est": 8798, "azure": 8799, "jav": 8800, "Note": 8801, "MF": 8802, "\u0120Parameters": 8803, "cdev": 8804, "Patch": 8805, "dialog": 8806, "\u0120EVEN": 8807, "Accept": 8808, "\u0120Self": 8809, "\u0120Big": 8810, "Blocks": 8811, "cam": 8812, "119": 8813, "0400": 8814, "ism": 8815, "\u0120happen": 8816, "\u0120devm": 8817, "decltype": 8818, "[-": 8819, "SMB": 8820, "\u0120background": 8821, "\u0120autorest": 8822, "AIMED": 8823, "CHIP": 8824, "aking": 8825, "illa": 8826, "spca": 8827, "\u0120POSSIBILITY": 8828, "Codec": 8829, "Lat": 8830, "xeb": 8831, "\u0120ErrInvalidLengthGenerated": 8832, "Decimal": 8833, "VISED": 8834, "LU": 8835, "DH": 8836, "\u0120BNX": 8837, "directory": 8838, "AU": 8839, "walk": 8840, "Structure": 8841, "\u0120nor": 8842, "Skip": 8843, "\u0120comb": 8844, "illed": 8845, "iov": 8846, "??": 8847, "apis": 8848, "xcd": 8849, "AVAIL": 8850, "STAMP": 8851, "'=>": 8852, "\u0120creates": 8853, "\u0120ADVISED": 8854, "']);": 8855, "xCE": 8856, "\u0120STATUS": 8857, "arger": 8858, "Destroy": 8859, "submit": 8860, "TRIGGER": 8861, "wb": 8862, "\\\":\\\"": 8863, "\u0120Rx": 8864, "INESS": 8865, "spaces": 8866, "\u0120CONNE": 8867, "CURRENT": 8868, "Force": 8869, "pendencies": 8870, "\u0120AP": 8871, "XF": 8872, "Validate": 8873, ">(\"": 8874, "lems": 8875, "CIDENTAL": 8876, "\u0120firmware": 8877, "ropp": 8878, "\u0120\u0120\u0120\u0120\u0120\u0120\u0120\u0120\u0120\u0120\u0120\u0120\u0120\u0120\u0120\u0120\u0120\u0120\u0120\u0120\u0120\u0120\u0120\u0120\u0120\u0120\u0120\u0120\u0120\u0120\u0120\u0120\u0120\u0120\u0120\u0120\u0120\u0120\u0120\u0120\u0120\u0120\u0120\u0120\u0120\u0120\u0120\u0120\u0120\u0120": 8879, "surface": 8880, "\u0120SWIG": 8881, "\u0120Rece": 8882, "0101": 8883, "onical": 8884, "finish": 8885, "''": 8886, "\u0120SP": 8887, "\u0120INCIDENTAL": 8888, "\u0120[]_": 8889, "\u0120si": 8890, "DWORD": 8891, "\u0120related": 8892, "Transfer": 8893, "mid": 8894, "\u0120components": 8895, "Available": 8896, "INST": 8897, "\u0120resolve": 8898, "\u0120Custom": 8899, "\u0120IB": 8900, "\u0120cvmx": 8901, "00000004": 8902, "ircle": 8903, "aves": 8904, "xea": 8905, "EST": 8906, "IPHER": 8907, "ung": 8908, "\u0120DISCLAIMED": 8909, "\u0120kw": 8910, "Tile": 8911, "cli": 8912, "PROPER": 8913, "\u0120wrap": 8914, "Google": 8915, "outer": 8916, "\u0120Exp": 8917, "Extensions": 8918, "\u0120cancel": 8919, "\u0120\"../": 8920, "bn": 8921, "ACC": 8922, "\u00e6\u013a": 8923, "\u0120disk": 8924, "scalar": 8925, "\u0120scsi": 8926, "\u0120testing": 8927, "Implement": 8928, "shadow": 8929, "\u0120}}": 8930, "QP": 8931, "lpVtbl": 8932, "\u0120Private": 8933, "ZZ": 8934, "COND": 8935, "Distance": 8936, "ATOMIC": 8937, "******/": 8938, "signature": 8939, "\u0120SERVICES": 8940, "EMPL": 8941, "232": 8942, "Blob": 8943, "\u0120threshold": 8944, "\u0120Reference": 8945, "TUPLE": 8946, "Present": 8947, "Qt": 8948, "Place": 8949, "Contract": 8950, "\u0120yield": 8951, "Alias": 8952, "\u0120Hel": 8953, "users": 8954, "\u0120media": 8955, "legacy": 8956, "ENTER": 8957, "Opts": 8958, "\u0120HOWEVER": 8959, "\u0120sg": 8960, "weak": 8961, "\u0120mult": 8962, "ali": 8963, "two": 8964, "ho": 8965, "indent": 8966, "\u0120automatically": 8967, "oring": 8968, "btn": 8969, "Resp": 8970, "IW": 8971, "\u0120WAY": 8972, "effect": 8973, "mmu": 8974, "multip": 8975, "\u0120Fl": 8976, "\u0120(;": 8977, "\u0120connected": 8978, "\u012063": 8979, "\u0120Mon": 8980, "\u0120Timer": 8981, "react": 8982, "\u0120.=": 8983, "\u0120completed": 8984, "tables": 8985, "225": 8986, "\u0120play": 8987, "dummy": 8988, "DELETE": 8989, "running": 8990, "\u0120\u0120\u0120\u0120\u0120\u0120\u0120\u0120\u0120\u0120\u0120\u0120\u0120\u0120\u0120\u0120\u0120\u0120\u0120\u0120\u0120\u0120\u0120\u0120\u0120\u0120\u0120\u0120\u0120\u0120\u0120\u0120\u0120\u0120\u0120\u0120\u0120\u0120\u0120\u0120\u0120\u0120\u0120\u0120\u0120\u0120\u0120\u0120\u0120\u0120\u0120\u0120\u0120\u0120\u0120\u0120": 8991, "ValueType": 8992, "\u0120THEORY": 8993, "\u0120{},": 8994, "\u0120512": 8995, "BOARD": 8996, "\u0120remaining": 8997, "xca": 8998, "\u0120LCD": 8999, "plies": 9000, "SWAP": 9001, "initialize": 9002, "MSC": 9003, ".(*": 9004, "\u0120turn": 9005, "\u0120Has": 9006, "cop": 9007, "\u0120annot": 9008, "LANE": 9009, "ulse": 9010, "TG": 9011, "\u0120mutex": 9012, "Delta": 9013, ")\");": 9014, "Pipeline": 9015, "major": 9016, "quant": 9017, "reet": 9018, "\u0120mouse": 9019, "\u0120encoded": 9020, "rtw": 9021, "\u0120SUBSTITUTE": 9022, "Serializer": 9023, "\u0120Auto": 9024, "\u0120MS": 9025, "\u0120CAUSED": 9026, "bot": 9027, "\u0120'';": 9028, "mmio": 9029, "CASE": 9030, "NORMAL": 9031, "VL": 9032, "\u0120tile": 9033, "Models": 9034, "\u0120ct": 9035, "mas": 9036, "unicode": 9037, "\u0120Component": 9038, "\u0120GOODS": 9039, "\u0120Ident": 9040, "\u0120labels": 9041, "DMI": 9042, "wx": 9043, "inf": 9044, "\u0120JS": 9045, "\u01202013": 9046, "pfn": 9047, "als": 9048, "\u0120PROCUREMENT": 9049, "\u0120ctrl": 9050, "\u0120zone": 9051, "\"].": 9052, "\u0120border": 9053, "stmt": 9054, "RR": 9055, "\u0120assertTrue": 9056, "\u0120BUSINESS": 9057, "Pred": 9058, "Kernel": 9059, "ById": 9060, "EMPLARY": 9061, "\u0120integr": 9062, ");\\": 9063, "\u0120EXEMPLARY": 9064, "\u0120SQ": 9065, "\u0120fetch": 9066, "Cnt": 9067, "Entries": 9068, "istribution": 9069, "utes": 9070, "olicies": 9071, "\u0120INTERRUPTION": 9072, "Scene": 9073, "MMC": 9074, "\u0120ce": 9075, "oct": 9076, "\u012038": 9077, "\u0120inputs": 9078, "YPT": 9079, "137": 9080, "\u0120Define": 9081, "prog": 9082, "DAPM": 9083, "pat": 9084, "0800": 9085, "\u0120127": 9086, "fun": 9087, "\u0120MI": 9088, "\u0120%#": 9089, "arb": 9090, "LINUX": 9091, "Marker": 9092, "pmu": 9093, "ROUND": 9094, "231": 9095, "OG": 9096, "ZX": 9097, "assertTrue": 9098, "\u0120fails": 9099, "\u0120//-----------------------------------------------------------------------------": 9100, "IEEE": 9101, "\u0120\"'": 9102, "\u0120specifies": 9103, "\u0120alias": 9104, "0010": 9105, "\u0120GB": 9106, "386": 9107, "\"><": 9108, "ToS": 9109, "ral": 9110, "\u0120security": 9111, "ROOT": 9112, "\u0120unused": 9113, "xdc": 9114, "norm": 9115, "clean": 9116, "expand": 9117, "prob": 9118, "\u0120finally": 9119, "-----------": 9120, "Other": 9121, "20000000": 9122, "HUB": 9123, "hint": 9124, "\u0109\u0120": 9125, "\u0120Sm": 9126, "istogram": 9127, "utdown": 9128, "login": 9129, "samples": 9130, "Formatter": 9131, "TOOL": 9132, "Lines": 9133, "Schedule": 9134, "[\\": 9135, "\u0120scalar": 9136, "IMP": 9137, "\u0120dc": 9138, "Clause": 9139, "leaf": 9140, "\u0120Util": 9141, "\u0120Ob": 9142, "\u0120environment": 9143, "dh": 9144, "CSS": 9145, "\u0120amdgpu": 9146, "\u0120greater": 9147, "PROP": 9148, "\u0120Inst": 9149, "ndev": 9150, "\u0120\u0109\u0120\u0120\u0120\u0120\u0120\u0120\u0120": 9151, "NAMESPACE": 9152, "Expect": 9153, "cached": 9154, "LM": 9155, "---------": 9156, "cont": 9157, "Retry": 9158, "QUERY": 9159, "Done": 9160, "golang": 9161, "\u00e2\u0138\u012a": 9162, "\u0120center": 9163, "tg": 9164, "\u0120TCP": 9165, "TOKEN": 9166, "SERVICE": 9167, "mmutable": 9168, "\u0120clip": 9169, "ritical": 9170, "ana": 9171, "\u0120primary": 9172, "\u0120packets": 9173, "retry": 9174, "<'": 9175, "\u0120ec": 9176, "133": 9177, "Disk": 9178, "locale": 9179, "times": 9180, "database": 9181, "LEX": 9182, "\u0120scroll": 9183, "040": 9184, "yped": 9185, "devices": 9186, "dv": 9187, "enced": 9188, "\u0120HTML": 9189, "Side": 9190, "\u0120logging": 9191, "unwrap": 9192, "\u0120initialization": 9193, "\u0120mv": 9194, "\u0120MAVLINK": 9195, "\u0120PA": 9196, "cursive": 9197, "JO": 9198, "\u0120Global": 9199, "\u0120btrfs": 9200, "minor": 9201, ",(": 9202, "OutputStream": 9203, "ilation": 9204, "Promise": 9205, "most": 9206, "\u00c3\u00a1": 9207, "129": 9208, "states": 9209, "pause": 9210, "\u0120Argument": 9211, "oy": 9212, "PHYS": 9213, "\u0120sqlite": 9214, "postIndex": 9215, "shutdown": 9216, "members": 9217, "\u0120LE": 9218, "Weight": 9219, "ONA": 9220, "IPH": 9221, "\u0120widget": 9222, "dentry": 9223, "\u01202012": 9224, "\u0120cv": 9225, "Neg": 9226, "\u0120\u0120\u0120\u0120\u0120\u0120\u0120\u0120\u0120\u0120\u0120\u0120\u0120\u0120\u0120\u0120\u0120\u0120\u0120\u0120\u0120\u0120\u0120\u0120\u0120\u0120\u0120\u0120\u0120\u0120\u0120\u0120\u0120\u0120\u0120\u0120\u0120\u0120\u0120\u0120\u0120\u0120\u0120\u0120\u0120\u0120\u0120\u0120\u0120\u0120\u0120\u0120\u0120\u0120\u0120": 9227, "\u0120sa": 9228, "TERN": 9229, "/%": 9230, "uplicate": 9231, "fake": 9232, "Make": 9233, "connected": 9234, "Sockaddr": 9235, "146": 9236, "Ok": 9237, "Capture": 9238, "Month": 9239, "sWith": 9240, "Algorithm": 9241, "\u0120Document": 9242, "\u0120Vis": 9243, "\":{\"": 9244, "\u0120IllegalArgumentException": 9245, "\u0120Lay": 9246, "\u0120cnt": 9247, "named": 9248, "dword": 9249, "\u0120cleanup": 9250, "\u0120va": 9251, "\u0120binding": 9252, "TU": 9253, "like": 9254, "\u0120FIXME": 9255, "\u0120Used": 9256, "\u0120note": 9257, "smp": 9258, "hba": 9259, "LSB": 9260, "\u0120Builder": 9261, "Drag": 9262, "override": 9263, "\u0120Controller": 9264, "********************************************************************************************************************************": 9265, "strip": 9266, "want": 9267, "xfer": 9268, "\u0120against": 9269, "inputs": 9270, "crate": 9271, "allet": 9272, "\u0120dummy": 9273, "mq": 9274, "((*": 9275, "ivalent": 9276, "validation": 9277, "\u0120cached": 9278, "\u0120-->": 9279, "\u012055": 9280, "IIF": 9281, "Strings": 9282, "riptions": 9283, "previous": 9284, "Upper": 9285, "\u0120contributors": 9286, "rhs": 9287, "\u012068": 9288, "prite": 9289, "ternate": 9290, "extract": 9291, "GFX": 9292, "ffffffff": 9293, "\u012047": 9294, "TECT": 9295, "when": 9296, "\u0120curr": 9297, "\u0120Attribute": 9298, "PROCESS": 9299, "ctxt": 9300, "\u0120appropriate": 9301, "MIT": 9302, "\u0120fifo": 9303, "dsp": 9304, "erature": 9305, "080": 9306, "126": 9307, "got": 9308, "\u0120Page": 9309, "\u0120Interface": 9310, "\u0120\"=": 9311, "tlv": 9312, "\u0120Describe": 9313, "136": 9314, "Instr": 9315, "\u0120WR": 9316, "\u0120tables": 9317, "IZONA": 9318, "viders": 9319, "\u0120tw": 9320, "OVERR": 9321, "Management": 9322, "\u0120Back": 9323, "GG": 9324, "dicate": 9325, "310": 9326, "Org": 9327, "METHO": 9328, "\u0120route": 9329, "constraint": 9330, "Cert": 9331, "\u0120da": 9332, "\u0120\":": 9333, "BIN": 9334, "\u01202000": 9335, "EFAULT": 9336, "Methods": 9337, "Arguments": 9338, "\u0120accompanied": 9339, "\u012097": 9340, "referred": 9341, "coped": 9342, "0100": 9343, "169": 9344, "green": 9345, "(\"[": 9346, "\u012086": 9347, "\u0120Basic": 9348, "\u0120restore": 9349, "Validator": 9350, "\u0120weight": 9351, "\u0120FW": 9352, "aunch": 9353, "enchmark": 9354, "(\".": 9355, "\u0120Iterator": 9356, "DEST": 9357, "Center": 9358, "secret": 9359, "awn": 9360, "\u0120EXT": 9361, "021": 9362, "\u0120Pl": 9363, "encrypt": 9364, "\u0120Mac": 9365, "ivation": 9366, "IMM": 9367, "MATH": 9368, "wt": 9369, "()[": 9370, "stm": 9371, "\u0120Scalar": 9372, "gregate": 9373, "jected": 9374, "ario": 9375, "NOP": 9376, "loss": 9377, "\u0120Eigen": 9378, "\u0120bnx": 9379, "Assign": 9380, "iet": 9381, "\u0120reply": 9382, "Bin": 9383, "gem": 9384, "fault": 9385, "Ra": 9386, "posed": 9387, "xda": 9388, "\u0120isinstance": 9389, "MII": 9390, "andsh": 9391, "sound": 9392, "phba": 9393, "iq": 9394, "wifi": 9395, "mach": 9396, "\u0120rules": 9397, "\u0120memset": 9398, "iddleware": 9399, "subscription": 9400, "\u0120partition": 9401, "\u0120www": 9402, "className": 9403, "nested": 9404, "Dat": 9405, "TV": 9406, "\u0120EE": 9407, "Compat": 9408, "BEGIN": 9409, "\u0120bounds": 9410, "880": 9411, "anded": 9412, "NING": 9413, "Declaration": 9414, "pow": 9415, "fv": 9416, "VERTEX": 9417, "iso": 9418, "DEFINED": 9419, "\u0120mesh": 9420, "ostream": 9421, "\u0120am": 9422, "extensions": 9423, "disp": 9424, "ibling": 9425, "PRIORITY": 9426, "\u0120SUN": 9427, "\u0120Instance": 9428, "INGE": 9429, "\u0120EVP": 9430, "getInstance": 9431, "\u0120game": 9432, "\u0120Null": 9433, "feed": 9434, "ising": 9435, "\u0120Mock": 9436, "Contact": 9437, "WAY": 9438, "\u0120opcode": 9439, "\u0120Non": 9440, "\u0120\u0120\u0120\u0120\u0120\u0120\u0120\u0120\u0120\u0120\u0120\u0120\u0120\u0120\u0120\u0120\u0120\u0120\u0120\u0120\u0120\u0120\u0120\u0120\u0120\u0120\u0120\u0120\u0120\u0120\u0120\u0120\u0120\u0120\u0120\u0120\u0120\u0120\u0120\u0120\u0120\u0120\u0120\u0120\u0120\u0120\u0120\u0120\u0120\u0120\u0120\u0120": 9441, "ITOR": 9442, "\u0120aux": 9443, "\u0120commit": 9444, "xs": 9445, "\u0120DRM": 9446, "::_": 9447, "\u0120Header": 9448, "crease": 9449, "refs": 9450, "Labels": 9451, "Tasks": 9452, "\u0120Validate": 9453, "await": 9454, "_/": 9455, "apes": 9456, "half": 9457, "avigation": 9458, "204": 9459, "nce": 9460, "plain": 9461, "\u0120licenses": 9462, "dq": 9463, "KHR": 9464, "fire": 9465, "git": 9466, "\u0120radeon": 9467, "[^": 9468, "WIP": 9469, "ALG": 9470, "theme": 9471, "LowerCase": 9472, "\u0120\"\");": 9473, "Master": 9474, "incip": 9475, "\u01202011": 9476, "\u0120pe": 9477, "Am": 9478, "coexist": 9479, "\u0120Mat": 9480, "AMD": 9481, "8001": 9482, "\u0120indices": 9483, "\u0120products": 9484, "Scal": 9485, "kl": 9486, "\u0120copying": 9487, "UC": 9488, "VIEW": 9489, "VARI": 9490, "\u0120repl": 9491, "ailing": 9492, "\u0120please": 9493, "EventListener": 9494, "\u0120ear": 9495, "username": 9496, "188": 9497, "IntOverflow": 9498, "\u0120Descriptor": 9499, "share": 9500, "\u0120MIN": 9501, "Wr": 9502, "Exec": 9503, "TK": 9504, "TOR": 9505, "blue": 9506, "PROG": 9507, "capture": 9508, "Interrupt": 9509, "\u0120indicate": 9510, "064": 9511, "()}": 9512, "\u0120alignment": 9513, "Dispatch": 9514, "ALPHA": 9515, "Ms": 9516, "\u00d9\u0127": 9517, "\u0120Try": 9518, "\u0120RC": 9519, "PCSTX": 9520, "rtlpriv": 9521, "\u0120includes": 9522, "ERN": 9523, "Replic": 9524, "hcd": 9525, "columns": 9526, "oi": 9527, "\u0120APIENTRY": 9528, "ENAME": 9529, "VOID": 9530, "tegr": 9531, "CXX": 9532, "MID": 9533, "ulong": 9534, "allowed": 9535, "Hex": 9536, "mine": 9537, "\u0120SK": 9538, "\u0120attach": 9539, "ALT": 9540, "TIFY": 9541, "mbox": 9542, "\u01202019": 9543, ";\":": 9544, "ducer": 9545, "ICS": 9546, "700": 9547, "\u0120deleted": 9548, "wards": 9549, "CALLBACK": 9550, "RELEASE": 9551, "mlx": 9552, "\u0120ownership": 9553, "\u0120ds": 9554, "Email": 9555, "Transition": 9556, "ito": 9557, "TW": 9558, ",!": 9559, "\u0120wrapper": 9560, "121": 9561, "jQuery": 9562, "Actions": 9563, "\u0120lat": 9564, "\u0120RA": 9565, "\u0120rd": 9566, "\u0120prom": 9567, "\u0120Id": 9568, "|\\": 9569, "\u012065": 9570, "Bo": 9571, "\u0120uid": 9572, "visit": 9573, "\u0120hig": 9574, "csr": 9575, "\u0120transport": 9576, "\u0120patch": 9577, "165": 9578, "Ready": 9579, "wmsemse": 9580, "arrow": 9581, "udc": 9582, "that": 9583, "GRAM": 9584, "\u0120diag": 9585, "\u0120gets": 9586, "\u0120pd": 9587, "Holder": 9588, "PIXEL": 9589, "\u0120nested": 9590, "FRINGE": 9591, ".+": 9592, "825": 9593, "icate": 9594, "INC": 9595, "Enter": 9596, "\u0120eval": 9597, "\u0120named": 9598, "bios": 9599, "\u0120parts": 9600, "\u0120Host": 9601, "320": 9602, "\u0120desired": 9603, "collect": 9604, "\u0120ARIZONA": 9605, "\u0120'_": 9606, "toggle": 9607, "GF": 9608, "FRA": 9609, "Wrap": 9610, "REO": 9611, "\u0120DC": 9612, "\u0120schedule": 9613, "QE": 9614, ";)": 9615, "INTEL": 9616, "]\",": 9617, "Year": 9618, "diction": 9619, "ably": 9620, "\u0120Record": 9621, "score": 9622, "\u0120ErrIntOverflow": 9623, "Guid": 9624, "2021": 9625, "funcs": 9626, "\u00ef\u00bf\u00bd\u00ef\u00bf\u00bd\u00ef\u00bf\u00bd\u00ef\u00bf\u00bd": 9627, "\u0120SHR": 9628, "vdev": 9629, "\u0120Mark": 9630, "seudo": 9631, "aud": 9632, "\u0120swap": 9633, "partition": 9634, "\u0120----------------": 9635, "WINDOW": 9636, "library": 9637, "Opcode": 9638, "Sig": 9639, "orse": 9640, "DCALL": 9641, "rem": 9642, "\u01202010": 9643, "Pt": 9644, "\u0120msglen": 9645, "hf": 9646, "oen": 9647, "FU": 9648, "usr": 9649, "________________": 9650, "Html": 9651, "GAIN": 9652, "lision": 9653, "Software": 9654, "CAM": 9655, "\u0120dp": 9656, "external": 9657, "TOM": 9658, "\u0120wm": 9659, "Controls": 9660, "\u0120\"\")": 9661, "ooth": 9662, "016": 9663, "WAKE": 9664, "See": 9665, "FRINGEMENT": 9666, "\u0120locale": 9667, "\u0120publish": 9668, "completion": 9669, "vk": 9670, "\u0120mapped": 9671, "\u0120Next": 9672, "anization": 9673, "itespace": 9674, "ithy": 9675, "istributed": 9676, "alancer": 9677, "\u0120destroy": 9678, "131": 9679, "++){": 9680, "phase": 9681, "saved": 9682, "\u0120complex": 9683, "\u0120friend": 9684, "\u0120\u0120\u0120\u0120\u0120\u0120\u0120\u0120\u0120\u0120\u0120\u0120\u0120\u0120\u0120\u0120\u0120\u0120\u0120\u0120\u0120\u0120\u0120\u0120\u0120\u0120\u0120\u0120\u0120\u0120\u0120\u0120\u0120\u0120\u0120\u0120\u0120\u0120\u0120\u0120\u0120\u0120\u0120\u0120\u0120\u0120\u0120\u0120\u0120\u0120\u0120\u0120\u0120": 9685, "Ent": 9686, "MOV": 9687, "lug": 9688, "UNIC": 9689, "OWN": 9690, "\u0120Network": 9691, "ersistence": 9692, "readl": 9693, "\u0120category": 9694, "159": 9695, "kill": 9696, "ClassName": 9697, "/>.": 9698, "mbus": 9699, "SCII": 9700, "GX": 9701, "pts": 9702, "XGBE": 9703, "\u0120pointers": 9704, "awt": 9705, "Bitmap": 9706, "[])": 9707, "extent": 9708, "\u0120Man": 9709, "327": 9710, "Compiler": 9711, "\u0120Bl": 9712, "\"\"},": 9713, "\u0120Application": 9714, "\u0120*****************": 9715, "olid": 9716, "140": 9717, "\u0120ins": 9718, "Attachment": 9719, "INET": 9720, "Suite": 9721, "Used": 9722, "\u0120aligned": 9723, "Printf": 9724, "VLAN": 9725, "apim": 9726, "Extra": 9727, "QUF": 9728, "\u0120google": 9729, "iki": 9730, "DLL": 9731, "\u0120//////////////////////////////////////////////////////////////////////////": 9732, "$/": 9733, "\u0120enter": 9734, "inery": 9735, "overflow": 9736, "btc": 9737, "xl": 9738, "\u0120train": 9739, "identifier": 9740, "\u0120pb": 9741, "\u0120CONNECTION": 9742, "\u0120editor": 9743, "360": 9744, "Lif": 9745, "'},": 9746, "206": 9747, "*=": 9748, "alled": 9749, "\u0120TLS": 9750, "Shadow": 9751, "\u0120LED": 9752, "invoke": 9753, "\u0120increment": 9754, "=-=-": 9755, "\u0120GLfloat": 9756, "ICY": 9757, "Pending": 9758, "\u0120built": 9759, "122": 9760, "thr": 9761, "linear": 9762, "\u0120mo": 9763, "Site": 9764, "\u012049": 9765, "igration": 9766, "\u0120Don": 9767, "\u0120Common": 9768, "Cfg": 9769, "\u0120ack": 9770, "failure": 9771, "\u0120hf": 9772, "asis": 9773, "instr": 9774, "Gateway": 9775, "\u0120):": 9776, "SERIAL": 9777, "\u0120Change": 9778, "mgmt": 9779, "GRE": 9780, "\u0120addresses": 9781, "\u0120hereby": 9782, "reverse": 9783, "adap": 9784, "MQ": 9785, "\u0120groups": 9786, "00000008": 9787, "mn": 9788, "verage": 9789, "Subscription": 9790, "PRESENT": 9791, "dac": 9792, "perm": 9793, "Speed": 9794, "\u0120Generic": 9795, "threads": 9796, "CBC": 9797, "\u0120PK": 9798, "\u0120sq": 9799, "Evalu": 9800, "Deployment": 9801, "\u0120dot": 9802, "Capacity": 9803, "\u00e5\u00ba": 9804, "ittle": 9805, "',/*": 9806, "Commit": 9807, "\u0120FF": 9808, "ats": 9809, "Amount": 9810, "initialized": 9811, "rase": 9812, "decoder": 9813, "Leg": 9814, ",_": 9815, "\u0120Flag": 9816, "references": 9817, "Traits": 9818, "written": 9819, "\u0120mc": 9820, "UTTON": 9821, "\u0120around": 9822, "\u0120problem": 9823, "\u0120torch": 9824, "cognized": 9825, "IRQn": 9826, "monitor": 9827, "Camera": 9828, "230": 9829, "030": 9830, "achinery": 9831, "\u0120\u0109\u0109\u0109\u0109\u0109\u0120\u0120\u0120\u0120": 9832, "imm": 9833, "\u0120configure": 9834, "scape": 9835, "\u01202020": 9836, "\u0120lhs": 9837, "Align": 9838, "sheet": 9839, "\u00e5\u012f": 9840, "filters": 9841, "EINT": 9842, "Allocator": 9843, "\u0120tensor": 9844, "ology": 9845, "Threshold": 9846, "\u0120LONG": 9847, "MALL": 9848, "RAD": 9849, "\u0120pi": 9850, "anspose": 9851, "\u0120closed": 9852, "INTEGER": 9853, "}\"": 9854, "Dot": 9855, "SUR": 9856, "generator": 9857, "DOUBLE": 9858, "\u01202008": 9859, "Forward": 9860, "\u0120Length": 9861, "translate": 9862, ",\\": 9863, "\u0120Library": 9864, "DEPTH": 9865, "hot": 9866, ")',": 9867, "created": 9868, "\u0120Should": 9869, "\u0120Power": 9870, "\u0120Content": 9871, "\u0120MEM": 9872, "inger": 9873, "Initialize": 9874, "MASTER": 9875, "\u0120\"(": 9876, "toLowerCase": 9877, "ours": 9878, "aken": 9879, "Writ": 9880, "arante": 9881, "474": 9882, "\u0120\u0109\u0109\u0109\u0109\u0109\u0109\u0109\u0109\u0109": 9883, "Curve": 9884, "oenix": 9885, "relative": 9886, "Example": 9887, "fold": 9888, "hb": 9889, "\u0120Intel": 9890, "&#": 9891, "\u0120\u00ce": 9892, "\u0120*************************************************************************": 9893, "nan": 9894, "disc": 9895, "hdmi": 9896, "\u012043": 9897, "XP": 9898, "\u0120AB": 9899, "\u0120memb": 9900, "vlet": 9901, "ailbox": 9902, "*)(": 9903, "\u0120nb": 9904, "_##": 9905, "scr": 9906, "registry": 9907, "asing": 9908, "\u0120cos": 9909, "8500": 9910, "\u0120))": 9911, "\u00e9\u0122": 9912, "\u01202009": 9913, "048": 9914, "INFRINGEMENT": 9915, "2017": 9916, "Yh": 9917, "iment": 9918, "\u0120vs": 9919, "defs": 9920, "mlme": 9921, "\u0120RUN": 9922, "\u0120orig": 9923, "156": 9924, "\u0120something": 9925, "\u0120sin": 9926, "Console": 9927, "\u0120threads": 9928, "152": 9929, "PART": 9930, "ogenerated": 9931, "udp": 9932, "\u0120uri": 9933, "hdl": 9934, "createElement": 9935, "\u0120clone": 9936, "\u0120^=": 9937, "NaN": 9938, "\u0120Switch": 9939, "identity": 9940, "evalu": 9941, "\u0120tre": 9942, "\u0120However": 9943, "\u00e5\u00bc": 9944, "oler": 9945, "coeff": 9946, "configure": 9947, "_),": 9948, "SIM": 9949, "\u0120));": 9950, "\u0120angle": 9951, "\u0120Compare": 9952, "\u0120pkt": 9953, "\u0120waiting": 9954, "clang": 9955, "011": 9956, "Cons": 9957, "sembler": 9958, "voltage": 9959, "\u0120Boost": 9960, "Consumer": 9961, "\u0120mount": 9962, "stick": 9963, "\u0120Close": 9964, "maps": 9965, "quired": 9966, "lr": 9967, "\u0120Dec": 9968, "\u0120Linux": 9969, "refresh": 9970, "BUILD": 9971, "SOFT": 9972, "Include": 9973, "\u0120Ok": 9974, "aaa": 9975, "RTM": 9976, "\u0120BOOL": 9977, "\u0120Unicode": 9978, "Theme": 9979, "\u01202007": 9980, "NAM": 9981, "\u012078": 9982, "webpack": 9983, "getMessage": 9984, "^^^^": 9985, "cid": 9986, "208": 9987, "\u0120CUR": 9988, "endregion": 9989, "()(": 9990, "\u0120governed": 9991, "Operations": 9992, "wood": 9993, "\u0120variant": 9994, "\u0120PF": 9995, ".\"\"\"": 9996, "\u0120vp": 9997, "ula": 9998, "ELEM": 9999, "Revision": 10000, "remarks": 10001, "\u0120Tensor": 10002, "\u0120\")": 10003, "\u0120pref": 10004, "Reserved": 10005, "\u0120Stop": 10006, "STANT": 10007, "ATTRIBUTE": 10008, "duced": 10009, "Analy": 10010, "\u0120fragment": 10011, "\u0120MLX": 10012, "XFF": 10013, "\u0120Expression": 10014, "guid": 10015, "eries": 10016, "\u0120Qt": 10017, "Cannot": 10018, "ulture": 10019, "\u0120Compute": 10020, "aes": 10021, "debugfs": 10022, "vx": 10023, "138": 10024, "elocity": 10025, "compressed": 10026, "ATT": 10027, "\u0120OBJ": 10028, "\u0120DECLARE": 10029, "217": 10030, "\u0120Entity": 10031, "Pad": 10032, "\u0120instances": 10033, "ifact": 10034, ":\",": 10035, "DEON": 10036, "INVALC": 10037, "\u0120compile": 10038, "\u0120[%": 10039, "queued": 10040, "Disabled": 10041, "contents": 10042, "APH": 10043, "\u0120applied": 10044, "aim": 10045, "REA": 10046, "\u0120lg": 10047, "\u0120ir": 10048, "Missing": 10049, "igu": 10050, "\u0120mb": 10051, "uFF": 10052, "\u0120successfully": 10053, "\u0120care": 10054, "\u0120cy": 10055, "************": 10056, "\u0120sun": 10057, "\u0120codes": 10058, "\u0120visible": 10059, "\u0120phase": 10060, "foreach": 10061, "MenuItem": 10062, "147": 10063, "Old": 10064, "Wire": 10065, "2018": 10066, "orph": 10067, "\u0120regular": 10068, "\u0120nl": 10069, "swing": 10070, "\u0120promote": 10071, "Returns": 10072, "DESCRIPTION": 10073, "ampler": 10074, "METHODCALL": 10075, "Series": 10076, "getString": 10077, "\u0120checked": 10078, "apimachinery": 10079, "best": 10080, "ffe": 10081, "allocator": 10082, "iness": 10083, ",{": 10084, "\u0120{\"\"},": 10085, "Final": 10086, "nfs": 10087, "\u0120mer": 10088, "\u0120pa": 10089, "getId": 10090, "\u0120TC": 10091, "dsi": 10092, "Bottom": 10093, "stand": 10094, "\u0120email": 10095, "upload": 10096, "\u0120SER": 10097, "Suppress": 10098, "444": 10099, "METHODCALLTYPE": 10100, "\u0120iwl": 10101, "\u0120Throw": 10102, "uffle": 10103, "misc": 10104, "verbose": 10105, "iation": 10106, "sector": 10107, "SYM": 10108, "Classes": 10109, "0000001": 10110, "\u0120encoder": 10111, "SECTION": 10112, "\u0120logic": 10113, "servable": 10114, "quote": 10115, "home": 10116, "andshake": 10117, "mbedded": 10118, "ality": 10119, "\u0120Volume": 10120, "\u0120nvkm": 10121, "spinlock": 10122, "+(": 10123, ">\"": 10124, "\u0120operand": 10125, "ALLOW": 10126, "\u0120PL": 10127, "DIP": 10128, "ippet": 10129, "CARD": 10130, "\u0120SA": 10131, "vg": 10132, "Sets": 10133, "PTION": 10134, "Conversion": 10135, "xmit": 10136, "\u0120One": 10137, "\u0120words": 10138, "\u0120pixels": 10139, "\u0120licensed": 10140, "\u0120norm": 10141, "Emit": 10142, "[[": 10143, "************************************************": 10144, "\u0120heap": 10145, "\u0120sockaddr": 10146, "valueOf": 10147, "fffffff": 10148, "adjust": 10149, "\u0120-*-": 10150, "slab": 10151, "FBQ": 10152, "\u0120'{": 10153, "\u0120join": 10154, "('/": 10155, "CIPHER": 10156, "ratio": 10157, "\u0120declar": 10158, "00000010": 10159, "IQ": 10160, "\u0120sensor": 10161, "uncate": 10162, "\u0120MASK": 10163, "rcv": 10164, "rength": 10165, "UUID": 10166, "\u0120bug": 10167, "argc": 10168, "\u0120UI": 10169, "FieldMask": 10170, "ELEMENT": 10171, "seconds": 10172, "\u0120expand": 10173, "relation": 10174, "Tp": 10175, "xattr": 10176, "UNLOCK": 10177, "based": 10178, "\u0120TPI": 10179, ">'": 10180, "iphy": 10181, "WC": 10182, "have": 10183, "\u0120sat": 10184, "\u0120tun": 10185, "frontend": 10186, "WDG": 10187, "\u00d8\u00b1": 10188, "IOCTL": 10189, "shader": 10190, "Compile": 10191, "pic": 10192, "Analysis": 10193, "WBM": 10194, "301": 10195, "erase": 10196, "notifier": 10197, "\u0120CK": 10198, "\u0120dy": 10199, "\u00e5\u013e": 10200, "syn": 10201, "snprintf": 10202, "158": 10203, "DISP": 10204, "\u0120cancell": 10205, "ENU": 10206, "CODEC": 10207, "\u0120good": 10208, "vport": 10209, "RP": 10210, "Price": 10211, "\u0120Args": 10212, "MIS": 10213, "\u0120Audio": 10214, "quir": 10215, "ializable": 10216, "getAttribute": 10217, "\u0120kzalloc": 10218, "\u0120BN": 10219, "\u0120Search": 10220, "activate": 10221, "\u0120Storage": 10222, "HERE": 10223, "\u0120OK": 10224, "\u0120handled": 10225, "Alignment": 10226, "YX": 10227, "Vol": 10228, "501": 10229, "IMR": 10230, "\u0120Del": 10231, "Art": 10232, "oh": 10233, "messages": 10234, "cycle": 10235, "SID": 10236, "\u0120CV": 10237, "AQ": 10238, "BIF": 10239, "chars": 10240, "lectron": 10241, "Padding": 10242, "nowled": 10243, "\u0120utf": 10244, "\u0120readl": 10245, "\u0120/*----------------------------------------------------------------": 10246, "BQU": 10247, "\u0120tm": 10248, "Receive": 10249, "\u0120pix": 10250, "pdf": 10251, "DeepCopy": 10252, "\u0120tty": 10253, "EDGE": 10254, "('./": 10255, "\u0120Configure": 10256, "Created": 10257, "\u0120VER": 10258, "\u0120Logger": 10259, "AreEqual": 10260, "\u0120constants": 10261, "\u0120TRACE": 10262, "pyx": 10263, "\u0120Operation": 10264, "\u0120fit": 10265, "\u0120precision": 10266, "PROTOCOL": 10267, "\u0120bp": 10268, "Sound": 10269, "\u0120({": 10270, "TMP": 10271, "\u0120From": 10272, "732": 10273, "itect": 10274, "\u0120charge": 10275, "\u00e2\u0138\u012a\u00e2\u0138\u012a": 10276, "\",{": 10277, "Strip": 10278, "hu": 10279, "\u0120implicit": 10280, "\u0120Parameter": 10281, "PARAMS": 10282, "8723": 10283, "\u0120sem": 10284, "deep": 10285, "ECD": 10286, "wind": 10287, "199": 10288, "33333333": 10289, "Lite": 10290, "\u012070": 10291, "geometry": 10292, "LAS": 10293, "nodeType": 10294, "\u0120physical": 10295, "DDR": 10296, "RDY": 10297, "svg": 10298, "\u0120NA": 10299, "\u0120regex": 10300, "UME": 10301, "ention": 10302, "\u0120TOBN": 10303, "\u0120){": 10304, "\u0120monitor": 10305, "OwnProperty": 10306, "ivery": 10307, "\u0120CP": 10308, "\u00d9\u012c": 10309, "\\\",\\\"": 10310, "GUID": 10311, "\u0120install": 10312, "ALI": 10313, "sch": 10314, "\u0120detected": 10315, "CRTC": 10316, "substring": 10317, "GNU": 10318, "\u0120purpose": 10319, "\u0120StringBuilder": 10320, "*>": 10321, "\u0120hint": 10322, "\u0120Range": 10323, "adr": 10324, "CLOSE": 10325, "\u0120sleep": 10326, "SiS": 10327, "Paths": 10328, "\u0120ops": 10329, "mpi": 10330, "MPI": 10331, "\u0120NT": 10332, "regulator": 10333, "UNT": 10334, "\u0120occurred": 10335, "deprecated": 10336, "Fake": 10337, "sx": 10338, "\u0120sending": 10339, "TRL": 10340, "SUP": 10341, "PROPERTY": 10342, "\u0120exec": 10343, "attrib": 10344, ">:": 10345, "NonNull": 10346, "TCL": 10347, "ializes": 10348, "\u0120Gu": 10349, "\u0120month": 10350, "\u0120longer": 10351, "dependent": 10352, "\u0120calculate": 10353, "implement": 10354, "USR": 10355, "lint": 10356, "\u00d9\u0128": 10357, "literal": 10358, "Reply": 10359, "strap": 10360, "142": 10361, "Notify": 10362, "gd": 10363, "NP": 10364, "AUTHOR": 10365, "annotations": 10366, ":\"-": 10367, "\u0120FN": 10368, "\u0120Implement": 10369, "REQUI": 10370, "imits": 10371, "pipeline": 10372, "Rv": 10373, "Clone": 10374, "?.": 10375, "\u00e5\u012e": 10376, "\u0120consume": 10377, "207": 10378, "logging": 10379, "atest": 10380, "}'": 10381, "\u0120branch": 10382, "]['": 10383, "\u0120Lock": 10384, "ADV": 10385, "\u0120autogenerated": 10386, "iseconds": 10387, "EXIST": 10388, "marker": 10389, "BUTTON": 10390, "203": 10391, "Backend": 10392, "Priv": 10393, "PFC": 10394, "metrics": 10395, "145": 10396, "xception": 10397, "\u0120\u00ec": 10398, "small": 10399, "SWITCH": 10400, "integr": 10401, "\u0120Render": 10402, "\u0120updates": 10403, "\u0120generator": 10404, "sas": 10405, "abb": 10406, "Mult": 10407, "\u0120ft": 10408, "fficient": 10409, "\u0120scheme": 10410, "DISABLED": 10411, "166": 10412, "\u0120synchronized": 10413, "\u0120stage": 10414, "GINE": 10415, "\u0120parsing": 10416, "\u0120CF": 10417, "\u0120regulator": 10418, "Arrays": 10419, "/\\": 10420, "\u0120underlying": 10421, "\u0120Des": 10422, "precision": 10423, "COMMON": 10424, "186": 10425, "park": 10426, "parentNode": 10427, "allocated": 10428, "\u0120ke": 10429, "formance": 10430, "\u0120RF": 10431, "Derived": 10432, "\u0120Callback": 10433, "OVERRIDE": 10434, "\u0120IE": 10435, "Filename": 10436, "lets": 10437, "Subsc": 10438, "\u0120ALTER": 10439, "\u0120codec": 10440, "\u0120dialog": 10441, "ROT": 10442, "\u0120Each": 10443, "\u0120sorted": 10444, "keyword": 10445, "\u0120\"{": 10446, "2019": 10447, "Arn": 10448, "\"(": 10449, "\u0120ut": 10450, "Pane": 10451, "\u0120checking": 10452, "RTL": 10453, "DETAIL": 10454, "UF": 10455, "ATIVE": 10456, "Exist": 10457, "-+-+-+-+": 10458, "Swap": 10459, "hest": 10460, "amount": 10461, "////////////////////////////////////////////////////////////////////////////////////////////////////////////////////////////////////////////////////////////////////////////////////////////////////////////////////////////////////////////////////////////////////////////////////////////////////////////////////////////////////////////////////////////////////////////////////////////////////////////////////////////////////////////////////////////////////////////////////////////////////////////////////////////////": 10462, "incipal": 10463, "244": 10464, "\u0120immediately": 10465, "\u0120Label": 10466, "special": 10467, "[_": 10468, "\u0120processed": 10469, "242": 10470, "erate": 10471, "ado": 10472, "iommu": 10473, "tor": 10474, "\u00e7\u00bd": 10475, "ropped": 10476, "dget": 10477, "MACRO": 10478, "aper": 10479, "\u0120Univers": 10480, "Heap": 10481, "poly": 10482, "\")),": 10483, "arc": 10484, "\u0120AES": 10485, "239": 10486, "\u0120Pin": 10487, "POINTER": 10488, "listener": 10489, "\u0120ssl": 10490, "\u0120$(": 10491, "allen": 10492, "\u0120IXGBE": 10493, "lcd": 10494, "DECLARE": 10495, "\u0100\u0100\u0100\u0100\u0100\u0100\u0100\u0100\u0100\u0100\u0100\u0100\u0100\u0100\u0100\u0100": 10496, "ategories": 10497, "links": 10498, "\u0120hr": 10499, "\u0120very": 10500, "HF": 10501, "\u0120representing": 10502, "WP": 10503, "01234567890": 10504, "ingroup": 10505, "\u012046": 10506, "Anchor": 10507, "Ux": 10508, "\u0120Entry": 10509, "firmware": 10510, "\u0120copied": 10511, "\u0120separate": 10512, "Visitor": 10513, "lank": 10514, "\u0120REMOVE": 10515, "2015": 10516, "history": 10517, "GUI": 10518, "pag": 10519, "\u0120Export": 10520, "mtd": 10521, "scheme": 10522, "302": 10523, "hold": 10524, "\u0120sender": 10525, "\u0120Must": 10526, "\u0120undef": 10527, "\u0120ER": 10528, "VIR": 10529, "\u0120NUM": 10530, "lk": 10531, "\u0120archive": 10532, "images": 10533, "GM": 10534, "Aws": 10535, "LANG": 10536, "\u0120plane": 10537, "IDs": 10538, "\u0120Generate": 10539, "VECTOR": 10540, "40000000": 10541, "\u00e9\u0129": 10542, "embed": 10543, "\u0120Connection": 10544, "\u0120bfa": 10545, "ares": 10546, "245": 10547, "Invoke": 10548, "\u0120sell": 10549, ":]": 10550, "'):": 10551, "ventory": 10552, "\u0120notification": 10553, "\u0120entire": 10554, "\u0120\"$": 10555, "ocker": 10556, "\u0120detect": 10557, "\u0120\u00e8": 10558, "\u0120RawSyscall": 10559, "amage": 10560, "oment": 10561, "\u01202006": 10562, "\u0120PWM": 10563, "DUMP": 10564, "\u0120Fe": 10565, "stage": 10566, ".%": 10567, "157": 10568, "bias": 10569, "\u00f0\u0141": 10570, "VEC": 10571, "149": 10572, "digest": 10573, "acet": 10574, "izedBuffer": 10575, "\u0120paths": 10576, "WF": 10577, "\u0120xxx": 10578, "pod": 10579, "ferences": 10580, "Linear": 10581, ",/*": 10582, "LET": 10583, "||\"": 10584, "ToSizedBuffer": 10585, "\u0120AWS": 10586, "\u00e6\u012b": 10587, "\u0120issue": 10588, "dataset": 10589, "nand": 10590, "167": 10591, "202": 10592, "Allowed": 10593, "xabab": 10594, "\u0120oct": 10595, "sbi": 10596, "DNS": 10597, "minecraft": 10598, "PERIPH": 10599, "destination": 10600, "tfm": 10601, "\u0120snapshot": 10602, "\u0120dimension": 10603, "Conv": 10604, "304": 10605, "\u0120general": 10606, "flate": 10607, "acer": 10608, "Indices": 10609, "\u0120Setup": 10610, "SLA": 10611, "\u00e5\u0131\u0138": 10612, "\u0120df": 10613, "TIMING": 10614, "NK": 10615, "178": 10616, "Dist": 10617, "\u0120Expr": 10618, "chno": 10619, "\u0120vi": 10620, "Relation": 10621, "Primary": 10622, "olate": 10623, "\u00e4\u00b8\u0122": 10624, "\u0120rtw": 10625, "PCS": 10626, ">\");": 10627, "\u0120dispatch": 10628, "Been": 10629, "jack": 10630, "CRYPT": 10631, "bine": 10632, "relax": 10633, "enario": 10634, "\u0120GP": 10635, "\u0120NOTICE": 10636, "\u0120year": 10637, "ancellationToken": 10638, "raise": 10639, "Initial": 10640, "ObjectMeta": 10641, "windows": 10642, "UA": 10643, "\u0120isl": 10644, "\u0120Display": 10645, "\u0120pan": 10646, "\u0120notify": 10647, "\u0120started": 10648, "\u0120ngx": 10649, "VMX": 10650, "\u0120NET": 10651, "\u0120AM": 10652, "lhs": 10653, "BW": 10654, "\u0120PCIE": 10655, "ROUTE": 10656, "GN": 10657, "FieldMaskBit": 10658, "\u0120RFC": 10659, "HashMap": 10660, "\u0120dentry": 10661, "beans": 10662, "\u0120reverse": 10663, "gspca": 10664, "CX": 10665, "roker": 10666, "dns": 10667, "agger": 10668, "\u0120FR": 10669, "\u0120'''": 10670, "\u0120CLAIM": 10671, "more": 10672, "\u0120anything": 10673, "Syntax": 10674, "fence": 10675, "\u0120offsetof": 10676, "404": 10677, "voice": 10678, "aming": 10679, "strlen": 10680, "orb": 10681, "\u0120handles": 10682, "\u00e4\u00bf": 10683, "Lin": 10684, "\u0120ci": 10685, "\u0120Media": 10686, "busy": 10687, "[%": 10688, "Dom": 10689, "les": 10690, "\u0120}),": 10691, "fan": 10692, "\u0120Cur": 10693, "Rpc": 10694, "oline": 10695, "812": 10696, "\u0120metric": 10697, "star": 10698, "Feed": 10699, "BP": 10700, "205": 10701, "subject": 10702, "BLE": 10703, "ByName": 10704, "VK": 10705, "\u0120Allow": 10706, "Tools": 10707, "\u0120Us": 10708, "InitStruct": 10709, "\u012090": 10710, "Safe": 10711, "Inline": 10712, ":(": 10713, "'].": 10714, "stdio": 10715, "bfa": 10716, "frequency": 10717, "\u0120wake": 10718, "eno": 10719, "\u0120APP": 10720, "__((": 10721, "\u0120Park": 10722, "\u0120FP": 10723, "\u0120Now": 10724, "\u0120guarante": 10725, "Partition": 10726, "\u0120mavlink": 10727, "series": 10728, "MSB": 10729, "\u0120\u0109\u0109\u0109\u0109\u0109\u0120\u0120\u0120\u0120\u0120": 10730, "OLEAN": 10731, "Could": 10732, "Components": 10733, "\u00e6\u0142": 10734, "THRESHOLD": 10735, "uby": 10736, ",'": 10737, "sqrt": 10738, "655": 10739, "\u0120pipeline": 10740, "\u0120permit": 10741, "hy": 10742, "PROFILE": 10743, "\u0120BYTE": 10744, "Radius": 10745, "\u012052": 10746, "istent": 10747, "\u0120bc": 10748, "\u0120serialized": 10749, "\u0120zip": 10750, "otent": 10751, "Cost": 10752, "PEED": 10753, "\u0120literal": 10754, "Two": 10755, "CRYPTO": 10756, "\u0120assigned": 10757, "\u00e4\u00b8\u012f": 10758, "\u0120capture": 10759, "REPL": 10760, "Regex": 10761, "rn": 10762, "\u0120tail": 10763, "\u0120Dest": 10764, "ECC": 10765, "Stage": 10766, "Completion": 10767, "'ll": 10768, "getClass": 10769, "Worker": 10770, "\u0120\u0120\u0120\u0120\u0120\u0120\u0120\u0120\u0120\u0120\u0120\u0120\u0120\u0120\u0120\u0120\u0120\u0120\u0120\u0120\u0120\u0120\u0120\u0120\u0120\u0120\u0120\u0120\u0120\u0120\u0120\u0120\u0120\u0120\u0120\u0120\u0120\u0120\u0120\u0120\u0120\u0120\u0120\u0120\u0120\u0120\u0120\u0120\u0120\u0120\u0120\u0120\u0120\u0120": 10771, "adj": 10772, "Review": 10773, ".*}}": 10774, "letes": 10775, "mmap": 10776, "BIO": 10777, "\u0120DPM": 10778, "899": 10779, "commands": 10780, "\u0120linear": 10781, "\u0120endorse": 10782, "SAI": 10783, "\u012041": 10784, "\u0120regarding": 10785, "\u0120defaults": 10786, "Sem": 10787, "\u0120Driver": 10788, "xp": 10789, "ArrayList": 10790, "bounds": 10791, "POLICY": 10792, "\u0120LWIP": 10793, "<?>": 10794, "PKEY": 10795, "\u0120RuntimeException": 10796, "archive": 10797, "Checked": 10798, "\u0120converted": 10799, "When": 10800, "COR": 10801, "EXPECT": 10802, "\u00e2\u0137\u0132": 10803, "TYPES": 10804, "Hw": 10805, "\u0120Stack": 10806, "223": 10807, "\u0120101": 10808, "tex": 10809, "\u0120metrics": 10810, "inity": 10811, "RTA": 10812, "lab": 10813, "\u0120}\\": 10814, "\u0120decoder": 10815, "009": 10816, "tention": 10817, "Phase": 10818, "aped": 10819, "Ratio": 10820, "\u0120references": 10821, "UNIP": 10822, "\u0120freq": 10823, "INK": 10824, "Complex": 10825, "MODEL": 10826, "substr": 10827, "\u0120absolute": 10828, "missing": 10829, "into": 10830, "SESSION": 10831, "urations": 10832, "\u012096": 10833, "CONSTANT": 10834, "Iss": 10835, "NOTE": 10836, "allback": 10837, "\u0120ff": 10838, "\u0120Que": 10839, "camera": 10840, "ctype": 10841, "\u0120malloc": 10842, "\u0120ocfs": 10843, "adx": 10844, "under": 10845, "Backup": 10846, "LEG": 10847, "*/,": 10848, "\")));": 10849, "Install": 10850, "ounce": 10851, "Fd": 10852, "Primitive": 10853, "SOCKET": 10854, "\u0109\u0120\u0120\u0120": 10855, "eeprom": 10856, "\u0120occurs": 10857, "detect": 10858, "\u0120\"--": 10859, "\u0120CX": 10860, "REL": 10861, "\u0120((((": 10862, "\u0120floating": 10863, "formats": 10864, "vq": 10865, "erator": 10866, "\u0120Save": 10867, "\u0120js": 10868, "TIMESTAMP": 10869, "SETUP": 10870, "Att": 10871, "\u0120questions": 10872, "glew": 10873, "Destination": 10874, "SHARED": 10875, "\u0120PI": 10876, "uda": 10877, "\u0120123456789": 10878, "\u0120mk": 10879, "\u0120')": 10880, "mtu": 10881, "Requests": 10882, "\u0120blob": 10883, "Nested": 10884, "Cr": 10885, "svc": 10886, "\u0120macros": 10887, "dyn": 10888, "iving": 10889, "\u0120instructions": 10890, "Horizontal": 10891, "ders": 10892, "\u0120OPENSSL": 10893, "drag": 10894, "\u0120MOD": 10895, "NotFoundException": 10896, "Upload": 10897, "\u0120Variable": 10898, "SIX": 10899, "\u0120Comm": 10900, "EK": 10901, "periment": 10902, "155": 10903, "\u0120DP": 10904, "Quant": 10905, "packets": 10906, "\u0120records": 10907, "xxxx": 10908, "\u0120Cache": 10909, "Enumerable": 10910, "INTEN": 10911, "ipient": 10912, "\u0120Tool": 10913, "\u0120certificate": 10914, "\u0120really": 10915, "ENOT": 10916, "lastic": 10917, "INITIAL": 10918, "\u0120IPv": 10919, "BG": 10920, "SIGNED": 10921, "\u0120agreements": 10922, "NORE": 10923, "!\");": 10924, "uD": 10925, "ADAP": 10926, "!--": 10927, "Fast": 10928, "ITAL": 10929, "\u0120sr": 10930, "\u01202005": 10931, "\u0120DateTime": 10932, "ountry": 10933, "CONTENT": 10934, "\u012053": 10935, "222": 10936, "worker": 10937, "\u0120HashMap": 10938, "pred": 10939, "254": 10940, "249": 10941, "hub": 10942, "\u0120extended": 10943, "\u0120Symbol": 10944, "ains": 10945, "cores": 10946, "algorithm": 10947, "\u0120compression": 10948, "]).": 10949, "\u0120ca": 10950, ")];": 10951, "Unique": 10952, "Dimension": 10953, "CQ": 10954, "radius": 10955, "\u0120`,": 10956, "\u0120span": 10957, "must": 10958, "transition": 10959, "\u0120Since": 10960, "TPC": 10961, "367": 10962, "ales": 10963, "amazonaws": 10964, "\u0120Post": 10965, "optim": 10966, "btcoexist": 10967, "\u0120Bits": 10968, "zilla": 10969, "\u0120obtaining": 10970, "COEFF": 10971, "fit": 10972, "\u00d1\u0131": 10973, "\u0120TT": 10974, "thers": 10975, "CTP": 10976, "\u0120TS": 10977, "touch": 10978, "onal": 10979, "\u0120whose": 10980, "uzz": 10981, "ari": 10982, "Unable": 10983, "plt": 10984, "\u0120dep": 10985, "flip": 10986, "\")},": 10987, "\u0120regmap": 10988, "\u0120>(": 10989, "190": 10990, "heel": 10991, "=[],": 10992, "lun": 10993, "<_": 10994, "\u0120*/,": 10995, "autorest": 10996, "nullptr": 10997, "\u0120band": 10998, "\u0120Verify": 10999, "\u0120URI": 11000, "\u0120*****************************************************************": 11001, "Accessor": 11002, "\u0120Store": 11003, "TLV": 11004, "\u0120portions": 11005, "urther": 11006, "gm": 11007, "\u0120NONINFRINGEMENT": 11008, "80000": 11009, "ampling": 11010, "\u00d0\u00b2": 11011, "141": 11012, "\u0120sid": 11013, "ISP": 11014, "Authentication": 11015, "abric": 11016, "\u0120>>=": 11017, "\u0120ErrIntOverflowGenerated": 11018, "\u0120writes": 11019, "verity": 11020, "Lang": 11021, "nable": 11022, "avor": 11023, "\u0120LIB": 11024, "mater": 11025, "assoc": 11026, "qos": 11027, "\u0120fake": 11028, "Browser": 11029, "ipc": 11030, "\u0120Draw": 11031, "Discard": 11032, "\u0120cover": 11033, "Visual": 11034, "\u0120\u0120\u0120\u0120\u0120\u0120\u0120\u0120\u0120\u0120\u0120\u0120\u0120\u0120\u0120\u0120\u0120\u0120\u0120\u0120\u0120\u0120\u0120\u0120\u0120\u0120\u0120\u0120\u0120\u0120\u0120\u0120\u0120\u0120\u0120\u0120\u0120\u0120\u0120\u0120\u0120\u0120\u0120\u0120\u0120\u0120\u0120\u0120\u0120\u0120\u0120\u0120\u0120\u0120\u0120\u0120\u0120": 11035, "\u0120ME": 11036, "\u0120Rout": 11037, "scene": 11038, "sts": 11039, "\u0120asm": 11040, "ampoline": 11041, "DROP": 11042, "Extract": 11043, "2056": 11044, "\u0120Virtual": 11045, "\u0120series": 11046, "stdout": 11047, "\u0120nn": 11048, "ZW": 11049, "Executor": 11050, "236": 11051, "184": 11052, "umpy": 11053, "Rotation": 11054, "\u0120Level": 11055, "chk": 11056, "\u0120DEAL": 11057, "copyright": 11058, "DIM": 11059, "\u0120models": 11060, "\u0120lv": 11061, "ja": 11062, "\u0120omp": 11063, "GCC": 11064, "\u0120PIO": 11065, "\u0120AUTHORS": 11066, "META": 11067, "PRIVATE": 11068, "216": 11069, "\u012054": 11070, "une": 11071, "\u0120slave": 11072, "\u0120Main": 11073, "lambda": 11074, "mapped": 11075, "microsoft": 11076, "\u0120msm": 11077, "FINISH": 11078, "800000": 11079, "\u0120art": 11080, "\u0120limitation": 11081, "Sel": 11082, "Branch": 11083, "FOUND": 11084, "\u0120returning": 11085, "(::": 11086, "paths": 11087, "$$": 11088, "bsd": 11089, "\u0120SIM": 11090, "fragment": 11091, "SUN": 11092, "CV": 11093, "dapm": 11094, "gmail": 11095, "\u0120RET": 11096, "176": 11097, "\u0120processor": 11098, "\u0120Tree": 11099, "<>(": 11100, "179": 11101, "EXCEPTION": 11102, "bx": 11103, "plugins": 11104, "ansion": 11105, "aid": 11106, "\u0120makes": 11107, "644": 11108, "ABORT": 11109, "Compute": 11110, "PLAT": 11111, "Credentials": 11112, "096": 11113, "iro": 11114, "stit": 11115, "\u0120correctly": 11116, "units": 11117, "\u0120'[": 11118, "IELD": 11119, "\u0120alt": 11120, "0123456789012345678901234567890123456789012345678901234567890123456789012345678901234567890123456789012345678901234567890123456789012345678901234567890123456789": 11121, "Chart": 11122, "(\",": 11123, "UNICODE": 11124, "\u0120Order": 11125, "magic": 11126, "hh": 11127, "UNSPEC": 11128, "\u0120reinterpret": 11129, "controls": 11130, "\u0120much": 11131, "swer": 11132, "rie": 11133, "454": 11134, "\u0120'../": 11135, "\u0120glyph": 11136, "\u0109\u0109\u0109\u0109\u0109\u0109\u0109": 11137, "HDMI": 11138, "\u0120glad": 11139, "Round": 11140, "\u0120/****************************************************************": 11141, "\u0120units": 11142, ")||": 11143, "RIX": 11144, "room": 11145, "\u0120DEALINGS": 11146, "RQ": 11147, "bulk": 11148, "PENDING": 11149, "DISPLAY": 11150, "asd": 11151, "\u0120NOTICES": 11152, "concurrent": 11153, "226": 11154, "Diagnostics": 11155, "\u0120Last": 11156, "prt": 11157, "fid": 11158, "modes": 11159, "\u0120bank": 11160, "\u0120comparison": 11161, "\u0120parallel": 11162, "0020": 11163, "mic": 11164, "012345678901234567890123456789012345678901234567890": 11165, "Dependency": 11166, "ving": 11167, "\u01201234567890123456789012345678901234567890123456789012345678901234567890123456789012345678901234567890123456789012345678901234567890123456789012345678901234567890123456789": 11168, "\u01201234567890123456789012345678901234567890123456789012345678901234567890123456789012345678901234567890123456789012345678901234567890123456789012345678901234567890123456789012345678901234567890123456789012345678901234567890": 11169, "gree": 11170, "AZ": 11171, "FIXED": 11172, "\u00ce\u00b1": 11173, "\u0120flat": 11174, "parsed": 11175, "strong": 11176, "CTS": 11177, "\u0120compatibility": 11178, "\u0120design": 11179, "ji": 11180, "WB": 11181, "807": 11182, "&&!": 11183, "\u0120actions": 11184, "\u0120\u0109\u0109\u0109\u0109\u0109\u0120\u0120\u0120\u0120\u0120\u0120": 11185, "\u0120120": 11186, "211": 11187, "\u0120MV": 11188, "COVER": 11189, "THIS": 11190, "Contain": 11191, "leave": 11192, ")>": 11193, "}`": 11194, "TB": 11195, "===//": 11196, "OVRD": 11197, "WMI": 11198, "tod": 11199, "GRAPH": 11200, "\u0120CONST": 11201, "$.": 11202, "\u0120RD": 11203, "ggest": 11204, "\u0120bel": 11205, "\"},{": 11206, "mvm": 11207, "\u0120940": 11208, "]|": 11209, "floor": 11210, "Sender": 11211, "\u0120dataset": 11212, "sprintf": 11213, "anchor": 11214, "ience": 11215, "capacity": 11216, "\u0120similar": 11217, "finity": 11218, "smc": 11219, "00000100": 11220, "\u00e6\u012f": 11221, "echo": 11222, "Book": 11223, "229": 11224, "DEN": 11225, "zen": 11226, "\u0120thrown": 11227, "Verify": 11228, "Than": 11229, "\u012057": 11230, "JK": 11231, "going": 11232, "Unicode": 11233, "GED": 11234, "\u0120Sp": 11235, "SFT": 11236, "elist": 11237, "565": 11238, "parents": 11239, "\u0120supplied": 11240, "EAT": 11241, "MCR": 11242, "ETTER": 11243, "jiffies": 11244, "Deser": 11245, "Stride": 11246, "\u0120USER": 11247, "\u0120Limit": 11248, "functions": 11249, "uF": 11250, "\u0120UInt": 11251, "days": 11252, "erce": 11253, "SCHED": 11254, "\u0120NVIC": 11255, "ste": 11256, "\u0120nf": 11257, "associ": 11258, "\u0120cps": 11259, "Adv": 11260, "StatusTypeDef": 11261, "\u0120marker": 11262, "\u0120panel": 11263, "pull": 11264, "\u0120Rel": 11265, "\u0120endl": 11266,
[...]
